[PAD]	0
[UNK]	0
[EOS]	0
[BOS]	0
[SEP]	0
[CLS]	0
[MASK]	0
▁d	-0
▁l	-1
en	-2
ai	-3
es	-4
▁p	-5
▁s	-6
ou	-7
on	-8
▁c	-9
re	-10
▁a	-11
qu	-12
an	-13
▁m	-14
▁de	-15
er	-16
▁t	-17
▁qu	-18
et	-19
ent	-20
ait	-21
in	-22
le	-23
▁f	-24
il	-25
ar	-26
is	-27
it	-28
▁n	-29
▁v	-30
eu	-31
un	-32
▁la	-33
▁et	-34
▁b	-35
el	-36
▁j	-37
or	-38
▁le	-39
te	-40
ais	-41
om	-42
as	-43
▁r	-44
▁un	-45
our	-46
ous	-47
ant	-48
▁à	-49
▁h	-50
us	-51
ét	-52
▁que	-53
ur	-54
▁en	-55
ir	-56
me	-57
at	-58
he	-59
▁les	-60
au	-61
▁av	-62
em	-63
▁g	-64
▁re	-65
ans	-66
▁pr	-67
al	-68
eur	-69
ce	-70
ion	-71
ch	-72
▁il	-73
tre	-74
▁par	-75
▁au	-76
elle	-77
▁pas	-78
▁je	-79
est	-80
▁se	-81
ri	-82
▁ne	-83
av	-84
▁des	-85
oi	-86
▁M	-87
▁qui	-88
ui	-89
▁ét	-90
ag	-91
▁C	-92
▁pl	-93
▁o	-94
ien	-95
se	-96
▁tr	-97
▁L	-98
end	-99
out	-100
▁une	-101
ain	-102
and	-103
▁com	-104
▁ch	-105
▁dans	-106
--	-107
aient	-108
▁du	-109
ouv	-110
▁pour	-111
ment	-112
ont	-113
ab	-114
▁--	-115
▁in	-116
▁the	-117
ée	-118
▁w	-119
os	-120
ie	-121
onn	-122
res	-123
▁ce	-124
▁vous	-125
és	-126
▁I	-127
ons	-128
ol	-129
am	-130
▁J	-131
▁sur	-132
ort	-133
ec	-134
▁me	-135
ut	-136
ap	-137
ois	-138
▁E	-139
que	-140
▁son	-141
de	-142
▁lui	-143
éc	-144
ff	-145
ép	-146
▁P	-147
▁plus	-148
ers	-149
▁e	-150
im	-151
pr	-152
oir	-153
▁sa	-154
les	-155
▁A	-156
ig	-157
ing	-158
ac	-159
▁S	-160
▁an	-161
eux	-162
ère	-163
ette	-164
▁Il	-165
▁tout	-166
uis	-167
▁était	-168
ot	-169
ne	-170
..	-171
▁nous	-172
▁avait	-173
ement	-174
▁y	-175
▁avec	-176
ond	-177
si	-178
▁gr	-179
▁mais	-180
▁si	-181
▁to	-182
ard	-183
ad	-184
▁dit	-185
▁mon	-186
oin	-187
▁elle	-188
▁D	-189
ic	-190
ier	-191
aire	-192
iv	-193
ille	-194
▁«	-195
ér	-196
▁th	-197
▁al	-198
▁of	-199
▁bien	-200
▁on	-201
ure	-202
▁Je	-203
▁cette	-204
▁ses	-205
▁comme	-206
ès	-207
ul	-208
ue	-209
oy	-210
▁ma	-211
id	-212
ation	-213
age	-214
une	-215
ux	-216
ess	-217
ire	-218
ge	-219
ill	-220
▁T	-221
▁dé	-222
▁ent	-223
▁dis	-224
mes	-225
▁pro	-226
▁con	-227
était	-228
▁est	-229
eau	-230
▁cr	-231
▁N	-232
able	-233
ez	-234
▁fr	-235
▁!	-236
▁br	-237
ors	-238
▁quel	-239
emp	-240
lle	-241
ord	-242
▁peu	-243
▁é	-244
uit	-245
▁ex	-246
▁ar	-247
▁leur	-248
▁ou	-249
▁B	-250
oul	-251
ore	-252
ter	-253
oup	-254
▁–	-255
▁ser	-256
oute	-257
ine	-258
▁F	-259
bl	-260
ert	-261
être	-262
▁dev	-263
▁rép	-264
aut	-265
▁as	-266
▁V	-267
ens	-268
ble	-269
ité	-270
▁O	-271
▁ap	-272
ions	-273
▁at	-274
iss	-275
▁deux	-276
▁dem	-277
▁for	-278
▁su	-279
ours	-280
▁Le	-281
ay	-282
▁mar	-283
▁sans	-284
otre	-285
che	-286
ême	-287
▁and	-288
▁ces	-289
omme	-290
op	-291
ôt	-292
tr	-293
oit	-294
▁grand	-295
ées	-296
▁all	-297
▁moi	-298
ang	-299
ieu	-300
endre	-301
agn	-302
aiss	-303
▁fait	-304
▁H	-305
ence	-306
▁car	-307
▁he	-308
▁R	-309
▁wh	-310
▁che	-311
▁am	-312
ed	-313
ance	-314
▁;	-315
▁G	-316
▁Q	-317
▁pass	-318
▁La	-319
▁main	-320
ante	-321
▁Mais	-322
app	-323
▁part	-324
ong	-325
ques	-326
cc	-327
all	-328
pl	-329
onc	-330
ière	-331
▁reg	-332
endant	-333
▁faire	-334
▁?	-335
êt	-336
omb	-337
st	-338
ieur	-339
ve	-340
▁im	-341
ass	-342
...	-343
ût	-344
ver	-345
▁enc	-346
▁fut	-347
▁»	-348
▁cel	-349
um	-350
▁Et	-351
eure	-352
ite	-353
air	-354
▁trouv	-355
if	-356
▁cont	-357
orte	-358
▁où	-359
anc	-360
▁ré	-361
▁that	-362
▁encore	-363
én	-364
▁pouv	-365
▁répond	-366
▁aux	-367
ci	-368
▁jus	-369
ign	-370
art	-371
▁"	-372
aine	-373
ace	-374
ils	-375
▁his	-376
▁mes	-377
rent	-378
▁puis	-379
▁ven	-380
▁Qu	-381
ct	-382
oint	-383
▁man	-384
ith	-385
▁per	-386
▁seu	-387
▁regard	-388
▁été	-389
cher	-390
▁ter	-391
enc	-392
▁aus	-393
avait	-394
▁temp	-395
▁was	-396
▁même	-397
▁pet	-398
▁rem	-399
aux	-400
ieux	-401
▁cour	-402
▁ils	-403
pos	-404
▁donn	-405
▁éc	-406
ail	-407
▁dont	-408
▁demand	-409
ose	-410
▁mal	-411
▁Elle	-412
ra	-413
int	-414
ourn	-415
esp	-416
▁long	-417
ête	-418
▁be	-419
▁dire	-420
up	-421
▁point	-422
▁fem	-423
▁cons	-424
rem	-425
éd	-426
ique	-427
▁donc	-428
tres	-429
lement	-430
▁jeu	-431
avais	-432
ten	-433
elles	-434
▁enf	-435
▁comm	-436
èrent	-437
près	-438
onne	-439
▁quelque	-440
▁rien	-441
▁quand	-442
od	-443
▁tou	-444
▁comp	-445
▁app	-446
▁temps	-447
▁Ce	-448
ég	-449
ise	-450
ow	-451
▁di	-452
éri	-453
▁coup	-454
vous	-455
▁sem	-456
▁jam	-457
▁:	-458
▁En	-459
▁aussi	-460
▁homme	-461
▁ab	-462
▁sous	-463
▁eu	-464
▁tous	-465
onsieur	-466
▁dés	-467
oire	-468
ich	-469
▁U	-470
bre	-471
▁rec	-472
ants	-473
eurs	-474
rait	-475
gn	-476
ist	-477
ole	-478
▁att	-479
ven	-480
auv	-481
▁toute	-482
li	-483
▁ép	-484
▁had	-485
▁déc	-486
▁ca	-487
ré	-488
riv	-489
▁ret	-490
▁entre	-491
▁fort	-492
▁votre	-493
▁cela	-494
▁mom	-495
▁moment	-496
▁ai	-497
oins	-498
▁fois	-499
aî	-500
ett	-501
▁him	-502
▁être	-503
ave	-504
▁voy	-505
▁sou	-506
▁vie	-507
▁pos	-508
ro	-509
▁jamais	-510
▁pens	-511
▁fais	-512
▁parl	-513
▁fer	-514
▁répondit	-515
▁sent	-516
ect	-517
use	-518
▁là	-519
▁yeux	-520
▁repr	-521
ob	-522
ex	-523
je	-524
▁femme	-525
▁trois	-526
ches	-527
▁voi	-528
min	-529
▁Les	-530
are	-531
▁cap	-532
ile	-533
▁beau	-534
iè	-535
▁jour	-536
▁port	-537
▁voir	-538
▁cl	-539
▁mont	-540
▁peut	-541
omp	-542
att	-543
▁vers	-544
▁étaient	-545
él	-546
▁jusqu	-547
▁trav	-548
iers	-549
▁pers	-550
▁prem	-551
ale	-552
rt	-553
jours	-554
▁with	-555
ins	-556
ate	-557
asse	-558
▁eff	-559
▁sec	-560
▁quelques	-561
▁fit	-562
▁suis	-563
ly	-564
▁vis	-565
▁rest	-566
uiv	-567
▁toujours	-568
oc	-569
arg	-570
▁voul	-571
▁der	-572
ient	-573
arr	-574
▁tu	-575
▁On	-576
th	-577
ât	-578
sez	-579
▁ni	-580
▁laiss	-581
▁acc	-582
▁you	-583
▁petit	-584
▁après	-585
▁co	-586
▁ob	-587
dre	-588
ainsi	-589
itu	-590
og	-591
▁ad	-592
▁heur	-593
▁dou	-594
▁leurs	-595
▁jeune	-596
ps	-597
▁avoir	-598
ied	-599
ettre	-600
▁monsieur	-601
ide	-602
▁ainsi	-603
▁moins	-604
ress	-605
urs	-606
▁Ch	-607
▁col	-608
ame	-609
▁cri	-610
▁porte	-611
▁pe	-612
▁fl	-613
ommes	-614
illes	-615
▁bon	-616
ell	-617
rai	-618
▁toutes	-619
pt	-620
▁cor	-621
▁nouv	-622
▁not	-623
▁cou	-624
roit	-625
▁Jul	-626
autre	-627
▁heures	-628
▁sont	-629
▁which	-630
▁prof	-631
▁cham	-632
▁Julien	-633
port	-634
▁her	-635
▁autre	-636
▁aff	-637
▁fin	-638
▁alors	-639
aille	-640
ies	-641
ente	-642
▁int	-643
▁is	-644
nes	-645
ice	-646
▁dép	-647
agnan	-648
Art	-649
▁chose	-650
▁notre	-651
Artagnan	-652
▁Vous	-653
▁sembl	-654
▁sort	-655
▁mer	-656
▁tête	-657
ret	-658
ents	-659
▁Par	-660
▁it	-661
▁très	-662
▁st	-663
▁cher	-664
puis	-665
▁conn	-666
écri	-667
ht	-668
▁arriv	-669
▁cet	-670
▁min	-671
étais	-672
▁—	-673
▁bl	-674
▁bou	-675
iqu	-676
▁mot	-677
▁devant	-678
▁ten	-679
.»	-680
▁viv	-681
▁pouvait	-682
▁mat	-683
urent	-684
▁rés	-685
▁avaient	-686
▁my	-687
ém	-688
▁suiv	-689
och	-690
▁char	-691
▁pris	-692
▁aur	-693
▁so	-694
ere	-695
▁sup	-696
emb	-697
▁pied	-698
ages	-699
ud	-700
▁heure	-701
tenant	-702
ets	-703
▁non	-704
▁terre	-705
▁contre	-706
▁lors	-707
ça	-708
▁env	-709
ues	-710
▁avant	-711
abri	-712
avoir	-713
erv	-714
ath	-715
▁déj	-716
▁maî	-717
▁pendant	-718
oil	-719
uite	-720
▁contin	-721
▁ple	-722
▁sal	-723
ature	-724
▁pu	-725
ould	-726
iez	-727
▁chez	-728
io	-729
▁sour	-730
▁trop	-731
▁Nous	-732
▁inst	-733
▁capit	-734
tant	-735
▁emp	-736
▁prés	-737
▁soir	-738
aque	-739
rit	-740
▁chev	-741
ran	-742
iment	-743
▁faut	-744
atre	-745
▁nuit	-746
▁serv	-747
sible	-748
▁tomb	-749
▁ass	-750
▁W	-751
▁voix	-752
pendant	-753
▁grande	-754
▁Mr	-755
çon	-756
▁sol	-757
fin	-758
▁cert	-759
irent	-760
▁Al	-761
▁côt	-762
▁cond	-763
ations	-764
aur	-765
▁ag	-766
▁compr	-767
▁conv	-768
ouss	-769
▁Mme	-770
▁dét	-771
▁monde	-772
▁Un	-773
itt	-774
▁eût	-775
▁rev	-776
tement	-777
▁sais	-778
▁nom	-779
êtes	-780
ié	-781
▁ver	-782
ition	-783
orm	-784
▁have	-785
act	-786
▁assez	-787
▁sp	-788
este	-789
▁depuis	-790
ke	-791
▁she	-792
▁gar	-793
▁jours	-794
ienne	-795
▁capitaine	-796
▁tant	-797
éch	-798
▁pres	-799
▁ouv	-800
eus	-801
▁inc	-802
ici	-803
ner	-804
▁jet	-805
uer	-806
▁sh	-807
heure	-808
lev	-809
tem	-810
aill	-811
▁près	-812
oug	-813
▁vol	-814
ables	-815
▁auc	-816
inc	-817
▁hab	-818
mer	-819
▁mort	-820
anger	-821
ive	-822
écria	-823
▁maison	-824
▁dern	-825
▁this	-826
imp	-827
aud	-828
▁autres	-829
▁by	-830
uss	-831
▁cin	-832
▁gl	-833
zio	-834
▁souv	-835
abrizio	-836
▁chambre	-837
aid	-838
▁Fabrizio	-839
▁mis	-840
▁pay	-841
ures	-842
ombre	-843
ade	-844
ib	-845
▁or	-846
▁conf	-847
▁serait	-848
▁seul	-849
▁À	-850
▁quatre	-851
▁ind	-852
oign	-853
▁haut	-854
▁pré	-855
▁The	-856
▁Au	-857
iens	-858
▁bout	-859
ix	-860
cle	-861
▁faisait	-862
rer	-863
gl	-864
▁fille	-865
▁entend	-866
fois	-867
▁maintenant	-868
▁quoi	-869
▁cent	-870
▁rais	-871
même	-872
quel	-873
▁ins	-874
ip	-875
▁can	-876
▁feu	-877
▁travers	-878
▁prom	-879
par	-880
▁es	-881
▁fond	-882
▁bras	-883
▁préc	-884
▁côté	-885
tes	-886
aires	-887
▁doute	-888
▁no	-889
▁eut	-890
▁demanda	-891
▁fou	-892
."	-893
▁peine	-894
▁_	-895
▁liv	-896
▁reconn	-897
▁mil	-898
yr	-899
▁avez	-900
▁matin	-901
ze	-902
▁rapp	-903
▁De	-904
▁Oui	-905
ah	-906
▁off	-907
avez	-908
▁continu	-909
▁sc	-910
▁appr	-911
▁parler	-912
ingt	-913
omm	-914
▁mille	-915
elf	-916
▁mur	-917
▁mari	-918
▁go	-919
▁É	-920
▁ph	-921
▁place	-922
▁Th	-923
ach	-924
issait	-925
lez	-926
enait	-927
▁Dieu	-928
▁Ils	-929
▁petite	-930
▁lieu	-931
▁prendre	-932
▁pauv	-933
là	-934
▁fall	-935
▁hommes	-936
▁Du	-937
appr	-938
▁vit	-939
ardin	-940
▁souff	-941
▁but	-942
ément	-943
▁Puis	-944
,"	-945
▁rend	-946
nd	-947
▁cal	-948
acc	-949
coup	-950
▁sil	-951
ouver	-952
▁ref	-953
▁certain	-954
île	-955
arb	-956
▁desc	-957
aise	-958
oilà	-959
rière	-960
▁bas	-961
▁gros	-962
oses	-963
▁nos	-964
▁év	-965
▁maître	-966
▁mains	-967
▁vrai	-968
dess	-969
▁bonne	-970
encro	-971
encroff	-972
▁personne	-973
▁Pencroff	-974
oid	-975
▁Con	-976
▁from	-977
▁mieux	-978
▁devait	-979
▁perd	-980
▁milieu	-981
ma	-982
▁ren	-983
ourd	-984
aître	-985
▁fig	-986
▁Une	-987
▁diff	-988
rez	-989
▁déjà	-990
▁Pr	-991
▁tour	-992
▁ans	-993
▁lev	-994
▁enfin	-995
▁te	-996
▁bes	-997
ug	-998
▁crois	-999
▁disait	-1000
▁nature	-1001
prit	-1002
ult	-1003
▁reprit	-1004
▁esp	-1005
▁fam	-1006
▁Alors	-1007
▁Gr	-1008
ust	-1009
erait	-1010
yrus	-1011
▁Si	-1012
▁Cyrus	-1013
▁venait	-1014
ces	-1015
▁imp	-1016
enir	-1017
▁pieds	-1018
▁compagn	-1019
ements	-1020
eth	-1021
▁celui	-1022
homme	-1023
fait	-1024
▁mad	-1025
▁occ	-1026
igne	-1027
▁plais	-1028
▁beaucoup	-1029
▁ord	-1030
▁seulement	-1031
ince	-1032
▁dist	-1033
▁vu	-1034
▁has	-1035
itude	-1036
▁nouveau	-1037
aint	-1038
▁tourn	-1039
iel	-1040
▁chaque	-1041
▁effet	-1042
esse	-1043
▁jou	-1044
▁who	-1045
▁vou	-1046
quoi	-1047
antes	-1048
onde	-1049
▁allait	-1050
▁chemin	-1051
▁vér	-1052
thos	-1053
▁fus	-1054
temps	-1055
▁fût	-1056
▁Ar	-1057
étaient	-1058
▁choses	-1059
▁air	-1060
▁Pour	-1061
▁écl	-1062
▁comment	-1063
▁rep	-1064
ight	-1065
▁loin	-1066
!»	-1067
ché	-1068
▁fa	-1069
▁lar	-1070
▁po	-1071
▁instant	-1072
iste	-1073
▁donner	-1074
ientôt	-1075
ines	-1076
▁soit	-1077
▁gens	-1078
rir	-1079
▁cam	-1080
jet	-1081
▁Cette	-1082
▁obs	-1083
▁eux	-1084
▁imm	-1085
▁reven	-1086
▁cinq	-1087
▁Tout	-1088
moi	-1089
▁cas	-1090
▁Sm	-1091
avant	-1092
▁soup	-1093
erç	-1094
idée	-1095
ense	-1096
rais	-1097
▁vent	-1098
ime	-1099
▁semblait	-1100
év	-1101
▁éch	-1102
▁dix	-1103
quet	-1104
▁route	-1105
▁déb	-1106
▁père	-1107
euse	-1108
▁êtes	-1109
▁Smith	-1110
▁exc	-1111
oie	-1112
uy	-1113
▁do	-1114
▁ami	-1115
▁vingt	-1116
▁k	-1117
▁Mil	-1118
▁Mon	-1119
abord	-1120
arqu	-1121
fl	-1122
essa	-1123
▁pouss	-1124
▁quest	-1125
▁pauvre	-1126
▁ici	-1127
▁Eh	-1128
iter	-1129
▁droit	-1130
▁aut	-1131
ières	-1132
▁bois	-1133
cev	-1134
ady	-1135
▁prop	-1136
▁Ah	-1137
▁hum	-1138
▁bruit	-1139
▁bord	-1140
ange	-1141
▁Quand	-1142
▁seule	-1143
ane	-1144
▁rou	-1145
▁presque	-1146
▁premier	-1147
....	-1148
▁déf	-1149
▁said	-1150
iques	-1151
anqu	-1152
heur	-1153
▁roi	-1154
▁compl	-1155
çait	-1156
▁mère	-1157
▁1	-1158
▁oncle	-1159
▁aurait	-1160
èv	-1161
▁coeur	-1162
▁elles	-1163
jout	-1164
▁exp	-1165
▁vois	-1166
▁Non	-1167
▁ann	-1168
▁partie	-1169
▁six	-1170
▁Mar	-1171
▁mois	-1172
ances	-1173
ction	-1174
▁vi	-1175
▁gen	-1176
▁Athos	-1177
▁lo	-1178
▁Char	-1179
dessus	-1180
▁inter	-1181
▁reste	-1182
▁table	-1183
ention	-1184
▁él	-1185
▁gard	-1186
▁laqu	-1187
▁passer	-1188
▁trouver	-1189
ande	-1190
▁gu	-1191
▁demi	-1192
▁celle	-1193
endait	-1194
anch	-1195
▁présent	-1196
▁ont	-1197
▁pays	-1198
âmes	-1199
▁lettre	-1200
arc	-1201
ères	-1202
ots	-1203
▁gre	-1204
aisse	-1205
ost	-1206
▁sang	-1207
▁ens	-1208
aissait	-1209
self	-1210
▁vos	-1211
enn	-1212
▁mit	-1213
▁sorte	-1214
▁contr	-1215
▁lorsque	-1216
one	-1217
ellement	-1218
irait	-1219
▁Paris	-1220
andis	-1221
▁renc	-1222
irer	-1223
▁face	-1224
ailleurs	-1225
enf	-1226
▁bientôt	-1227
▁emb	-1228
erie	-1229
▁one	-1230
▁would	-1231
ige	-1232
▁rent	-1233
ument	-1234
▁première	-1235
ats	-1236
▁noir	-1237
▁figure	-1238
▁ta	-1239
eut	-1240
▁profond	-1241
▁up	-1242
leur	-1243
oles	-1244
▁op	-1245
▁pol	-1246
▁retr	-1247
▁men	-1248
▁prit	-1249
▁surpr	-1250
▁Cependant	-1251
▁abs	-1252
▁réc	-1253
▁fen	-1254
▁rap	-1255
ict	-1256
▁li	-1257
▁riv	-1258
ela	-1259
équ	-1260
▁resp	-1261
ted	-1262
▁bar	-1263
▁aller	-1264
▁furent	-1265
▁will	-1266
▁perm	-1267
▁dom	-1268
▁extr	-1269
▁longtemps	-1270
▁commen	-1271
chait	-1272
ok	-1273
▁ég	-1274
▁ajout	-1275
veill	-1276
▁tard	-1277
▁raison	-1278
▁vue	-1279
di	-1280
▁belle	-1281
▁croy	-1282
▁dél	-1283
▁moy	-1284
▁vieux	-1285
▁fallait	-1286
▁mor	-1287
oll	-1288
▁Oh	-1289
▁autour	-1290
mé	-1291
liz	-1292
ome	-1293
▁dév	-1294
▁tranqu	-1295
▁silence	-1296
ras	-1297
ible	-1298
▁besoin	-1299
▁retourn	-1300
aff	-1301
uc	-1302
▁â	-1303
ume	-1304
ancs	-1305
▁ton	-1306
chant	-1307
ieurs	-1308
▁Fr	-1309
agne	-1310
▁bal	-1311
anche	-1312
ôte	-1313
▁voit	-1314
▁aucun	-1315
▁ro	-1316
gr	-1317
rée	-1318
ule	-1319
emain	-1320
ên	-1321
▁sera	-1322
▁cependant	-1323
▁arr	-1324
▁rel	-1325
ira	-1326
▁gén	-1327
épar	-1328
iz	-1329
orth	-1330
rible	-1331
abeth	-1332
▁journ	-1333
▁gal	-1334
▁put	-1335
▁ress	-1336
▁comb	-1337
▁were	-1338
▁grands	-1339
té	-1340
▁fe	-1341
▁Milady	-1342
▁inf	-1343
▁lit	-1344
▁question	-1345
▁simp	-1346
reux	-1347
▁hor	-1348
▁prod	-1349
cl	-1350
ains	-1351
▁ram	-1352
▁Dans	-1353
tu	-1354
▁Quel	-1355
▁ceux	-1356
lizabeth	-1357
▁end	-1358
▁cur	-1359
ident	-1360
▁been	-1361
▁sign	-1362
▁laquelle	-1363
▁inv	-1364
▁out	-1365
arbert	-1366
▁madame	-1367
▁va	-1368
▁enfant	-1369
▁possible	-1370
▁force	-1371
gré	-1372
▁ac	-1373
ience	-1374
oth	-1375
ilus	-1376
ouse	-1377
ache	-1378
onner	-1379
▁amis	-1380
oss	-1381
▁fac	-1382
▁fai	-1383
autilus	-1384
ger	-1385
▁nav	-1386
▁froid	-1387
▁trou	-1388
▁Que	-1389
▁tandis	-1390
cept	-1391
▁manqu	-1392
ind	-1393
▁Sa	-1394
bres	-1395
pe	-1396
abl	-1397
▁trans	-1398
aqu	-1399
▁voilà	-1400
▁Duch	-1401
▁cheval	-1402
▁savoir	-1403
▁sub	-1404
▁Duchessa	-1405
mait	-1406
▁corps	-1407
▁suff	-1408
itôt	-1409
▁gent	-1410
utes	-1411
king	-1412
▁lorsqu	-1413
▁venir	-1414
▁trouvait	-1415
ités	-1416
▁sole	-1417
▁chercher	-1418
▁red	-1419
▁see	-1420
▁dispar	-1421
▁quelle	-1422
ast	-1423
▁lég	-1424
▁sû	-1425
▁consid	-1426
▁lum	-1427
▁bour	-1428
▁mettre	-1429
▁souvent	-1430
▁cardin	-1431
endemain	-1432
ablement	-1433
▁aucune	-1434
oux	-1435
aign	-1436
▁fat	-1437
▁pâ	-1438
▁habit	-1439
aute	-1440
énieur	-1441
▁Harbert	-1442
▁Son	-1443
idi	-1444
▁caus	-1445
ênal	-1446
▁they	-1447
▁Rênal	-1448
▁cardinal	-1449
aurais	-1450
▁himself	-1451
ph	-1452
▁Ph	-1453
▁Bon	-1454
ierre	-1455
▁couv	-1456
argent	-1457
▁ay	-1458
ogg	-1459
été	-1460
▁Saint	-1461
▁frapp	-1462
▁disc	-1463
iere	-1464
▁(	-1465
▁Fogg	-1466
▁façon	-1467
esc	-1468
▁expl	-1469
▁plusieurs	-1470
▁visage	-1471
Nautilus	-1472
ris	-1473
▁plaisir	-1474
ingénieur	-1475
▁lendemain	-1476
▁famille	-1477
▁Ét	-1478
Je	-1479
▁Charles	-1480
œur	-1481
▁laisser	-1482
ern	-1483
bles	-1484
ends	-1485
▁femmes	-1486
▁pensée	-1487
▁mauv	-1488
alement	-1489
▁X	-1490
▁He	-1491
▁trem	-1492
avaient	-1493
la	-1494
▁Jane	-1495
▁quitt	-1496
enez	-1497
▁jeunes	-1498
▁enfants	-1499
ather	-1500
oh	-1501
erc	-1502
ester	-1503
resse	-1504
▁Ma	-1505
▁parce	-1506
autres	-1507
▁pourtant	-1508
▁litt	-1509
▁minutes	-1510
ss	-1511
eff	-1512
▁Monsieur	-1513
▁Elizabeth	-1514
arde	-1515
rant	-1516
▁garçon	-1517
▁appar	-1518
seil	-1519
▁voyait	-1520
▁mots	-1521
▁soleil	-1522
iend	-1523
uire	-1524
▁impos	-1525
▁dess	-1526
▁derrière	-1527
porter	-1528
▁rac	-1529
érieur	-1530
▁voulait	-1531
ov	-1532
▁ve	-1533
▁ever	-1534
▁propos	-1535
éon	-1536
▁Pl	-1537
▁let	-1538
▁pat	-1539
▁tri	-1540
▁sens	-1541
▁rendre	-1542
▁prov	-1543
orthos	-1544
▁Porthos	-1545
ieuse	-1546
▁viol	-1547
hab	-1548
▁pen	-1549
els	-1550
ener	-1551
▁adm	-1552
▁ciel	-1553
▁veux	-1554
▁diffic	-1555
iant	-1556
raient	-1557
▁occup	-1558
agin	-1559
ression	-1560
▁quit	-1561
RE	-1562
▁sat	-1563
▁them	-1564
▁trait	-1565
ura	-1566
▁ess	-1567
▁moyen	-1568
▁mous	-1569
occ	-1570
oix	-1571
▁fix	-1572
▁fils	-1573
▁ça	-1574
▁huit	-1575
▁pourquoi	-1576
▁passé	-1577
amis	-1578
ettes	-1579
approch	-1580
▁sentiment	-1581
qui	-1582
▁ir	-1583
▁ru	-1584
▁we	-1585
▁sommes	-1586
▁meme	-1587
oyer	-1588
tout	-1589
▁dir	-1590
▁salle	-1591
eût	-1592
▁day	-1593
în	-1594
▁pap	-1595
endu	-1596
arrêt	-1597
endit	-1598
onneur	-1599
▁suite	-1600
▁livres	-1601
vre	-1602
▁vint	-1603
▁convers	-1604
icul	-1605
▁reç	-1606
cteur	-1607
▁dernier	-1608
▁remarqu	-1609
▁continua	-1610
▁bat	-1611
▁personn	-1612
aines	-1613
▁pare	-1614
▁peur	-1615
▁Enfin	-1616
▁cir	-1617
▁mour	-1618
▁mouv	-1619
issant	-1620
▁court	-1621
ott	-1622
ards	-1623
ouill	-1624
écess	-1625
ales	-1626
▁oubl	-1627
▁sauv	-1628
▁dispos	-1629
▁nouvelle	-1630
oqu	-1631
▁désir	-1632
▁when	-1633
▁somme	-1634
▁paroles	-1635
lin	-1636
ène	-1637
▁pouvais	-1638
▁tranquille	-1639
aie	-1640
era	-1641
▁dr	-1642
▁arri	-1643
▁résol	-1644
▁Nem	-1645
▁val	-1646
▁découv	-1647
âce	-1648
▁us	-1649
▁toi	-1650
▁donné	-1651
▁décid	-1652
ades	-1653
▁Nemo	-1654
▁esprit	-1655
▁partir	-1656
▁there	-1657
mée	-1658
urer	-1659
enant	-1660
▁Prince	-1661
▁nécess	-1662
▁regardait	-1663
less	-1664
▁pén	-1665
ilett	-1666
âte	-1667
▁Conte	-1668
euf	-1669
eter	-1670
▁Pendant	-1671
aît	-1672
cha	-1673
ton	-1674
vent	-1675
▁rue	-1676
inaire	-1677
▁ville	-1678
alité	-1679
▁Roch	-1680
▁sing	-1681
▁cents	-1682
èse	-1683
▁tw	-1684
▁bri	-1685
▁ajouta	-1686
ham	-1687
▁voyage	-1688
▁demander	-1689
arguer	-1690
ber	-1691
iles	-1692
▁anim	-1693
▁entra	-1694
▁frère	-1695
▁lequel	-1696
▁autant	-1697
▁bonheur	-1698
off	-1699
▁Av	-1700
ième	-1701
▁Com	-1702
▁cru	-1703
▁sau	-1704
ngl	-1705
▁are	-1706
ignor	-1707
▁plut	-1708
▁surtout	-1709
arguerite	-1710
ars	-1711
▁any	-1712
▁Comme	-1713
▁connaiss	-1714
▁div	-1715
range	-1716
▁proc	-1717
▁succ	-1718
orme	-1719
▁vas	-1720
▁Marguerite	-1721
inter	-1722
▁chap	-1723
▁maîtres	-1724
▁parfait	-1725
▁Sir	-1726
▁gagn	-1727
emment	-1728
ley	-1729
▁joie	-1730
usement	-1731
▁petits	-1732
▁Ne	-1733
▁parut	-1734
red	-1735
▁Re	-1736
▁cab	-1737
emble	-1738
▁circ	-1739
ia	-1740
▁murm	-1741
▁Y	-1742
▁côte	-1743
▁ayant	-1744
onné	-1745
▁pal	-1746
II	-1747
ete	-1748
▁rê	-1749
orge	-1750
part	-1751
ateau	-1752
▁rapid	-1753
be	-1754
▁Mah	-1755
▁nombre	-1756
▁situ	-1757
▁envir	-1758
▁tenait	-1759
▁tromp	-1760
▁trouva	-1761
ses	-1762
▁rég	-1763
▁coups	-1764
▁crain	-1765
▁parole	-1766
ompagn	-1767
▁cause	-1768
▁croire	-1769
mi	-1770
▁obl	-1771
▁marin	-1772
▁vérité	-1773
▁your	-1774
▁avons	-1775
▁francs	-1776
▁manière	-1777
▁compagnons	-1778
sitôt	-1779
▁vais	-1780
▁aussitôt	-1781
▁conversation	-1782
▁compte	-1783
▁Sp	-1784
▁Ces	-1785
▁Lond	-1786
ussi	-1787
asser	-1788
▁afin	-1789
▁second	-1790
ution	-1791
▁sac	-1792
ilité	-1793
ity	-1794
▁entendu	-1795
hor	-1796
▁Nab	-1797
▁méd	-1798
ville	-1799
▁more	-1800
▁savait	-1801
▁vieille	-1802
env	-1803
▁doi	-1804
oindre	-1805
▁fortune	-1806
▁bât	-1807
èvres	-1808
▁camp	-1809
îner	-1810
▁plac	-1811
▁press	-1812
▁Darc	-1813
▁Conseil	-1814
hui	-1815
rim	-1816
▁Darcy	-1817
▁entendre	-1818
own	-1819
etre	-1820
amour	-1821
▁marqu	-1822
▁telle	-1823
▁vert	-1824
▁impossible	-1825
anç	-1826
embl	-1827
▁dur	-1828
▁Aramis	-1829
ièrement	-1830
▁commenc	-1831
rès	-1832
olie	-1833
▁just	-1834
▁plutôt	-1835
amb	-1836
geait	-1837
▁rire	-1838
▁génér	-1839
▁manger	-1840
eaux	-1841
ish	-1842
fter	-1843
▁eaux	-1844
▁four	-1845
▁voiture	-1846
▁considér	-1847
bes	-1848
▁mê	-1849
▁Londres	-1850
▁fenêtre	-1851
ack	-1852
aller	-1853
ises	-1854
îmes	-1855
▁Après	-1856
▁lib	-1857
▁plein	-1858
▁étions	-1859
uv	-1860
▁oui	-1861
▁Cela	-1862
▁lumière	-1863
▁garde	-1864
▁recomm	-1865
▁terrible	-1866
▁batt	-1867
▁great	-1868
▁cre	-1869
▁idée	-1870
▁little	-1871
ute	-1872
▁soul	-1873
▁longue	-1874
▁Ned	-1875
▁prêt	-1876
▁satis	-1877
issement	-1878
▁pouvoir	-1879
▁malheure	-1880
▁voulu	-1881
▁Étienne	-1882
▁tent	-1883
▁puiss	-1884
▁refus	-1885
▁malgré	-1886
opp	-1887
▁pre	-1888
asion	-1889
▁colons	-1890
iait	-1891
lice	-1892
▁lut	-1893
▁large	-1894
▁cœur	-1895
▁séri	-1896
cevoir	-1897
▁Des	-1898
ese	-1899
pect	-1900
▁form	-1901
éan	-1902
▁appel	-1903
▁Spilett	-1904
▁Rochester	-1905
az	-1906
▁fav	-1907
▁piè	-1908
ager	-1909
rouv	-1910
ough	-1911
▁dég	-1912
▁chac	-1913
▁conven	-1914
▁rencont	-1915
érèse	-1916
▁coll	-1917
action	-1918
▁Laurent	-1919
▁profess	-1920
jourd	-1921
▁quin	-1922
▁calme	-1923
▁rouge	-1924
▁vérit	-1925
▁some	-1926
▁désesp	-1927
▁racont	-1928
▁souvenir	-1929
▁act	-1930
iller	-1931
der	-1932
▁Quant	-1933
▁rempl	-1934
▁savez	-1935
▁tenir	-1936
rés	-1937
▁montre	-1938
▁Thérèse	-1939
▁Comment	-1940
▁regarda	-1941
ry	-1942
▁nu	-1943
tenir	-1944
▁Maheu	-1945
▁every	-1946
bé	-1947
ary	-1948
▁tir	-1949
acieux	-1950
▁retour	-1951
▁voulez	-1952
▁passion	-1953
amin	-1954
otte	-1955
▁dès	-1956
▁hors	-1957
▁charm	-1958
▁affaire	-1959
▁pourrait	-1960
▁Mrs	-1961
▁étr	-1962
▁into	-1963
nous	-1964
▁demeur	-1965
eté	-1966
aime	-1967
▁fil	-1968
▁larmes	-1969
?"	-1970
▁venu	-1971
▁hasard	-1972
▁rév	-1973
▁than	-1974
▁journée	-1975
▁if	-1976
auche	-1977
▁aperç	-1978
▁lèvres	-1979
ak	-1980
alier	-1981
▁vite	-1982
▁aband	-1983
?»	-1984
▁Mlle	-1985
▁bris	-1986
▁ju	-1987
▁rob	-1988
entes	-1989
▁empl	-1990
esprit	-1991
ettait	-1992
▁passa	-1993
▁épau	-1994
▁Passe	-1995
▁grâce	-1996
ian	-1997
égl	-1998
erai	-1999
▁effr	-2000
▁commun	-2001
ys	-2002
▁dame	-2003
▁salon	-2004
▁précip	-2005
▁quitter	-2006
▁rapport	-2007
▁Sans	-2008
▁voud	-2009
▁perdu	-2010
▁In	-2011
▁charg	-2012
▁milles	-2013
sieurs	-2014
▁front	-2015
▁éclat	-2016
▁observ	-2017
▁travail	-2018
▁ble	-2019
▁march	-2020
ely	-2021
usqu	-2022
▁what	-2023
▁fatig	-2024
▁heureux	-2025
ings	-2026
▁sept	-2027
▁dîner	-2028
ought	-2029
des	-2030
▁cria	-2031
▁faite	-2032
partout	-2033
▁pain	-2034
▁Passepartout	-2035
▁K	-2036
uits	-2037
▁Hen	-2038
arris	-2039
▁could	-2040
lex	-2041
▁It	-2042
▁vag	-2043
avantage	-2044
▁restait	-2045
ète	-2046
▁bouche	-2047
ock	-2048
igneur	-2049
itions	-2050
org	-2051
▁mod	-2052
ontre	-2053
▁made	-2054
▁shall	-2055
▁répondre	-2056
èle	-2057
bout	-2058
oche	-2059
oyez	-2060
▁sourire	-2061
oupe	-2062
ded	-2063
▁Est	-2064
▁Jean	-2065
▁deven	-2066
▁sortir	-2067
▁dos	-2068
amment	-2069
▁dém	-2070
▁bless	-2071
▁brill	-2072
▁prison	-2073
▁trouvé	-2074
fr	-2075
▁cré	-2076
▁tel	-2077
outer	-2078
▁roug	-2079
▁juste	-2080
▁simple	-2081
ection	-2082
▁remont	-2083
her	-2084
▁âme	-2085
▁vivre	-2086
▁puisque	-2087
▁étrange	-2088
▁bo	-2089
▁décl	-2090
oun	-2091
anches	-2092
▁foule	-2093
▁rester	-2094
▁sold	-2095
▁navire	-2096
eusement	-2097
uses	-2098
▁esc	-2099
▁filles	-2100
▁parmi	-2101
▁domest	-2102
entement	-2103
exp	-2104
ides	-2105
▁dorm	-2106
▁cinqu	-2107
▁quart	-2108
▁secret	-2109
▁passage	-2110
IT	-2111
lem	-2112
ève	-2113
ôle	-2114
rier	-2115
entend	-2116
▁Em	-2117
▁sus	-2118
ick	-2119
way	-2120
ouff	-2121
▁str	-2122
▁tend	-2123
▁parti	-2124
▁regarder	-2125
▁fri	-2126
istence	-2127
▁singul	-2128
▁respect	-2129
eil	-2130
érer	-2131
▁jug	-2132
▁doit	-2133
▁prin	-2134
▁propre	-2135
▁dernière	-2136
▁mousquet	-2137
ym	-2138
ôtel	-2139
ister	-2140
▁hist	-2141
▁leva	-2142
ication	-2143
▁meille	-2144
▁particul	-2145
arm	-2146
ree	-2147
acle	-2148
face	-2149
iver	-2150
▁even	-2151
▁poss	-2152
ît	-2153
ood	-2154
arch	-2155
▁quar	-2156
▁enn	-2157
▁sait	-2158
▁ensemble	-2159
▁fle	-2160
▁Harris	-2161
▁gouver	-2162
ck	-2163
▁doig	-2164
▁lang	-2165
▁tort	-2166
▁Votre	-2167
aig	-2168
▁cuis	-2169
▁tres	-2170
▁camar	-2171
▁dest	-2172
▁pois	-2173
▁soci	-2174
udence	-2175
▁after	-2176
▁dites	-2177
▁doigt	-2178
itation	-2179
▁mu	-2180
osse	-2181
▁hon	-2182
▁pou	-2183
▁hand	-2184
▁haute	-2185
▁volont	-2186
çons	-2187
▁Sur	-2188
▁mouvement	-2189
ler	-2190
▁ém	-2191
ueur	-2192
andide	-2193
▁basse	-2194
▁kn	-2195
lnes	-2196
▁traî	-2197
oyé	-2198
▁lam	-2199
▁réf	-2200
occup	-2201
▁rappel	-2202
▁trembl	-2203
▁présence	-2204
onna	-2205
oubl	-2206
urait	-2207
▁courant	-2208
ann	-2209
rie	-2210
▁pus	-2211
!"	-2212
cur	-2213
erte	-2214
oque	-2215
▁fis	-2216
▁parlait	-2217
▁Géd	-2218
▁fur	-2219
▁répét	-2220
▁Gédéon	-2221
▁Candide	-2222
▁»,	-2223
entre	-2224
ments	-2225
▁absol	-2226
▁pours	-2227
▁ey	-2228
dire	-2229
▁siè	-2230
▁douc	-2231
▁Alice	-2232
▁passe	-2233
▁faisant	-2234
▁grandes	-2235
arer	-2236
hors	-2237
▁duc	-2238
ailles	-2239
▁Math	-2240
▁etre	-2241
▁essay	-2242
▁quelqu	-2243
atherine	-2244
ope	-2245
▁hal	-2246
▁chant	-2247
▁départ	-2248
issaient	-2249
▁environ	-2250
obs	-2251
ves	-2252
assi	-2253
▁sud	-2254
▁amour	-2255
▁apport	-2256
▁tomber	-2257
igh	-2258
ords	-2259
▁Tré	-2260
▁ray	-2261
▁ris	-2262
▁sav	-2263
▁Lors	-2264
▁grav	-2265
aissez	-2266
▁import	-2267
▁Ge	-2268
expl	-2269
inte	-2270
▁anc	-2271
▁thé	-2272
aperç	-2273
▁Meau	-2274
▁pard	-2275
▁trente	-2276
▁Meaulnes	-2277
iche	-2278
▁cav	-2279
oncer	-2280
▁gauche	-2281
▁ensuite	-2282
▁2	-2283
ron	-2284
▁prob	-2285
▁voyant	-2286
▁éclair	-2287
▁mauvais	-2288
ty	-2289
ites	-2290
vers	-2291
fléch	-2292
▁oblig	-2293
▁signe	-2294
▁faites	-2295
▁donnait	-2296
▁mariage	-2297
▁Catherine	-2298
▁CH	-2299
▁pâle	-2300
▁their	-2301
▁these	-2302
▁demande	-2303
fs	-2304
▁St	-2305
▁sé	-2306
ilde	-2307
onst	-2308
▁lis	-2309
▁coul	-2310
▁Voilà	-2311
▁chacun	-2312
▁Bonacieux	-2313
▁rencontre	-2314
af	-2315
▁mét	-2316
▁upon	-2317
▁Aussi	-2318
▁perdre	-2319
▁savais	-2320
▁arriver	-2321
▁gouvern	-2322
▁distance	-2323
eng	-2324
ohn	-2325
onse	-2326
ife	-2327
reur	-2328
▁aujourd	-2329
ices	-2330
▁sûr	-2331
eterre	-2332
▁attend	-2333
▁Mathilde	-2334
▁reporter	-2335
▁davantage	-2336
érieure	-2337
▁différ	-2338
▁extrême	-2339
▁surface	-2340
old	-2341
▁én	-2342
▁sombre	-2343
▁vivement	-2344
ode	-2345
▁only	-2346
▁jardin	-2347
▁regret	-2348
▁disting	-2349
▁sentait	-2350
ngleterre	-2351
»,	-2352
!...	-2353
▁dér	-2354
▁déch	-2355
▁arriva	-2356
Oui	-2357
led	-2358
▁Cr	-2359
here	-2360
itié	-2361
▁fum	-2362
▁chien	-2363
▁debout	-2364
▁surprise	-2365
gé	-2366
ng	-2367
insi	-2368
jets	-2369
▁Ses	-2370
▁hér	-2371
▁tap	-2372
aleur	-2373
illage	-2374
▁forme	-2375
▁passait	-2376
▁paraissait	-2377
oud	-2378
▁content	-2379
▁réponse	-2380
ences	-2381
▁pron	-2382
▁imagin	-2383
AP	-2384
ita	-2385
erver	-2386
▁voulut	-2387
▁mus	-2388
aurait	-2389
▁command	-2390
romp	-2391
▁brû	-2392
reuse	-2393
▁nour	-2394
▁inqui	-2395
▁promen	-2396
▁suivant	-2397
hat	-2398
rons	-2399
ordre	-2400
▁effort	-2401
▁triste	-2402
▁cheveux	-2403
▁revenir	-2404
▁maîtresse	-2405
uie	-2406
yrt	-2407
yrton	-2408
▁Mole	-2409
▁sujet	-2410
▁ouvert	-2411
▁Or	-2412
▁suivre	-2413
ple	-2414
fore	-2415
▁bonn	-2416
▁very	-2417
▁train	-2418
éb	-2419
▁time	-2420
▁avais	-2421
▁resta	-2422
êtres	-2423
▁publ	-2424
▁colère	-2425
▁chevaux	-2426
▁Tréville	-2427
son	-2428
uir	-2429
utile	-2430
▁voici	-2431
▁service	-2432
▁eng	-2433
▁miss	-2434
▁réfléch	-2435
▁vraiment	-2436
▁Gran	-2437
▁arrêt	-2438
▁relev	-2439
▁combien	-2440
hed	-2441
▁Là	-2442
▁Land	-2443
▁atte	-2444
▁magn	-2445
ingley	-2446
▁semble	-2447
▁veille	-2448
ally	-2449
▁say	-2450
▁quant	-2451
ivement	-2452
▁arrivé	-2453
▁avions	-2454
▁marche	-2455
▁Bingley	-2456
▁messieurs	-2457
▁comprendre	-2458
ames	-2459
▁joy	-2460
ètres	-2461
oiselle	-2462
▁caract	-2463
▁regardant	-2464
Il	-2465
wn	-2466
▁two	-2467
euses	-2468
▁repos	-2469
▁Granite	-2470
▁courage	-2471
tru	-2472
onge	-2473
ingoire	-2474
▁should	-2475
▁taille	-2476
▁position	-2477
▁situation	-2478
ning	-2479
▁Marches	-2480
▁Gringoire	-2481
▁contraire	-2482
▁moit	-2483
▁étonn	-2484
▁cinquante	-2485
▁jeta	-2486
▁seconde	-2487
ld	-2488
ennet	-2489
▁faisaient	-2490
_,	-2491
uve	-2492
▁alla	-2493
▁canot	-2494
▁Bennet	-2495
▁droite	-2496
▁quinze	-2497
▁Pourquoi	-2498
▁attention	-2499
▁pouvaient	-2500
▁forc	-2501
▁prév	-2502
▁chang	-2503
ates	-2504
▁Can	-2505
▁Hol	-2506
▁immob	-2507
▁pierre	-2508
âch	-2509
ails	-2510
▁lat	-2511
▁vin	-2512
▁myst	-2513
▁sépar	-2514
▁Tu	-2515
▁dû	-2516
lles	-2517
▁arg	-2518
itait	-2519
▁Ainsi	-2520
▁devin	-2521
▁déjeu	-2522
▁pense	-2523
▁descend	-2524
▁retrouv	-2525
▁professeur	-2526
écl	-2527
▁Jim	-2528
▁donna	-2529
▁misér	-2530
honneur	-2531
▁dehors	-2532
▁devoir	-2533
ança	-2534
▁cad	-2535
▁parc	-2536
▁diable	-2537
▁emport	-2538
▁penser	-2539
▁endroit	-2540
▁log	-2541
▁ore	-2542
unes	-2543
après	-2544
▁Tous	-2545
▁compt	-2546
▁const	-2547
▁danger	-2548
né	-2549
erm	-2550
hum	-2551
lam	-2552
liqu	-2553
âteau	-2554
▁CHAP	-2555
arrêta	-2556
ifique	-2557
▁chair	-2558
▁genoux	-2559
▁mourir	-2560
assé	-2561
inst	-2562
lait	-2563
▁arm	-2564
▁suppl	-2565
▁portait	-2566
Eh	-2567
▁id	-2568
rine	-2569
House	-2570
▁impr	-2571
▁pleine	-2572
▁prépar	-2573
▁malheur	-2574
yp	-2575
étu	-2576
▁Emma	-2577
▁conc	-2578
acre	-2579
imes	-2580
▁fir	-2581
▁mou	-2582
attend	-2583
▁reine	-2584
▁France	-2585
▁moitié	-2586
▁lettres	-2587
▁regards	-2588
uré	-2589
ness	-2590
▁met	-2591
▁tém	-2592
▁poit	-2593
▁arbres	-2594
▁thought	-2595
auss	-2596
▁sin	-2597
indre	-2598
▁étrang	-2599
▁circonst	-2600
ked	-2601
▁coin	-2602
▁roul	-2603
▁vain	-2604
oureux	-2605
▁moindre	-2606
Et	-2607
▁Cl	-2608
ellig	-2609
▁plan	-2610
sement	-2611
lia	-2612
▁Tr	-2613
ouis	-2614
âtre	-2615
quels	-2616
▁demeure	-2617
▁épaules	-2618
▁fol	-2619
erent	-2620
▁dépl	-2621
▁morce	-2622
▁étant	-2623
▁déclar	-2624
▁couvert	-2625
00	-2626
▁neuf	-2627
▁songe	-2628
▁satisf	-2629
▁répondis	-2630
▁certainement	-2631
Qu	-2632
▁Cle	-2633
▁del	-2634
elopp	-2635
otion	-2636
▁veut	-2637
ious	-2638
jest	-2639
▁ache	-2640
▁nord	-2641
▁soin	-2642
▁habitu	-2643
▁échapp	-2644
ght	-2645
▁Ly	-2646
▁pouvez	-2647
ordinaire	-2648
▁far	-2649
iquer	-2650
▁spect	-2651
▁poursuiv	-2652
▁travaill	-2653
▁aig	-2654
▁Mont	-2655
▁préf	-2656
▁laissa	-2657
▁quarante	-2658
▁nouvelles	-2659
rif	-2660
▁Mad	-2661
▁eyes	-2662
▁rang	-2663
▁about	-2664
▁cours	-2665
▁laissé	-2666
▁revint	-2667
▁termin	-2668
elton	-2669
▁cous	-2670
▁libre	-2671
▁pensa	-2672
▁vient	-2673
aintenant	-2674
▁demandai	-2675
▁parfaitement	-2676
iff	-2677
Mais	-2678
▁délic	-2679
▁entrer	-2680
▁heureuse	-2681
▁demain	-2682
▁em	-2683
ateur	-2684
▁livre	-2685
▁écout	-2686
▁années	-2687
▁reconnaiss	-2688
Vous	-2689
ileas	-2690
▁Felton	-2691
▁Phileas	-2692
iance	-2693
▁over	-2694
▁stup	-2695
église	-2696
▁noire	-2697
▁Clelia	-2698
▁appart	-2699
âche	-2700
▁Cam	-2701
▁cach	-2702
▁élev	-2703
▁secou	-2704
▁serais	-2705
▁rapidement	-2706
▁os	-2707
ueil	-2708
▁oth	-2709
oires	-2710
▁cris	-2711
▁before	-2712
▁premiers	-2713
▁véritable	-2714
agé	-2715
asses	-2716
▁hers	-2717
▁most	-2718
▁voyez	-2719
usquement	-2720
meme	-2721
▁agré	-2722
▁look	-2723
▁pont	-2724
▁état	-2725
▁tirer	-2726
▁facile	-2727
▁poitrine	-2728
▁bec	-2729
▁Toute	-2730
▁never	-2731
ote	-2732
▁aim	-2733
▁tete	-2734
▁franch	-2735
con	-2736
âme	-2737
izon	-2738
▁mép	-2739
▁down	-2740
▁then	-2741
onnait	-2742
▁princi	-2743
ated	-2744
lons	-2745
▁our	-2746
▁fini	-2747
▁prét	-2748
▁sout	-2749
▁bel	-2750
▁libert	-2751
▁suffis	-2752
▁longues	-2753
▁know	-2754
▁admir	-2755
▁allez	-2756
▁George	-2757
▁destin	-2758
anim	-2759
ompl	-2760
▁Qui	-2761
ussent	-2762
▁young	-2763
érêt	-2764
▁soi	-2765
usion	-2766
▁donne	-2767
▁Holmes	-2768
▁lentement	-2769
étr	-2770
▁spe	-2771
ision	-2772
▁espè	-2773
▁life	-2774
▁assis	-2775
▁dents	-2776
▁auprès	-2777
▁bateau	-2778
▁réveill	-2779
▁attendre	-2780
▁déjeuner	-2781
ives	-2782
ayant	-2783
éloign	-2784
▁blanc	-2785
▁dress	-2786
▁monter	-2787
▁trouve	-2788
▁gentlem	-2789
▁prenait	-2790
▁campagne	-2791
cep	-2792
aude	-2793
erne	-2794
land	-2795
hôtel	-2796
▁bais	-2797
▁must	-2798
▁reconnaître	-2799
▁...	-2800
emple	-2801
▁faud	-2802
échapp	-2803
▁again	-2804
▁difficile	-2805
ful	-2806
édi	-2807
▁hur	-2808
▁gout	-2809
▁larg	-2810
▁apres	-2811
▁phras	-2812
........	-2813
▁murmura	-2814
êter	-2815
▁Pas	-2816
▁ard	-2817
▁pav	-2818
▁first	-2819
▁écrit	-2820
▁hauteur	-2821
▁quoique	-2822
▁histoire	-2823
▁direction	-2824
ITRE	-2825
▁dim	-2826
▁terr	-2827
▁Notre	-2828
▁vaisse	-2829
▁CHAPITRE	-2830
amp	-2831
ifs	-2832
ral	-2833
êcher	-2834
▁mons	-2835
▁polit	-2836
▁éprouv	-2837
▁compris	-2838
éré	-2839
fort	-2840
rice	-2841
▁Fix	-2842
▁nul	-2843
▁rej	-2844
appel	-2845
▁sortit	-2846
cin	-2847
lot	-2848
dain	-2849
▁ait	-2850
▁art	-2851
▁Depuis	-2852
▁prêtre	-2853
▁Camille	-2854
▁affaires	-2855
lant	-2856
çant	-2857
arriv	-2858
▁cord	-2859
▁faim	-2860
▁juge	-2861
▁trouvai	-2862
▁nécessaire	-2863
▁gui	-2864
▁pût	-2865
eusse	-2866
▁make	-2867
ûmes	-2868
▁font	-2869
▁pere	-2870
ieusement	-2871
▁devaient	-2872
▁ressembl	-2873
▁quelquefois	-2874
ned	-2875
odo	-2876
ires	-2877
ogne	-2878
▁way	-2879
▁mill	-2880
▁conse	-2881
▁jambes	-2882
où	-2883
let	-2884
oeil	-2885
▁Fran	-2886
▁flam	-2887
▁prot	-2888
▁baiss	-2889
▁troubl	-2890
ges	-2891
onie	-2892
▁bet	-2893
▁did	-2894
amais	-2895
▁z	-2896
orn	-2897
▁happ	-2898
▁robe	-2899
ession	-2900
▁forêt	-2901
▁merve	-2902
▁contem	-2903
▁excell	-2904
▁visite	-2905
escalier	-2906
iquement	-2907
▁compagnie	-2908
▁difficult	-2909
▁hés	-2910
eries	-2911
▁Deux	-2912
▁pist	-2913
▁ligne	-2914
▁pièce	-2915
▁instants	-2916
aces	-2917
ield	-2918
ocher	-2919
▁petites	-2920
▁brusquement	-2921
isc	-2922
ueill	-2923
▁voil	-2924
▁coucher	-2925
▁douleur	-2926
uait	-2927
▁bre	-2928
▁foi	-2929
▁good	-2930
▁chaud	-2931
▁venue	-2932
ouverte	-2933
▁conséqu	-2934
▁surpris	-2935
▁laissait	-2936
ouer	-2937
▁tal	-2938
lever	-2939
▁Lord	-2940
▁dout	-2941
▁Parma	-2942
▁clair	-2943
▁malade	-2944
▁rivage	-2945
▁princip	-2946
▁commençait	-2947
hing	-2948
thing	-2949
▁ferm	-2950
▁reçu	-2951
▁réun	-2952
▁susp	-2953
enfant	-2954
iennes	-2955
▁avent	-2956
▁papier	-2957
▁suppos	-2958
▁chapeau	-2959
▁marquis	-2960
▁naturelle	-2961
bas	-2962
anté	-2963
▁ach	-2964
▁ferme	-2965
▁réflex	-2966
▁crainte	-2967
▁répliqu	-2968
Ah	-2969
▁pan	-2970
▁tor	-2971
▁Cont	-2972
▁euss	-2973
▁offic	-2974
▁connaître	-2975
▁ber	-2976
▁wor	-2977
ercev	-2978
étude	-2979
▁Peut	-2980
▁allons	-2981
▁pensées	-2982
▁camarades	-2983
▁Se	-2984
oman	-2985
reté	-2986
▁mél	-2987
▁entr	-2988
▁vaste	-2989
lect	-2990
▁lad	-2991
▁jolie	-2992
▁chaise	-2993
▁grosse	-2994
▁projet	-2995
trait	-2996
▁doux	-2997
▁saut	-2998
importe	-2999
▁Ayrton	-3000
▁pensait	-3001
▁semaine	-3002
▁caractère	-3003
exc	-3004
esses	-3005
illon	-3006
▁Rien	-3007
▁angl	-3008
▁mach	-3009
▁rass	-3010
▁gliss	-3011
▁médec	-3012
▁other	-3013
▁château	-3014
▁société	-3015
▁retrouver	-3016
cul	-3017
▁craign	-3018
▁blanche	-3019
▁bâtiment	-3020
▁existence	-3021
Non	-3022
abbé	-3023
▁may	-3024
▁now	-3025
▁veu	-3026
osité	-3027
▁ceci	-3028
▁achev	-3029
its	-3030
oph	-3031
▁mér	-3032
appar	-3033
▁well	-3034
▁fourn	-3035
▁pluie	-3036
▁condition	-3037
▁absolument	-3038
▁DE	-3039
nent	-3040
▁lac	-3041
▁vap	-3042
▁Quoi	-3043
▁appe	-3044
▁espér	-3045
▁geste	-3046
affaire	-3047
▁servir	-3048
▁mauvaise	-3049
▁venaient	-3050
asim	-3051
onnu	-3052
▁Ver	-3053
▁chass	-3054
▁charge	-3055
▁ferait	-3056
▁gentil	-3057
▁porter	-3058
▁ja	-3059
▁Mes	-3060
▁org	-3061
▁mere	-3062
▁parlé	-3063
▁légère	-3064
▁res	-3065
▁traîn	-3066
▁Jamais	-3067
▁docteur	-3068
▁profonde	-3069
ili	-3070
œil	-3071
▁thr	-3072
ointe	-3073
▁dois	-3074
▁champ	-3075
asimodo	-3076
ilement	-3077
▁Pierre	-3078
▁moments	-3079
▁Quasimodo	-3080
éf	-3081
oln	-3082
▁goût	-3083
incoln	-3084
▁riche	-3085
▁disant	-3086
ft	-3087
jesté	-3088
▁come	-3089
▁fant	-3090
▁like	-3091
▁celles	-3092
▁embarr	-3093
▁examin	-3094
▁représ	-3095
▁justice	-3096
▁domestique	-3097
▁malheureux	-3098
▁sentiments	-3099
arn	-3100
can	-3101
uns	-3102
▁Br	-3103
hait	-3104
iser	-3105
▁ang	-3106
▁beaux	-3107
▁jeter	-3108
▁jusque	-3109
▁retomb	-3110
▁commenç	-3111
▁immense	-3112
▁At	-3113
riers	-3114
▁bons	-3115
▁meur	-3116
▁douce	-3117
▁malad	-3118
▁prend	-3119
▁pénét	-3120
▁tomba	-3121
▁lieues	-3122
▁étroit	-3123
bus	-3124
ered	-3125
inct	-3126
▁beg	-3127
istes	-3128
▁repl	-3129
curité	-3130
▁idées	-3131
▁three	-3132
▁mesure	-3133
▁village	-3134
emoiselle	-3135
bon	-3136
▁ill	-3137
▁tuer	-3138
▁Canad	-3139
▁crime	-3140
▁found	-3141
▁heart	-3142
idemment	-3143
paravant	-3144
▁Quelques	-3145
▁occasion	-3146
▁pourrais	-3147
aï	-3148
ari	-3149
▁cle	-3150
▁how	-3151
▁mag	-3152
▁cess	-3153
▁love	-3154
▁poche	-3155
horizon	-3156
▁mètres	-3157
▁commença	-3158
ué	-3159
▁ke	-3160
ands	-3161
céan	-3162
umes	-3163
inion	-3164
▁guer	-3165
▁brave	-3166
▁genre	-3167
▁relig	-3168
▁allaient	-3169
▁certaine	-3170
▁plaisant	-3171
▁descendre	-3172
Al	-3173
▁lire	-3174
▁tantôt	-3175
▁Lorsque	-3176
lé	-3177
ric	-3178
extr	-3179
tion	-3180
endue	-3181
▁flots	-3182
▁friss	-3183
▁souhait	-3184
hist	-3185
ject	-3186
▁gai	-3187
▁pes	-3188
▁rav	-3189
éress	-3190
▁This	-3191
▁lune	-3192
▁prix	-3193
▁rich	-3194
▁arrivée	-3195
▁recevoir	-3196
▁connaissance	-3197
▁Ad	-3198
erci	-3199
form	-3200
riere	-3201
▁Plus	-3202
▁forte	-3203
▁grave	-3204
▁parle	-3205
▁doucement	-3206
cre	-3207
ove	-3208
▁Moi	-3209
aving	-3210
▁honn	-3211
▁supp	-3212
idence	-3213
ération	-3214
▁change	-3215
▁without	-3216
▁tellement	-3217
elon	-3218
▁mén	-3219
▁nez	-3220
▁came	-3221
▁croyait	-3222
▁sommeil	-3223
▁transport	-3224
▁Où	-3225
▁bleu	-3226
▁déja	-3227
▁foll	-3228
▁midi	-3229
▁chois	-3230
▁dirige	-3231
▁mépris	-3232
▁herself	-3233
▁Canadien	-3234
▁accompagn	-3235
▁Maintenant	-3236
ON	-3237
pent	-3238
▁aura	-3239
▁soix	-3240
▁concl	-3241
▁voyag	-3242
▁Quelle	-3243
▁beauté	-3244
▁belles	-3245
▁chance	-3246
▁immédi	-3247
entendre	-3248
▁voulais	-3249
▁simplement	-3250
écut	-3251
▁équ	-3252
▁peau	-3253
▁went	-3254
▁guère	-3255
▁effray	-3256
▁sembla	-3257
▁sentit	-3258
▁éloign	-3259
rup	-3260
olog	-3261
ignes	-3262
venir	-3263
▁Bien	-3264
▁dames	-3265
dessous	-3266
oeu	-3267
▁vict	-3268
ission	-3269
▁verre	-3270
▁raisonn	-3271
rid	-3272
aval	-3273
rage	-3274
▁île	-3275
istre	-3276
▁Wick	-3277
rières	-3278
▁douze	-3279
▁going	-3280
▁plant	-3281
atement	-3282
▁Wickham	-3283
▁disparu	-3284
▁rivière	-3285
▁immobile	-3286
▁autrefois	-3287
▁spectacle	-3288
oré	-3289
état	-3290
▁jol	-3291
▁take	-3292
▁consol	-3293
▁double	-3294
▁voudrais	-3295
ep	-3296
rét	-3297
▁ois	-3298
aband	-3299
érence	-3300
▁allum	-3301
▁doigts	-3302
▁plateau	-3303
▁fenêtres	-3304
ks	-3305
èg	-3306
med	-3307
ème	-3308
▁bi	-3309
▁réd	-3310
▁tôt	-3311
▁coqu	-3312
ombres	-3313
▁noble	-3314
▁gagner	-3315
▁conduis	-3316
▁prisonn	-3317
▁entendit	-3318
▁compagnon	-3319
▁retourner	-3320
ared	-3321
▁Top	-3322
▁favor	-3323
▁auquel	-3324
▁follow	-3325
▁police	-3326
▁arrivait	-3327
▁soixante	-3328
anou	-3329
▁Cet	-3330
▁vig	-3331
geois	-3332
▁flot	-3333
anchet	-3334
▁faits	-3335
▁might	-3336
▁ordre	-3337
▁poign	-3338
iennent	-3339
seigneur	-3340
▁chaleur	-3341
▁détails	-3342
▁liberté	-3343
▁gentilhomme	-3344
▁An	-3345
▁inn	-3346
avons	-3347
▁persu	-3348
▁paraît	-3349
▁soirée	-3350
▁évén	-3351
▁morte	-3352
▁prise	-3353
▁recher	-3354
approcha	-3355
intérieur	-3356
▁conduite	-3357
ancer	-3358
▁mine	-3359
▁lourd	-3360
▁pointe	-3361
▁Planchet	-3362
adm	-3363
ias	-3364
orc	-3365
▁As	-3366
empl	-3367
erez	-3368
▁bill	-3369
▁faute	-3370
▁adress	-3371
▁bonnes	-3372
▁fallut	-3373
▁couleur	-3374
▁répliqua	-3375
▁sm	-3376
rire	-3377
▁saw	-3378
▁pier	-3379
▁vide	-3380
▁cesse	-3381
▁pitié	-3382
▁recul	-3383
▁firent	-3384
▁convict	-3385
▁intellig	-3386
aim	-3387
ina	-3388
œbus	-3389
alais	-3390
▁room	-3391
▁Phœbus	-3392
▁dessus	-3393
▁gardes	-3394
▁connais	-3395
▁marcher	-3396
▁vaisseau	-3397
élev	-3398
▁Louis	-3399
▁appuy	-3400
▁lever	-3401
idiacre	-3402
quelles	-3403
ene	-3404
aide	-3405
itre	-3406
▁Bov	-3407
embre	-3408
▁John	-3409
ouille	-3410
enaient	-3411
▁Bovary	-3412
▁portes	-3413
▁réserv	-3414
▁résult	-3415
▁montrer	-3416
▁passant	-3417
▁arra	-3418
▁espèce	-3419
▁indiqu	-3420
▁quitté	-3421
▁fussent	-3422
▁pareille	-3423
),	-3424
ypt	-3425
▁18	-3426
▁pir	-3427
▁rid	-3428
▁sym	-3429
▁disp	-3430
▁hard	-3431
▁saur	-3432
▁fréqu	-3433
▁soeur	-3434
▁course	-3435
entendis	-3436
▁convain	-3437
▁général	-3438
▁gentleman	-3439
▁représent	-3440
EN	-3441
ER	-3442
arp	-3443
▁ye	-3444
inet	-3445
▁Rod	-3446
ainte	-3447
▁barb	-3448
cepter	-3449
▁ignor	-3450
▁guerre	-3451
▁manque	-3452
▁repris	-3453
▁arrière	-3454
▁eussent	-3455
▁boutique	-3456
oncé	-3457
riez	-3458
▁fid	-3459
▁mise	-3460
▁Elles	-3461
▁divers	-3462
▁soudain	-3463
▁bourgeois	-3464
▁merveille	-3465
▁misérable	-3466
but	-3467
ogn	-3468
chée	-3469
eneral	-3470
▁extra	-3471
▁sable	-3472
▁serai	-3473
▁super	-3474
▁corral	-3475
▁peuple	-3476
histoire	-3477
▁contempl	-3478
per	-3479
tez	-3480
auff	-3481
cles	-3482
▁dén	-3483
aison	-3484
▁aime	-3485
▁find	-3486
▁fine	-3487
▁proch	-3488
▁horrible	-3489
▁ordinaire	-3490
▁recommand	-3491
phe	-3492
arre	-3493
oici	-3494
oirs	-3495
élas	-3496
ertes	-3497
▁diss	-3498
▁ment	-3499
▁thin	-3500
imagin	-3501
▁mange	-3502
▁chasse	-3503
▁devint	-3504
▁Majesté	-3505
▁nothing	-3506
▁ouverte	-3507
▁regarde	-3508
▁vitesse	-3509
▁cheminée	-3510
Angleterre	-3511
▁demandait	-3512
iée	-3513
cinq	-3514
sons	-3515
▁hun	-3516
▁crut	-3517
▁give	-3518
ateurs	-3519
▁maisons	-3520
▁entendait	-3521
▁personnes	-3522
▁tranquillement	-3523
▁pai	-3524
▁tur	-3525
assin	-3526
field	-3527
onnée	-3528
zaine	-3529
▁bête	-3530
▁curi	-3531
▁glac	-3532
▁gris	-3533
▁mers	-3534
▁mett	-3535
▁such	-3536
▁took	-3537
uments	-3538
▁being	-3539
▁comte	-3540
▁franç	-3541
▁révol	-3542
▁roches	-3543
▁inutile	-3544
adis	-3545
ound	-3546
▁But	-3547
▁jal	-3548
▁memb	-3549
▁vête	-3550
▁voile	-3551
▁Madame	-3552
▁argent	-3553
▁sentir	-3554
▁signal	-3555
▁questions	-3556
mar	-3557
omie	-3558
▁tim	-3559
▁uns	-3560
ivers	-3561
▁boute	-3562
▁Allons	-3563
▁faible	-3564
▁public	-3565
▁souper	-3566
airement	-3567
▁General	-3568
▁mettait	-3569
▁entièrement	-3570
▁pê	-3571
ares	-3572
arri	-3573
ever	-3574
ourg	-3575
▁pil	-3576
▁murs	-3577
▁ride	-3578
ouvrit	-3579
▁tante	-3580
▁where	-3581
ta	-3582
flu	-3583
▁LE	-3584
ètre	-3585
▁sonn	-3586
▁consc	-3587
▁condam	-3588
▁animaux	-3589
▁parcour	-3590
▁prenant	-3591
▁agréable	-3592
▁désespoir	-3593
▁troisième	-3594
Oh	-3595
han	-3596
quer	-3597
rimer	-3598
▁romp	-3599
▁infin	-3600
▁épouv	-3601
minence	-3602
▁énorme	-3603
▁aperçut	-3604
▁naturel	-3605
▁pauvres	-3606
▁créature	-3607
▁er	-3608
▁too	-3609
oyait	-3610
▁avis	-3611
▁back	-3612
▁brav	-3613
▁jeté	-3614
▁priv	-3615
▁suivi	-3616
▁désire	-3617
▁songer	-3618
▁souffr	-3619
▁cuisine	-3620
▁parfois	-3621
▁secours	-3622
archidiacre	-3623
▁auparavant	-3624
▁expression	-3625
▁profondément	-3626
▁éb	-3627
▁embr	-3628
▁rare	-3629
▁digne	-3630
▁impat	-3631
▁Signor	-3632
▁puisqu	-3633
▁rapide	-3634
▁soupir	-3635
▁intérêt	-3636
▁peuvent	-3637
▁ut	-3638
beau	-3639
osph	-3640
▁ant	-3641
▁cit	-3642
espér	-3643
▁rues	-3644
hommes	-3645
écriai	-3646
▁ennem	-3647
▁noirs	-3648
▁attach	-3649
▁oublié	-3650
▁précis	-3651
▁muraille	-3652
agr	-3653
▁ais	-3654
▁céd	-3655
▁fraî	-3656
▁affir	-3657
▁quite	-3658
ensible	-3659
▁puisse	-3660
▁connaissait	-3661
▁mousquetaires	-3662
aps	-3663
dia	-3664
▁fi	-3665
▁diam	-3666
▁once	-3667
rement	-3668
▁lueur	-3669
oût	-3670
reau	-3671
▁She	-3672
▁bag	-3673
▁dut	-3674
▁ext	-3675
▁giv	-3676
▁pot	-3677
▁bond	-3678
▁left	-3679
▁liqu	-3680
▁étud	-3681
▁mante	-3682
▁retir	-3683
▁soulev	-3684
▁seraient	-3685
▁attendait	-3686
▁reprendre	-3687
ason	-3688
vant	-3689
▁jur	-3690
ether	-3691
oland	-3692
▁last	-3693
▁sinc	-3694
▁somm	-3695
▁lampe	-3696
▁Lincoln	-3697
▁compter	-3698
▁persuad	-3699
▁devenait	-3700
▁laissant	-3701
▁évidemment	-3702
ulg	-3703
▁Buc	-3704
ièvre	-3705
▁aigu	-3706
▁armes	-3707
▁selon	-3708
▁poussa	-3709
▁revoir	-3710
▁partout	-3711
▁oreilles	-3712
ize	-3713
erve	-3714
▁Car	-3715
▁Seu	-3716
▁caf	-3717
▁fier	-3718
▁mena	-3719
espère	-3720
agement	-3721
habitude	-3722
▁terreur	-3723
ua	-3724
rib	-3725
?...	-3726
user	-3727
▁etc	-3728
▁meu	-3729
allais	-3730
▁Lydia	-3731
▁finit	-3732
▁longs	-3733
endroit	-3734
istance	-3735
▁courir	-3736
▁langue	-3737
▁triomp	-3738
▁époque	-3739
▁auraient	-3740
▁manquait	-3741
▁observer	-3742
sp	-3743
aph	-3744
atte	-3745
èvre	-3746
▁Che	-3747
▁obst	-3748
▁envie	-3749
▁récit	-3750
▁voisin	-3751
▁consent	-3752
▁mademoiselle	-3753
ub	-3754
▁Wh	-3755
rite	-3756
usse	-3757
érir	-3758
▁cul	-3759
▁Coll	-3760
▁parv	-3761
▁masse	-3762
▁repas	-3763
▁sourd	-3764
▁still	-3765
▁tourna	-3766
▁traits	-3767
iendrait	-3768
▁capable	-3769
▁médecin	-3770
▁violence	-3771
OU	-3772
.--	-3773
ial	-3774
pres	-3775
▁Mal	-3776
▁mém	-3777
▁prat	-3778
▁appris	-3779
▁pareil	-3780
▁posséd	-3781
ercevoir	-3782
▁portrait	-3783
▁Verrières	-3784
_.	-3785
ax	-3786
▁Am	-3787
▁bu	-3788
aume	-3789
▁Val	-3790
▁here	-3791
▁phil	-3792
▁rive	-3793
▁same	-3794
▁précéd	-3795
▁confiance	-3796
▁continuait	-3797
▁semblaient	-3798
we	-3799
auc	-3800
isme	-3801
ules	-3802
▁bén	-3803
▁ste	-3804
agnes	-3805
aquin	-3806
ureur	-3807
▁carri	-3808
▁galop	-3809
▁instr	-3810
▁mêmes	-3811
instant	-3812
▁ordres	-3813
▁répand	-3814
▁sacrif	-3815
▁sauver	-3816
▁morceau	-3817
▁remettre	-3818
▁promenade	-3819
▁fo	-3820
ific	-3821
èche	-3822
épau	-3823
▁méc	-3824
▁boire	-3825
▁fusil	-3826
▁seuls	-3827
▁touts	-3828
▁décidé	-3829
▁forces	-3830
▁suivit	-3831
▁ventre	-3832
obscurité	-3833
▁attendant	-3834
Un	-3835
oï	-3836
agit	-3837
oids	-3838
▁Hom	-3839
▁away	-3840
▁band	-3841
emport	-3842
▁lande	-3843
▁combat	-3844
▁terres	-3845
▁evening	-3846
ople	-3847
▁det	-3848
▁mir	-3849
▁sév	-3850
ipage	-3851
ished	-3852
other	-3853
▁exac	-3854
▁siff	-3855
entrée	-3856
ieuses	-3857
▁colon	-3858
▁laisse	-3859
▁Maheude	-3860
▁approch	-3861
▁through	-3862
▁trouvaient	-3863
▁immédiatement	-3864
ase	-3865
jour	-3866
onté	-3867
élic	-3868
▁Min	-3869
▁Rou	-3870
▁few	-3871
▁âge	-3872
ouest	-3873
rique	-3874
adress	-3875
▁lutte	-3876
▁oppos	-3877
erville	-3878
ètement	-3879
▁attent	-3880
▁battre	-3881
▁croyez	-3882
▁fleurs	-3883
▁minute	-3884
occasion	-3885
▁parlant	-3886
▁conduire	-3887
▁retourna	-3888
▁découvrir	-3889
elt	-3890
▁pa	-3891
aufr	-3892
ionn	-3893
▁And	-3894
▁pur	-3895
▁Avec	-3896
▁lady	-3897
▁those	-3898
▁compos	-3899
▁garder	-3900
▁repouss	-3901
Am	-3902
anit	-3903
Océan	-3904
▁mind	-3905
▁name	-3906
▁Voici	-3907
▁naufr	-3908
▁resté	-3909
kingham	-3910
oreille	-3911
▁Raquin	-3912
▁tendre	-3913
▁tournant	-3914
mê	-3915
oide	-3916
onça	-3917
allée	-3918
iteur	-3919
▁grim	-3920
▁prol	-3921
▁domin	-3922
▁affect	-3923
agissait	-3924
▁Collins	-3925
▁pierres	-3926
▁renvers	-3927
▁semaines	-3928
▁également	-3929
▁Buckingham	-3930
gie	-3931
▁fâ	-3932
arie	-3933
embr	-3934
oral	-3935
ibles	-3936
inqui	-3937
▁amie	-3938
▁onze	-3939
riture	-3940
▁fosse	-3941
▁poids	-3942
▁vague	-3943
▁viens	-3944
▁animal	-3945
▁anglais	-3946
▁croyais	-3947
▁efforts	-3948
▁trouble	-3949
▁derriere	-3950
▁rapproch	-3951
▁interromp	-3952
oué	-3953
sou	-3954
etty	-3955
▁vêt	-3956
avent	-3957
▁fabri	-3958
▁plain	-3959
▁régul	-3960
▁soyez	-3961
endredi	-3962
▁Winter	-3963
▁devenu	-3964
▁tempér	-3965
▁parents	-3966
▁derniers	-3967
▁cherchait	-3968
▁circonstances	-3969
pir	-3970
assa	-3971
▁sab	-3972
anité	-3973
cieux	-3974
hiver	-3975
émité	-3976
▁head	-3977
▁mang	-3978
▁ruis	-3979
▁cadav	-3980
▁payer	-3981
▁except	-3982
▁entière	-3983
▁sentais	-3984
▁suppose	-3985
▁volonté	-3986
▁marchait	-3987
En	-3988
établ	-3989
▁vaut	-3990
▁Henry	-3991
▁Jehan	-3992
▁folle	-3993
▁honte	-3994
▁jouer	-3995
▁plate	-3996
▁écras	-3997
▁entraîn	-3998
▁répétait	-3999
pit	-4000
▁eur	-4001
▁roy	-4002
▁sir	-4003
idité	-4004
ifice	-4005
oyons	-4006
▁toil	-4007
▁vive	-4008
éparer	-4009
▁plong	-4010
▁servi	-4011
▁devenir	-4012
▁galerie	-4013
▁montait	-4014
▁lesquels	-4015
AN	-4016
zo	-4017
til	-4018
▁XX	-4019
▁gé	-4020
oure	-4021
venu	-4022
ouche	-4023
seign	-4024
▁méch	-4025
▁prie	-4026
▁whom	-4027
ançait	-4028
avenir	-4029
onçait	-4030
▁déliv	-4031
▁gorge	-4032
▁santé	-4033
▁scène	-4034
▁philos	-4035
▁humaine	-4036
▁membres	-4037
▁toutefois	-4038
▁conscience	-4039
toi	-4040
êque	-4041
▁Nap	-4042
▁old	-4043
▁tué	-4044
▁éte	-4045
aimer	-4046
ctions	-4047
▁parla	-4048
fluence	-4049
▁causer	-4050
▁fauteu	-4051
▁répéta	-4052
▁voyais	-4053
▁accompl	-4054
▁mémoire	-4055
▁craindre	-4056
▁montagne	-4057
▁Éminence	-4058
▁Monseigneur	-4059
Dame	-4060
▁aimé	-4061
▁phys	-4062
▁renf	-4063
▁connu	-4064
▁frais	-4065
▁réuss	-4066
▁écriv	-4067
▁Roland	-4068
▁froide	-4069
▁ouvrit	-4070
▁recouv	-4071
▁faibles	-4072
▁produis	-4073
▁précaut	-4074
▁affection	-4075
▁satisfaction	-4076
aret	-4077
iger	-4078
sive	-4079
gment	-4080
iness	-4081
leurs	-4082
sière	-4083
urant	-4084
▁fera	-4085
▁pous	-4086
▁asked	-4087
▁woman	-4088
▁Homais	-4089
▁entour	-4090
▁étouff	-4091
▁exemple	-4092
▁rentrer	-4093
▁premières	-4094
▁vêtements	-4095
▁conditions	-4096
lo	-4097
▁ç	-4098
▁lâ	-4099
▁éd	-4100
écout	-4101
▁Vers	-4102
▁aveu	-4103
▁retur	-4104
▁semblable	-4105
▁facilement	-4106
▁XI	-4107
iece	-4108
éric	-4109
▁obé	-4110
▁pla	-4111
▁days	-4112
illons	-4113
▁puits	-4114
▁cacher	-4115
▁étonné	-4116
▁manteau	-4117
▁physion	-4118
▁témoign	-4119
▁Marchesa	-4120
▁justement	-4121
ater	-4122
istr	-4123
elier	-4124
▁Claude	-4125
▁propri	-4126
▁rouges	-4127
▁Compagn	-4128
▁conserv	-4129
aissaient	-4130
▁certains	-4131
▁profondeur	-4132
▁malheureuse	-4133
isé	-4134
▁mas	-4135
moins	-4136
▁perf	-4137
▁quat	-4138
▁sure	-4139
▁poste	-4140
▁serez	-4141
aperçus	-4142
▁indiff	-4143
▁rendez	-4144
arcation	-4145
▁charbon	-4146
▁paraître	-4147
▁3	-4148
den	-4149
val	-4150
quis	-4151
▁cat	-4152
mosph	-4153
▁amen	-4154
▁café	-4155
▁cell	-4156
▁doul	-4157
▁piqu	-4158
▁Franç	-4159
▁horse	-4160
▁remar	-4161
▁accept	-4162
▁dessin	-4163
▁siècle	-4164
éanmoins	-4165
▁colonel	-4166
▁soldats	-4167
III	-4168
oue	-4169
ull	-4170
ède	-4171
▁inj	-4172
▁Hans	-4173
▁hâte	-4174
▁word	-4175
▁corde	-4176
▁léger	-4177
▁calcul	-4178
▁courut	-4179
▁perdue	-4180
▁promis	-4181
▁rayons	-4182
▁science	-4183
▁meilleur	-4184
▁curiosité	-4185
▁rencontrer	-4186
▁don	-4187
▁own	-4188
ettez	-4189
étant	-4190
▁détr	-4191
▁reten	-4192
▁soign	-4193
▁vieill	-4194
▁Montsou	-4195
▁besogne	-4196
▁demandé	-4197
▁souffle	-4198
▁reconnut	-4199
▁Toutefois	-4200
▁montagnes	-4201
▁î	-4202
sib	-4203
▁Lev	-4204
▁nev	-4205
▁tab	-4206
▁glob	-4207
▁lect	-4208
▁toit	-4209
▁told	-4210
▁cried	-4211
▁fumée	-4212
▁haine	-4213
▁repar	-4214
▁tress	-4215
▁venez	-4216
▁envers	-4217
▁granit	-4218
▁montra	-4219
▁comprit	-4220
▁laquais	-4221
▁bataille	-4222
▁français	-4223
▁poissons	-4224
AR	-4225
née	-4226
itée	-4227
seau	-4228
▁ban	-4229
▁tre	-4230
armac	-4231
treet	-4232
vingt	-4233
▁Souv	-4234
▁cout	-4235
▁trah	-4236
issent	-4237
nglais	-4238
érique	-4239
▁côtés	-4240
▁mouch	-4241
▁neige	-4242
▁tenant	-4243
▁grosses	-4244
▁pharmac	-4245
▁évident	-4246
▁probable	-4247
▁quantité	-4248
▁rappelle	-4249
▁satisfait	-4250
▁réellement	-4251
▁complètement	-4252
osc	-4253
rel	-4254
ège	-4255
▁çà	-4256
dans	-4257
most	-4258
▁pun	-4259
▁sim	-4260
▁attr	-4261
▁paix	-4262
▁tira	-4263
▁vole	-4264
iments	-4265
isions	-4266
▁dange	-4267
▁outre	-4268
▁Chaval	-4269
▁levant	-4270
▁honnête	-4271
▁revenait	-4272
▁Compagnie	-4273
▁reconnaissance	-4274
éh	-4275
vue	-4276
ount	-4277
ront	-4278
▁Dès	-4279
▁Rob	-4280
▁aud	-4281
ained	-4282
artin	-4283
▁tell	-4284
épaule	-4285
▁chagr	-4286
▁remit	-4287
▁établ	-4288
▁curieux	-4289
▁ouvriers	-4290
acé	-4291
rig	-4292
ancé	-4293
irai	-4294
ohém	-4295
▁hât	-4296
▁rage	-4297
assait	-4298
▁folie	-4299
▁month	-4300
▁vertu	-4301
▁aimait	-4302
▁assise	-4303
▁cherch	-4304
▁commiss	-4305
▁mystéri	-4306
▁tourner	-4307
▁faudrait	-4308
ogue	-4309
opul	-4310
▁Pro	-4311
ermin	-4312
▁amus	-4313
▁felt	-4314
▁hier	-4315
accord	-4316
aleine	-4317
▁glace	-4318
▁joues	-4319
▁centre	-4320
▁chargé	-4321
▁faveur	-4322
▁friend	-4323
▁moyens	-4324
▁retard	-4325
▁volcan	-4326
▁fatigue	-4327
▁Marchese	-4328
▁charmante	-4329
huit	-4330
ways	-4331
▁ide	-4332
▁chef	-4333
▁chem	-4334
▁clef	-4335
▁degr	-4336
▁frém	-4337
▁maig	-4338
▁peux	-4339
▁chère	-4340
▁saint	-4341
oureuse	-4342
▁having	-4343
▁myself	-4344
▁phrase	-4345
▁poudre	-4346
▁retent	-4347
▁Levaque	-4348
▁pénible	-4349
attendait	-4350
,»	-4351
ru	-4352
▁Z	-4353
ken	-4354
agré	-4355
drez	-4356
▁enr	-4357
▁fre	-4358
érait	-4359
▁appl	-4360
▁wind	-4361
onnant	-4362
▁prouv	-4363
▁élect	-4364
▁étern	-4365
▁classe	-4366
▁people	-4367
▁préoccup	-4368
▁descendit	-4369
▁répondait	-4370
▁souvenirs	-4371
▁magnifique	-4372
▁disposition	-4373
isse	-4374
▁cer	-4375
▁Merc	-4376
▁soum	-4377
▁distr	-4378
▁recev	-4379
▁sinon	-4380
▁toile	-4381
▁lignes	-4382
▁partit	-4383
empêcher	-4384
▁cabinet	-4385
▁sérieux	-4386
▁convainc	-4387
▁prudence	-4388
▁souffrir	-4389
▁autrement	-4390
▁continuer	-4391
▁semblables	-4392
men	-4393
orb	-4394
uch	-4395
▁lu	-4396
▁od	-4397
trod	-4398
▁déd	-4399
▁gaz	-4400
érité	-4401
▁curé	-4402
▁ling	-4403
▁pend	-4404
▁post	-4405
▁queu	-4406
▁voie	-4407
inrent	-4408
istait	-4409
▁Henne	-4410
▁rendu	-4411
▁prodig	-4412
▁changer	-4413
▁propres	-4414
▁Angleterre	-4415
ey	-4416
oke	-4417
▁lun	-4418
ailli	-4419
oches	-4420
▁cost	-4421
iendra	-4422
▁bande	-4423
▁demie	-4424
▁whole	-4425
▁Toutes	-4426
▁degrés	-4427
▁tourment	-4428
▁Hennebeau	-4429
▁puissance	-4430
In	-4431
aul	-4432
die	-4433
tex	-4434
illé	-4435
orer	-4436
ores	-4437
▁Bel	-4438
▁lim	-4439
▁vif	-4440
ative	-4441
urope	-4442
wards	-4443
▁Léon	-4444
▁rose	-4445
▁vont	-4446
▁death	-4447
▁promp	-4448
▁silenc	-4449
▁vapeur	-4450
▁tombait	-4451
▁développ	-4452
▁imagination	-4453
▁physionomie	-4454
ash	-4455
qué	-4456
John	-4457
▁gib	-4458
itant	-4459
▁allé	-4460
▁bonté	-4461
▁monta	-4462
▁sangl	-4463
▁taill	-4464
▁words	-4465
▁bouill	-4466
▁espoir	-4467
▁rendit	-4468
▁sortait	-4469
▁voyageurs	-4470
IS	-4471
bli	-4472
oya	-4473
usc	-4474
acer	-4475
omin	-4476
rées	-4477
▁Jup	-4478
▁Luc	-4479
erais	-4480
plend	-4481
école	-4482
▁Sire	-4483
▁arch	-4484
▁ball	-4485
▁choc	-4486
▁door	-4487
▁pure	-4488
▁chute	-4489
▁blessé	-4490
▁couche	-4491
▁devais	-4492
▁entier	-4493
▁nuages	-4494
▁vivant	-4495
▁brouill	-4496
▁pensais	-4497
▁raisons	-4498
▁retrait	-4499
▁suivait	-4500
▁travaux	-4501
issements	-4502
▁Prudence	-4503
▁fauteuil	-4504
▁personnage	-4505
eci	-4506
ico	-4507
imm	-4508
sier	-4509
▁tas	-4510
oupes	-4511
▁nerv	-4512
▁rôle	-4513
alités	-4514
angers	-4515
autant	-4516
▁abond	-4517
▁coute	-4518
▁refer	-4519
▁étais	-4520
▁humeur	-4521
▁ouvrir	-4522
▁pensai	-4523
▁pensez	-4524
▁revenu	-4525
attendre	-4526
▁opinion	-4527
▁projets	-4528
▁rendait	-4529
▁toilette	-4530
▁domestiques	-4531
The	-4532
inv	-4533
▁Ex	-4534
▁sl	-4535
ilom	-4536
▁add	-4537
▁anx	-4538
▁!...	-4539
▁Grim	-4540
▁much	-4541
▁desse	-4542
▁foyer	-4543
▁champs	-4544
▁manoeu	-4545
▁prince	-4546
▁aimable	-4547
▁parties	-4548
▁aventure	-4549
▁regardai	-4550
▁nécessité	-4551
▁supporter	-4552
asp	-4553
alors	-4554
essie	-4555
▁coun	-4556
▁drap	-4557
▁merc	-4558
▁prud	-4559
▁rade	-4560
▁spéc	-4561
inture	-4562
▁assur	-4563
▁direc	-4564
▁popul	-4565
▁veuve	-4566
▁épous	-4567
▁mélanc	-4568
▁seemed	-4569
▁écrire	-4570
▁débarqu	-4571
▁montrait	-4572
effr	-4573
neau	-4574
ophe	-4575
▁Jac	-4576
▁Sauv	-4577
▁garn	-4578
▁rêve	-4579
▁soon	-4580
orable	-4581
▁bohém	-4582
▁jadis	-4583
▁tours	-4584
▁pistol	-4585
▁redout	-4586
▁rentra	-4587
▁complet	-4588
▁détourn	-4589
▁manquer	-4590
▁comptait	-4591
ûte	-4592
----	-4593
olphe	-4594
ormes	-4595
▁Long	-4596
▁gave	-4597
▁high	-4598
▁accus	-4599
▁dépos	-4600
▁révél	-4601
▁arrive	-4602
▁father	-4603
▁habits	-4604
▁mouill	-4605
▁partis	-4606
▁sommet	-4607
▁succès	-4608
▁intéress	-4609
▁résolution	-4610
▁supérieure	-4611
▁précisément	-4612
reg	-4613
iana	-4614
onfl	-4615
▁banc	-4616
▁pais	-4617
ouvrir	-4618
▁année	-4619
▁extre	-4620
▁globe	-4621
▁queue	-4622
▁salut	-4623
asseoir	-4624
▁débarr	-4625
▁défaut	-4626
▁fièvre	-4627
▁entrepr	-4628
▁réflexions	-4629
▁extraordinaire	-4630
,--	-4631
ild	-4632
ory	-4633
éte	-4634
▁rêv	-4635
▁véc	-4636
mêmes	-4637
▁Mort	-4638
▁chat	-4639
▁poor	-4640
▁tels	-4641
▁Mercy	-4642
▁finir	-4643
▁grond	-4644
▁plaît	-4645
▁tombe	-4646
▁désert	-4647
▁pièces	-4648
▁sortes	-4649
yptienne	-4650
▁Bientôt	-4651
▁oublier	-4652
existence	-4653
▁Vendredi	-4654
▁détermin	-4655
Ar	-4656
ape	-4657
ayer	-4658
elui	-4659
haps	-4660
once	-4661
érée	-4662
▁adv	-4663
▁kne	-4664
▁mam	-4665
▁nat	-4666
▁pér	-4667
▁roc	-4668
outez	-4669
reaux	-4670
usque	-4671
écile	-4672
▁requ	-4673
avance	-4674
espoir	-4675
▁Rassi	-4676
▁juger	-4677
▁neveu	-4678
▁since	-4679
▁terri	-4680
inconnu	-4681
oration	-4682
utation	-4683
▁chauss	-4684
▁dépens	-4685
▁repent	-4686
▁window	-4687
▁remords	-4688
▁retenir	-4689
▁poussait	-4690
▁raconter	-4691
▁découvert	-4692
▁supérieur	-4693
▁sérieusement	-4694
Le	-4695
imul	-4696
urst	-4697
▁Fer	-4698
▁Lui	-4699
acher	-4700
rions	-4701
▁foss	-4702
▁tonn	-4703
ageait	-4704
▁enlev	-4705
▁soupç	-4706
▁subit	-4707
▁étiez	-4708
arrêter	-4709
iration	-4710
▁blanch	-4711
▁boulev	-4712
▁compar	-4713
▁letter	-4714
▁portée	-4715
▁expliqu	-4716
▁songeait	-4717
LE	-4718
alt	-4719
▁Ou	-4720
ical	-4721
ongo	-4722
▁dra	-4723
aurai	-4724
▁bure	-4725
▁pavé	-4726
▁sûre	-4727
itaire	-4728
▁innoc	-4729
▁plomb	-4730
▁riant	-4731
▁venge	-4732
▁accord	-4733
▁chèvre	-4734
▁dormir	-4735
▁déchir	-4736
▁envoyé	-4737
▁métier	-4738
▁objets	-4739
▁quitta	-4740
▁signif	-4741
▁branches	-4742
▁marchand	-4743
▁souliers	-4744
ll	-4745
fax	-4746
îte	-4747
dred	-4748
mand	-4749
onte	-4750
ènes	-4751
▁Bas	-4752
▁His	-4753
▁lab	-4754
enfer	-4755
▁feet	-4756
▁plat	-4757
conque	-4758
uement	-4759
▁ferai	-4760
▁grève	-4761
▁order	-4762
▁têtes	-4763
▁valet	-4764
▁always	-4765
▁durant	-4766
▁apercev	-4767
▁courait	-4768
▁retirer	-4769
▁vouloir	-4770
--«	-4771
pes	-4772
uée	-4773
imer	-4774
midi	-4775
▁Mou	-4776
orité	-4777
▁Fair	-4778
▁answ	-4779
▁canal	-4780
▁fusse	-4781
▁soins	-4782
▁trace	-4783
▁years	-4784
blement	-4785
▁action	-4786
▁arrêté	-4787
▁criait	-4788
▁eurent	-4789
▁mienne	-4790
▁obligé	-4791
▁pardon	-4792
▁vivait	-4793
▁Fairfax	-4794
▁amoureux	-4795
▁résultat	-4796
▁comprends	-4797
▁exactement	-4798
▁particulier	-4799
IN	-4800
It	-4801
aies	-4802
ceiv	-4803
ouch	-4804
ouda	-4805
uste	-4806
▁Cun	-4807
▁amb	-4808
neaux	-4809
▁Pier	-4810
▁enfer	-4811
▁flott	-4812
▁rejet	-4813
▁trist	-4814
▁Bessie	-4815
▁détach	-4816
▁hautes	-4817
▁larges	-4818
▁prétex	-4819
sibilité	-4820
▁Quelque	-4821
▁hundred	-4822
▁portant	-4823
▁toucher	-4824
▁feuilles	-4825
▁instinct	-4826
▁surveill	-4827
▁circonstance	-4828
▁commencement	-4829
▁considérable	-4830
nez	-4831
oise	-4832
rock	-4833
▁irr	-4834
▁new	-4835
▁séd	-4836
icule	-4837
▁fuir	-4838
▁mout	-4839
import	-4840
çaient	-4841
▁Dongo	-4842
▁chand	-4843
▁given	-4844
▁hauss	-4845
▁night	-4846
▁round	-4847
▁seuil	-4848
▁sourc	-4849
▁speak	-4850
▁flamme	-4851
▁sienne	-4852
▁sévère	-4853
▁honneur	-4854
▁qualité	-4855
▁disparut	-4856
▁souriant	-4857
▁découverte	-4858
Ça	-4859
lée	-4860
▁LA	-4861
rale	-4862
ript	-4863
▁Pac	-4864
▁pic	-4865
▁tén	-4866
▁bruy	-4867
▁jure	-4868
▁open	-4869
ochers	-4870
▁amant	-4871
▁crier	-4872
▁expos	-4873
▁loint	-4874
▁matel	-4875
▁morts	-4876
▁points	-4877
▁remerc	-4878
▁valait	-4879
▁cadavre	-4880
▁produit	-4881
▁terrain	-4882
▁Rodolphe	-4883
▁apprendre	-4884
▁impression	-4885
▁mouvements	-4886
▁commissaire	-4887
ysi	-4888
▁tâ	-4889
gram	-4890
▁hôt	-4891
erons	-4892
icier	-4893
oisse	-4894
▁Pers	-4895
▁desp	-4896
▁feel	-4897
entour	-4898
▁Celui	-4899
▁citad	-4900
▁coron	-4901
▁house	-4902
▁pleas	-4903
arriver	-4904
▁inclin	-4905
▁oiseaux	-4906
▁chambres	-4907
▁discours	-4908
▁étonnement	-4909
▁Gu	-4910
hous	-4911
ined	-4912
▁Ind	-4913
▁loi	-4914
▁ner	-4915
▁som	-4916
mment	-4917
▁Chap	-4918
▁Mosc	-4919
▁dure	-4920
▁Hélas	-4921
▁There	-4922
▁baron	-4923
▁bibli	-4924
▁brise	-4925
▁jaune	-4926
▁navig	-4927
▁taken	-4928
▁groupe	-4929
▁poison	-4930
▁regagn	-4931
▁valeur	-4932
▁déclara	-4933
▁maladie	-4934
▁reconnu	-4935
▁sauvage	-4936
▁visiter	-4937
▁nouveaux	-4938
▁excellent	-4939
,—	-4940
vu	-4941
...,	-4942
aven	-4943
riff	-4944
ying	-4945
▁biz	-4946
▁doc	-4947
▁rom	-4948
effet	-4949
ishop	-4950
▁Stap	-4951
▁gest	-4952
▁pant	-4953
▁verd	-4954
examin	-4955
housias	-4956
▁disais	-4957
▁fleuve	-4958
▁saisit	-4959
▁telles	-4960
onnement	-4961
▁jeunesse	-4962
▁dernières	-4963
▁everything	-4964
▁mousquetaire	-4965
▁naturellement	-4966
▁'	-4967
ery	-4968
▁Es	-4969
angl	-4970
▁Bes	-4971
▁vac	-4972
▁assi	-4973
oyable	-4974
vement	-4975
▁congé	-4976
▁famil	-4977
▁Lorsqu	-4978
▁Martin	-4979
▁paquet	-4980
▁parlez	-4981
olemment	-4982
▁atteint	-4983
▁demeura	-4984
▁perhaps	-4985
▁violent	-4986
▁émotion	-4987
▁continue	-4988
expression	-4989
ara	-4990
Pour	-4991
ency	-4992
illa	-4993
ries	-4994
▁Auc	-4995
▁New	-4996
▁nov	-4997
angle	-4998
itect	-4999
▁pret	-5000
ertain	-5001
ignait	-5002
ignore	-5003
▁Cunég	-5004
▁Ketty	-5005
▁think	-5006
idement	-5007
▁constr	-5008
▁sortie	-5009
▁augment	-5010
▁comprom	-5011
▁douceur	-5012
▁present	-5013
▁voisine	-5014
▁incident	-5015
▁morceaux	-5016
▁Seulement	-5017
▁commandant	-5018
▁volontiers	-5019
You	-5020
iné	-5021
▁fan	-5022
irard	-5023
écoul	-5024
▁Arch	-5025
▁Bask	-5026
▁Reed	-5027
▁idea	-5028
▁oeil	-5029
▁read	-5030
atures	-5031
illait	-5032
quette	-5033
▁creus	-5034
▁remis	-5035
▁world	-5036
▁exécut	-5037
▁faudra	-5038
▁inconn	-5039
mosphère	-5040
▁Signora	-5041
▁chagrin	-5042
▁couches	-5043
▁enchant	-5044
▁faisais	-5045
▁frapper	-5046
▁longueur	-5047
▁Cunégonde	-5048
▁connaissez	-5049
▁Baskerville	-5050
by	-5051
œu	-5052
man	-5053
ired	-5054
▁mât	-5055
▁nob	-5056
atson	-5057
▁chal	-5058
▁géné	-5059
▁éner	-5060
endorm	-5061
▁Aouda	-5062
▁avert	-5063
échelle	-5064
▁Watson	-5065
▁appare	-5066
▁corrid	-5067
▁serons	-5068
ignation	-5069
▁morning	-5070
▁phrases	-5071
▁convicts	-5072
▁retraite	-5073
▁singulier	-5074
▁violemment	-5075
▁gouvernante	-5076
Ce	-5077
urg	-5078
▁If	-5079
▁el	-5080
atif	-5081
oiff	-5082
tern	-5083
▁Ber	-5084
▁hyp	-5085
▁num	-5086
ottes	-5087
▁Rass	-5088
▁cath	-5089
▁dent	-5090
▁péri	-5091
aillit	-5092
▁Mosca	-5093
▁degré	-5094
▁right	-5095
▁under	-5096
▁until	-5097
aperçut	-5098
▁accour	-5099
▁almost	-5100
▁formid	-5101
▁jetant	-5102
▁Jeanlin	-5103
▁absence	-5104
▁sachant	-5105
interromp	-5106
▁dissimul	-5107
▁rapidité	-5108
▁bouteille	-5109
▁conséquent	-5110
▁extrêmement	-5111
▁probablement	-5112
olé	-5113
uge	-5114
azzo	-5115
path	-5116
sent	-5117
▁Ici	-5118
▁buv	-5119
▁las	-5120
▁reb	-5121
allai	-5122
▁cage	-5123
▁élég	-5124
entrer	-5125
quatre	-5126
▁Princ	-5127
▁félic	-5128
▁guide	-5129
▁ombre	-5130
▁thing	-5131
▁jetait	-5132
▁repart	-5133
▁vagues	-5134
▁journal	-5135
▁machine	-5136
▁tempête	-5137
▁camarade	-5138
▁religion	-5139
▁sauvages	-5140
▁épouvant	-5141
▁difficulté	-5142
▁nourriture	-5143
▁événements	-5144
ES	-5145
fe	-5146
Est	-5147
iés	-5148
jou	-5149
ogr	-5150
éra	-5151
arté	-5152
enty	-5153
orde	-5154
vern	-5155
appuy	-5156
forme	-5157
ieres	-5158
oyant	-5159
âtres	-5160
▁hour	-5161
▁maud	-5162
▁renv	-5163
▁seen	-5164
▁thir	-5165
▁épée	-5166
encieux	-5167
▁dedans	-5168
▁marché	-5169
▁noires	-5170
▁pourra	-5171
▁seront	-5172
▁dessein	-5173
▁obtenir	-5174
▁Minister	-5175
▁passaient	-5176
▁tristesse	-5177
otes	-5178
▁pip	-5179
ancée	-5180
berge	-5181
isait	-5182
outum	-5183
ouvre	-5184
▁Très	-5185
▁fell	-5186
▁rude	-5187
▁sage	-5188
iaient	-5189
éclair	-5190
▁Avant	-5191
▁Grand	-5192
▁aviez	-5193
▁meurt	-5194
▁rayon	-5195
▁siège	-5196
▁tapis	-5197
▁tâche	-5198
▁visit	-5199
▁baiser	-5200
▁patron	-5201
▁prenez	-5202
▁preuve	-5203
▁sentis	-5204
▁sourit	-5205
▁couteau	-5206
▁sincère	-5207
▁tournait	-5208
▁réflexion	-5209
▁Fa	-5210
▁iv	-5211
▁mi	-5212
avec	-5213
eral	-5214
▁You	-5215
agnol	-5216
année	-5217
leton	-5218
▁cerv	-5219
▁five	-5220
▁mult	-5221
▁négl	-5222
▁perc	-5223
avança	-5224
ceived	-5225
icable	-5226
▁aurez	-5227
▁manif	-5228
▁marée	-5229
orgueil	-5230
▁bureau	-5231
▁jalous	-5232
▁permis	-5233
▁troupe	-5234
▁éveill	-5235
▁pousser	-5236
▁sympath	-5237
▁blanches	-5238
▁commencé	-5239
▁réfléchir	-5240
▁heureusement	-5241
Mon	-5242
chés	-5243
ison	-5244
ulte	-5245
élég	-5246
▁Peu	-5247
▁civ	-5248
▁rud	-5249
illée	-5250
▁brig	-5251
▁moqu	-5252
▁Marie	-5253
▁coiff	-5254
▁côtes	-5255
▁enter	-5256
▁nerfs	-5257
▁voila	-5258
▁épuis	-5259
ongeait	-5260
▁Grande	-5261
▁discut	-5262
▁douter	-5263
▁fidèle	-5264
▁fureur	-5265
▁paysan	-5266
▁soldat	-5267
▁citadel	-5268
▁navires	-5269
▁palazzo	-5270
▁Contessa	-5271
▁Stapleton	-5272
At	-5273
lui	-5274
▁pi	-5275
agés	-5276
ched	-5277
erst	-5278
resp	-5279
épée	-5280
îlot	-5281
▁raf	-5282
effor	-5283
eneur	-5284
ovico	-5285
▁Ital	-5286
▁joli	-5287
▁noms	-5288
assent	-5289
atique	-5290
▁Adèle	-5291
▁gagné	-5292
▁ramen	-5293
▁rêver	-5294
▁ménage	-5295
▁occupé	-5296
▁person	-5297
▁devenue	-5298
▁répondu	-5299
▁Harrison	-5300
▁anything	-5301
▁promener	-5302
▁reconnus	-5303
▁remarqué	-5304
▁Pacifique	-5305
▁commençai	-5306
bot	-5307
mor	-5308
obl	-5309
ved	-5310
agée	-5311
arme	-5312
rade	-5313
▁Ros	-5314
▁pét	-5315
▁tes	-5316
ached	-5317
armes	-5318
onnez	-5319
upart	-5320
▁What	-5321
▁baie	-5322
▁fâch	-5323
▁mess	-5324
▁nage	-5325
animal	-5326
éprouv	-5327
▁attaqu	-5328
▁pleins	-5329
▁renouv	-5330
▁deviner	-5331
▁monstre	-5332
▁plupart	-5333
▁pouvons	-5334
▁redoubl	-5335
▁servait	-5336
▁support	-5337
attendais	-5338
▁Personne	-5339
▁jugement	-5340
▁paisible	-5341
▁premiere	-5342
égyptienne	-5343
▁meilleure	-5344
▁vengeance	-5345
▁silencieux	-5346
hér	-5347
iai	-5348
ouc	-5349
▁Lod	-5350
▁gig	-5351
ength	-5352
ignit	-5353
ourde	-5354
épous	-5355
▁Ceci	-5356
▁Leur	-5357
▁able	-5358
▁sœur	-5359
▁Charl	-5360
▁fuite	-5361
▁physi	-5362
▁piece	-5363
▁sémin	-5364
▁fermée	-5365
▁inform	-5366
▁réclam	-5367
▁saison	-5368
▁Grimaud	-5369
▁interro	-5370
▁mineurs	-5371
▁ministre	-5372
▁remonter	-5373
▁rejoindre	-5374
▁tendresse	-5375
▁inquiétude	-5376
Tu	-5377
sif	-5378
èque	-5379
▁box	-5380
glise	-5381
ifier	-5382
▁acqu	-5383
▁half	-5384
▁many	-5385
▁obsc	-5386
▁ring	-5387
▁répu	-5388
▁stat	-5389
▁aille	-5390
▁organ	-5391
abilité	-5392
appelle	-5393
▁accent	-5394
▁couché	-5395
▁endorm	-5396
▁frappa	-5397
▁plaine	-5398
▁restée	-5399
truction	-5400
▁pleurer	-5401
▁accepter	-5402
▁mouchoir	-5403
▁recommen	-5404
▁directeur	-5405
▁intention	-5406
▁tranquill	-5407
▁froidement	-5408
▁provisions	-5409
▁réputation	-5410
aug	-5411
ext	-5412
vis	-5413
înt	-5414
▁eh	-5415
▁Éc	-5416
enod	-5417
ower	-5418
▁niv	-5419
▁règ	-5420
Athos	-5421
▁Rich	-5422
▁Tant	-5423
▁They	-5424
▁chaî	-5425
▁cuir	-5426
▁lois	-5427
▁road	-5428
olique	-5429
▁croix	-5430
▁dévor	-5431
▁massi	-5432
▁nette	-5433
▁plume	-5434
issante	-5435
▁aperçu	-5436
▁charme	-5437
▁criant	-5438
▁entrée	-5439
▁succes	-5440
▁things	-5441
▁tombée	-5442
ications	-5443
▁arrivés	-5444
▁discuss	-5445
▁mystère	-5446
▁protest	-5447
extrémité	-5448
▁millions	-5449
▁prétexte	-5450
▁tenaient	-5451
▁changement	-5452
▁convenable	-5453
▁légèrement	-5454
na	-5455
ués	-5456
▁».	-5457
appe	-5458
irez	-5459
onds	-5460
▁mun	-5461
quets	-5462
èbres	-5463
▁Alle	-5464
▁care	-5465
▁harp	-5466
bishop	-5467
ormais	-5468
▁boîte	-5469
▁bêtes	-5470
▁caval	-5471
▁dévou	-5472
▁fasse	-5473
▁forcé	-5474
▁simpl	-5475
acharie	-5476
▁Chaque	-5477
▁Pirard	-5478
▁aspect	-5479
▁billet	-5480
▁frappé	-5481
▁mirent	-5482
équipage	-5483
▁Valenod	-5484
▁donnant	-5485
entendait	-5486
▁Français	-5487
▁accident	-5488
▁corridor	-5489
▁envelopp	-5490
▁présenter	-5491
▁rencontré	-5492
▁Archbishop	-5493
An	-5494
asc	-5495
emm	-5496
éter	-5497
▁cop	-5498
▁enj	-5499
▁fau	-5500
assée	-5501
relle	-5502
▁delà	-5503
▁soie	-5504
inière	-5505
▁leave	-5506
▁cabaret	-5507
▁chemise	-5508
▁conseil	-5509
▁horreur	-5510
▁saurait	-5511
▁Zacharie	-5512
▁montrant	-5513
▁vieilles	-5514
▁demeurait	-5515
▁directement	-5516
................	-5517
ek	-5518
éj	-5519
gle	-5520
uls	-5521
iron	-5522
érid	-5523
ôtre	-5524
▁coff	-5525
▁lent	-5526
▁paru	-5527
▁rede	-5528
▁régl	-5529
▁Heure	-5530
▁tombé	-5531
▁croiss	-5532
▁joyeux	-5533
▁placer	-5534
▁riches	-5535
▁résolu	-5536
sivement	-5537
▁dimanche	-5538
▁propriét	-5539
▁permettre	-5540
▁apercevoir	-5541
▁descendait	-5542
Com	-5543
iam	-5544
oly	-5545
row	-5546
unt	-5547
What	-5548
ître	-5549
▁por	-5550
ançon	-5551
▁Donc	-5552
▁accr	-5553
▁crus	-5554
▁empr	-5555
▁moin	-5556
▁pros	-5557
▁spir	-5558
▁Milan	-5559
▁drôle	-5560
▁heard	-5561
▁linge	-5562
▁mince	-5563
▁courte	-5564
▁crains	-5565
▁lecture	-5566
▁portion	-5567
accompagn	-5568
attention	-5569
▁Princess	-5570
▁parfaite	-5571
▁précipit	-5572
▁Rasseneur	-5573
▁habitants	-5574
▁nullement	-5575
▁remarquer	-5576
▁traverser	-5577
▁distinguer	-5578
▁travailler	-5579
▁ressemblait	-5580
da	-5581
oci	-5582
uff	-5583
▁No	-5584
▁Ol	-5585
▁sy	-5586
agon	-5587
orel	-5588
▁get	-5589
▁mol	-5590
▁brut	-5591
▁fact	-5592
▁knew	-5593
▁mode	-5594
▁moul	-5595
▁poul	-5596
aimait	-5597
inclin	-5598
omètre	-5599
évêque	-5600
▁began	-5601
▁caché	-5602
▁devez	-5603
▁ennuy	-5604
▁porté	-5605
apercev	-5606
arrivée	-5607
▁Armand	-5608
▁assure	-5609
▁cousin	-5610
▁former	-5611
▁passag	-5612
▁retira	-5613
▁Anglais	-5614
▁another	-5615
▁appeler	-5616
▁formait	-5617
▁réserve	-5618
▁sombres	-5619
▁écouter	-5620
intention	-5621
▁charmant	-5622
▁officier	-5623
▁promesse	-5624
▁renseign	-5625
▁échapper	-5626
▁étranger	-5627
▁certaines	-5628
▁poussière	-5629
▁pharmacien	-5630
Si	-5631
enu	-5632
Nous	-5633
eler	-5634
▁its	-5635
▁loc	-5636
▁mut	-5637
aques	-5638
intes	-5639
▁Mich	-5640
▁brûl	-5641
▁mord	-5642
▁wish	-5643
▁étal	-5644
▁dimin	-5645
▁exact	-5646
▁obten	-5647
▁pente	-5648
▁tiens	-5649
▁times	-5650
▁changé	-5651
▁essaya	-5652
▁looked	-5653
▁marier	-5654
▁niveau	-5655
▁object	-5656
▁suffit	-5657
▁termes	-5658
▁though	-5659
▁inconnu	-5660
▁rochers	-5661
▁sentier	-5662
▁torrent	-5663
▁ceinture	-5664
▁admirable	-5665
▁boulevers	-5666
▁faiblesse	-5667
▁politique	-5668
▁subitement	-5669
acés	-5670
▁pau	-5671
▁und	-5672
▁vel	-5673
ousse	-5674
▁?...	-5675
▁joue	-5676
▁mend	-5677
▁plaf	-5678
▁îles	-5679
érable	-5680
éveill	-5681
▁Franc	-5682
▁Trois	-5683
▁arbre	-5684
▁fâché	-5685
▁irrit	-5686
▁kilom	-5687
▁pensé	-5688
▁prote	-5689
lements	-5690
othèque	-5691
▁circul	-5692
▁consul	-5693
▁introd	-5694
▁mérite	-5695
▁soient	-5696
▁séjour	-5697
▁cellule	-5698
▁cousine	-5699
▁excepté	-5700
▁musique	-5701
anchement	-5702
▁comprend	-5703
▁désirait	-5704
▁recueill	-5705
▁abandonné	-5706
▁regardaient	-5707
.,	-5708
ril	-5709
hôte	-5710
ural	-5711
éant	-5712
acles	-5713
entra	-5714
▁mass	-5715
▁tiré	-5716
▁tord	-5717
▁town	-5718
minées	-5719
époque	-5720
▁maire	-5721
▁subst	-5722
▁utile	-5723
ardiner	-5724
ifiques	-5725
▁allant	-5726
▁bourse	-5727
▁metres	-5728
▁solide	-5729
▁viande	-5730
▁causait	-5731
▁costume	-5732
▁friends	-5733
▁quelles	-5734
▁Gardiner	-5735
▁coupable	-5736
▁manières	-5737
▁pistoles	-5738
▁solitude	-5739
▁happiness	-5740
▁soufflait	-5741
**	-5742
so	-5743
Que	-5744
abs	-5745
ety	-5746
rat	-5747
uez	-5748
▁ah	-5749
agea	-5750
opin	-5751
room	-5752
sept	-5753
èves	-5754
écur	-5755
▁cél	-5756
▁set	-5757
▁tum	-5758
acité	-5759
cheur	-5760
outes	-5761
▁empê	-5762
▁faux	-5763
▁lant	-5764
▁sois	-5765
▁subl	-5766
▁vécu	-5767
observ	-5768
▁accro	-5769
▁aimer	-5770
▁brick	-5771
▁génie	-5772
▁incap	-5773
▁sauta	-5774
▁égard	-5775
▁étinc	-5776
érience	-5777
▁chauff	-5778
▁dirait	-5779
▁fermer	-5780
▁gaieté	-5781
▁passée	-5782
▁poussé	-5783
▁reason	-5784
▁sauter	-5785
▁succéd	-5786
▁twenty	-5787
▁Jacques	-5788
▁confond	-5789
▁désagré	-5790
▁laissez	-5791
▁matinée	-5792
▁ressent	-5793
▁résolus	-5794
▁épaisse	-5795
▁Lodovico	-5796
▁seigneur	-5797
▁servante	-5798
▁rappelait	-5799
▁lesquelles	-5800
▁précaution	-5801
▁température	-5802
▁intelligence	-5803
ama	-5804
car	-5805
ture	-5806
ueux	-5807
▁gir	-5808
▁vid	-5809
▁Barr	-5810
▁mâch	-5811
▁Sorel	-5812
▁Thorn	-5813
▁allow	-5814
▁dirai	-5815
▁démar	-5816
▁exces	-5817
▁seize	-5818
▁tenez	-5819
▁élevé	-5820
▁adroit	-5821
▁advers	-5822
▁ancien	-5823
▁cercle	-5824
▁sortis	-5825
Amérique	-5826
▁chasser	-5827
▁procure	-5828
▁rideaux	-5829
▁voisins	-5830
▁Besançon	-5831
▁accueill	-5832
▁pénétrer	-5833
▁Charlotte	-5834
▁convaincu	-5835
▁sacrifice	-5836
▁comprenait	-5837
▁permission	-5838
▁Heureusement	-5839
▁bibliothèque	-5840
ioc	-5841
▁ga	-5842
acte	-5843
alis	-5844
quin	-5845
rist	-5846
▁cér	-5847
▁ing	-5848
▁obt	-5849
▁pâl	-5850
assit	-5851
ierge	-5852
lande	-5853
onnés	-5854
oreux	-5855
▁High	-5856
▁berl	-5857
▁secr	-5858
ension	-5859
élança	-5860
▁flamb	-5861
▁perte	-5862
▁sauvé	-5863
▁duquel	-5864
▁radeau	-5865
▁traces	-5866
itecture	-5867
▁ennemis	-5868
▁inquiet	-5869
▁rappela	-5870
▁serpent	-5871
▁nombreux	-5872
▁résister	-5873
▁atteindre	-5874
▁recommenc	-5875
▁Thornfield	-5876
yre	-5877
ône	-5878
ling	-5879
▁bor	-5880
▁vég	-5881
abatt	-5882
attes	-5883
épouv	-5884
▁Avez	-5885
▁done	-5886
▁loge	-5887
▁paup	-5888
▁vulg	-5889
avions	-5890
▁Entre	-5891
▁dissi	-5892
▁prier	-5893
▁tient	-5894
horreur	-5895
▁Sainte	-5896
▁Voreux	-5897
▁appear	-5898
▁arrang	-5899
▁caisse	-5900
▁employ	-5901
▁levait	-5902
▁sûreté	-5903
▁dormait	-5904
▁prolong	-5905
▁résolut	-5906
▁environs	-5907
▁latitude	-5908
▁patience	-5909
▁écoutait	-5910
▁donnaient	-5911
▁désormais	-5912
▁politesse	-5913
▁prochaine	-5914
▁arrivèrent	-5915
▁communication	-5916
hon	-5917
ôme	-5918
asin	-5919
ench	-5920
obre	-5921
▁dor	-5922
▁gré	-5923
▁hel	-5924
▁imb	-5925
olier	-5926
▁aide	-5927
▁fête	-5928
▁tint	-5929
apport	-5930
embarr	-5931
illiam	-5932
▁Apres	-5933
▁fallu	-5934
▁sorti	-5935
▁souci	-5936
▁épais	-5937
heureux	-5938
venture	-5939
▁abomin	-5940
▁balbut	-5941
▁blancs	-5942
▁longer	-5943
▁making	-5944
▁minuit	-5945
▁quoiqu	-5946
▁tenter	-5947
▁caverne	-5948
▁cherche	-5949
▁langage	-5950
▁provoqu	-5951
▁victime	-5952
▁jalousie	-5953
▁présenta	-5954
▁remarqua	-5955
▁ruisseau	-5956
▁transform	-5957
ged	-5958
ulf	-5959
▁lou	-5960
▁rig	-5961
▁tut	-5962
aises	-5963
etres	-5964
impat	-5965
ustin	-5966
▁atro	-5967
▁chât	-5968
icaire	-5969
iction	-5970
reinte	-5971
▁Pangl	-5972
▁allée	-5973
▁fûmes	-5974
▁logis	-5975
▁money	-5976
▁mérid	-5977
▁prête	-5978
respond	-5979
▁briser	-5980
▁commis	-5981
▁crimin	-5982
▁goutte	-5983
▁incess	-5984
▁machin	-5985
▁manqué	-5986
▁entrait	-5987
▁fantais	-5988
▁oreille	-5989
▁raconta	-5990
▁Pangloss	-5991
▁blessure	-5992
▁littoral	-5993
▁passions	-5994
▁received	-5995
▁influence	-5996
▁officiers	-5997
▁restaient	-5998
▁misérables	-5999
ox	-6000
zy	-6001
jor	-6002
yle	-6003
avis	-6004
deux	-6005
▁Cor	-6006
▁Déj	-6007
ajout	-6008
▁crat	-6009
▁keep	-6010
▁mien	-6011
▁vest	-6012
▁émer	-6013
aspect	-6014
sibles	-6015
▁Grâce	-6016
▁belie	-6017
▁chiff	-6018
▁condu	-6019
▁greve	-6020
▁merci	-6021
▁tears	-6022
▁while	-6023
adresse	-6024
astique	-6025
ouchure	-6026
tements	-6027
écution	-6028
▁décida	-6029
▁humain	-6030
▁nation	-6031
▁permet	-6032
▁renfer	-6033
▁saisir	-6034
▁tendit	-6035
▁unique	-6036
▁épaule	-6037
▁battait	-6038
▁conduit	-6039
▁coutume	-6040
▁remerci	-6041
▁prochain	-6042
▁sensible	-6043
▁vieillard	-6044
▁présentait	-6045
▁souffrance	-6046
▁nécessaires	-6047
day	-6048
nés	-6049
âge	-6050
▁XV	-6051
▁Ça	-6052
ause	-6053
blou	-6054
igin	-6055
illy	-6056
ista	-6057
ombr	-6058
rets	-6059
ennui	-6060
ently	-6061
▁cast	-6062
▁feux	-6063
▁forg	-6064
▁less	-6065
▁posa	-6066
▁vari	-6067
▁abatt	-6068
▁paque	-6069
inaires	-6070
▁caress	-6071
▁clarté	-6072
▁obscur	-6073
▁perdus	-6074
▁releva	-6075
officier	-6076
▁affreux	-6077
▁bizarre	-6078
▁chanter	-6079
▁commune	-6080
▁connaît	-6081
▁domaine	-6082
▁décider	-6083
▁furieux	-6084
▁réalité	-6085
▁visible	-6086
▁Mortimer	-6087
▁chaloupe	-6088
▁fréquent	-6089
▁gigantes	-6090
▁rappeler	-6091
▁ridicule	-6092
▁trouvais	-6093
▁violente	-6094
▁Cheminées	-6095
▁événement	-6096
▁correspond	-6097
▁singulière	-6098
▁profondeurs	-6099
bt	-6100
Esp	-6101
▁Me	-6102
anes	-6103
attr	-6104
etta	-6105
teau	-6106
▁cli	-6107
▁eus	-6108
▁jud	-6109
▁ond	-6110
▁sap	-6111
aring	-6112
ately	-6113
froid	-6114
iante	-6115
▁Grég	-6116
▁aise	-6117
▁boul	-6118
▁cuiv	-6119
▁grac	-6120
▁phén	-6121
aimais	-6122
ressed	-6123
▁latin	-6124
accompl	-6125
ucation	-6126
▁Ingram	-6127
▁trompé	-6128
▁consult	-6129
▁déserte	-6130
▁plafond	-6131
▁towards	-6132
▁Grégoire	-6133
▁couleurs	-6134
▁pression	-6135
▁prévenir	-6136
▁chandelle	-6137
▁important	-6138
▁prononcer	-6139
'_	-6140
Em	-6141
elé	-6142
try	-6143
âle	-6144
éli	-6145
▁17	-6146
▁Sc	-6147
arne	-6148
erce	-6149
oûte	-6150
▁mid	-6151
aider	-6152
ardes	-6153
usage	-6154
▁actu	-6155
▁affl	-6156
▁foul	-6157
▁incr	-6158
▁pomp	-6159
Europe	-6160
ctobre	-6161
▁canon	-6162
arrière	-6163
entions	-6164
onnerre	-6165
▁Certes	-6166
▁Galais	-6167
▁canons	-6168
▁cloche	-6169
▁confus	-6170
▁marbre	-6171
▁maréch	-6172
▁months	-6173
▁nobles	-6174
▁parven	-6175
▁splend	-6176
Monsieur	-6177
appelait	-6178
▁Souvent	-6179
▁glisser	-6180
▁pirogue	-6181
▁station	-6182
▁appeared	-6183
▁assassin	-6184
▁followed	-6185
▁viennent	-6186
▁prisonniers	-6187
▁proposition	-6188
Th	-6189
▁6	-6190
000	-6191
And	-6192
aré	-6193
ced	-6194
▁Bl	-6195
enne	-6196
▁aid	-6197
▁beh	-6198
▁hid	-6199
arité	-6200
aucun	-6201
iable	-6202
écart	-6203
étend	-6204
▁ayez	-6205
▁foot	-6206
▁mars	-6207
ensité	-6208
▁close	-6209
▁gaill	-6210
▁gonfl	-6211
▁placé	-6212
▁proie	-6213
ussitôt	-6214
▁accabl	-6215
▁certes	-6216
▁humide	-6217
▁lourde	-6218
▁muette	-6219
intellig	-6220
intéress	-6221
▁appelle	-6222
▁attendu	-6223
▁emporté	-6224
▁murmure	-6225
▁pension	-6226
▁aisément	-6227
▁destinée	-6228
▁habitude	-6229
▁marchant	-6230
▁prisoner	-6231
▁province	-6232
▁continent	-6233
▁incapable	-6234
▁reprenait	-6235
▁formidable	-6236
▁quelconque	-6237
pp	-6238
six	-6239
éro	-6240
êle	-6241
amen	-6242
rure	-6243
ûter	-6244
▁aîn	-6245
▁boy	-6246
essay	-6247
icité	-6248
ommod	-6249
▁When	-6250
▁base	-6251
▁case	-6252
▁fous	-6253
▁perp	-6254
▁scul	-6255
▁surv	-6256
▁tenu	-6257
▁tire	-6258
▁Allez	-6259
▁abord	-6260
▁chere	-6261
▁clerc	-6262
▁coude	-6263
▁craqu	-6264
▁jeudi	-6265
▁naiss	-6266
▁quels	-6267
▁reçut	-6268
▁venus	-6269
▁volup	-6270
oublier	-6271
▁allong	-6272
▁dégoût	-6273
▁enough	-6274
▁grotte	-6275
▁maigre	-6276
▁médioc	-6277
▁notice	-6278
▁passed	-6279
▁redesc	-6280
▁répugn	-6281
▁touché	-6282
▁convenu	-6283
▁lisière	-6284
Elizabeth	-6285
adventure	-6286
▁Highness	-6287
▁Pourtant	-6288
▁derniere	-6289
▁commencer	-6290
▁passagers	-6291
▁passèrent	-6292
▁philosoph	-6293
▁provision	-6294
▁possession	-6295
▁raisonnable	-6296
xt	-6297
▁5	-6298
Par	-6299
mem	-6300
▁16	-6301
▁câ	-6302
elée	-6303
honn	-6304
olée	-6305
▁luc	-6306
▁lux	-6307
▁rub	-6308
aking	-6309
bourn	-6310
endez	-6311
oiles	-6312
olont	-6313
éfait	-6314
▁agir	-6315
▁bloc	-6316
▁brod	-6317
▁frég	-6318
▁gend	-6319
▁insp	-6320
▁pian	-6321
▁régn	-6322
▁absur	-6323
▁cruel	-6324
▁plair	-6325
▁réfug	-6326
▁sages	-6327
▁touch	-6328
ception	-6329
estrade	-6330
opinion	-6331
▁cartes	-6332
▁coming	-6333
▁façons	-6334
▁forêts	-6335
▁sculpt	-6336
▁apparut	-6337
▁cratère	-6338
▁échelle	-6339
▁appelait	-6340
▁auxquels	-6341
▁qualités	-6342
▁cherchant	-6343
▁fortement	-6344
▁néanmoins	-6345
▁disparaître	-6346
▁Bonadventure	-6347
Ét	-6348
dle	-6349
inf	-6350
çai	-6351
▁15	-6352
Dieu	-6353
astr	-6354
hier	-6355
oler	-6356
▁Exc	-6357
▁eau	-6358
▁tru	-6359
▁vil	-6360
▁Prov	-6361
▁Sher	-6362
▁That	-6363
▁boue	-6364
▁lait	-6365
▁laug	-6366
▁trib	-6367
Ayrton	-6368
▁chanc	-6369
▁chans	-6370
▁envah	-6371
▁joign	-6372
▁lumin	-6373
▁lâche	-6374
▁poing	-6375
▁vraie	-6376
▁végét	-6377
▁écart	-6378
▁compan	-6379
▁intrig	-6380
▁jouait	-6381
▁phénom	-6382
▁source	-6383
▁doivent	-6384
▁monstru	-6385
▁passées	-6386
approcher	-6387
▁Aussitôt	-6388
▁générale	-6389
▁préparer	-6390
▁reprises	-6391
▁Longbourn	-6392
▁comprenez	-6393
▁regardais	-6394
▁importance	-6395
anv	-6396
▁cy	-6397
Elle	-6398
ford	-6399
ican	-6400
inci	-6401
izzy	-6402
side	-6403
▁ras	-6404
▁suc	-6405
ament	-6406
▁haie	-6407
▁near	-6408
▁prai	-6409
ançant	-6410
rèrent	-6411
▁Lizzy	-6412
▁Parce	-6413
▁banqu	-6414
▁cérém	-6415
▁début	-6416
▁défin	-6417
▁envoy	-6418
▁ferez	-6419
▁mangé	-6420
▁monté	-6421
▁plans	-6422
entends	-6423
▁détail	-6424
▁effect	-6425
▁encour	-6426
▁jouiss	-6427
▁purent	-6428
▁sonner	-6429
▁tranch	-6430
▁vanité	-6431
accepter	-6432
aventure	-6433
▁Belcher	-6434
▁against	-6435
▁dirigea	-6436
▁désirer	-6437
▁fraîche	-6438
▁saurais	-6439
▁tromper	-6440
▁vapeurs	-6441
housiasme	-6442
▁décembre	-6443
▁souffert	-6444
▁trouvant	-6445
abandonner	-6446
▁apparence	-6447
▁dangereux	-6448
▁printemps	-6449
▁impatience	-6450
▁connaissais	-6451
La	-6452
Ou	-6453
But	-6454
ami	-6455
sel	-6456
tra	-6457
ugu	-6458
▁oh	-6459
...»	-6460
ambo	-6461
érie	-6462
étud	-6463
▁For	-6464
▁dam	-6465
▁mob	-6466
Alors	-6467
accus	-6468
arret	-6469
ivier	-6470
tress	-6471
éclat	-6472
▁Beau	-6473
▁Eyre	-6474
▁hope	-6475
▁surn	-6476
▁carré	-6477
▁insol	-6478
▁nuage	-6479
▁objet	-6480
▁revêt	-6481
▁yours	-6482
▁called	-6483
▁désirs	-6484
▁gestes	-6485
▁mariée	-6486
▁menton	-6487
▁palais	-6488
▁parois	-6489
▁risque	-6490
▁tirant	-6491
▁vendre	-6492
▁éviter	-6493
▁brusque	-6494
▁chacune	-6495
▁figures	-6496
▁prirent	-6497
▁ailleurs	-6498
▁arrivant	-6499
▁impatient	-6500
▁sensation	-6501
appartement	-6502
▁poursuivit	-6503
▁véritablement	-6504
lor	-6505
ung	-6506
chon	-6507
ivid	-6508
▁alt	-6509
▁rum	-6510
avoue	-6511
enois	-6512
osait	-6513
tened	-6514
uites	-6515
ymore	-6516
▁cass	-6517
▁draw	-6518
▁etes	-6519
▁grat	-6520
▁hero	-6521
▁laid	-6522
▁noyé	-6523
▁refl	-6524
▁repe	-6525
▁sauf	-6526
anvier	-6527
idents	-6528
▁Crois	-6529
▁Dites	-6530
▁Frank	-6531
▁balle	-6532
▁choix	-6533
▁dirig	-6534
▁doubl	-6535
▁doubt	-6536
▁expéd	-6537
▁frere	-6538
▁hours	-6539
▁indis	-6540
▁nuits	-6541
▁rares	-6542
intérêt	-6543
▁apprit	-6544
▁cathéd	-6545
▁marins	-6546
▁outils	-6547
▁pattes	-6548
▁procéd	-6549
▁remuer	-6550
▁espérer	-6551
▁natural	-6552
▁pourrai	-6553
▁sublime	-6554
▁voulant	-6555
▁élément	-6556
apprendre	-6557
▁interval	-6558
▁puissant	-6559
▁supposer	-6560
▁ténèbres	-6561
atmosphère	-6562
▁Barrymore	-6563
▁prenaient	-6564
▁précipita	-6565
▁recherche	-6566
▁voulaient	-6567
▁permettait	-6568
▁gouvernement	-6569
Ch	-6570
hés	-6571
obé	-6572
xel	-6573
:--«	-6574
arra	-6575
entr	-6576
erse	-6577
iale	-6578
orze	-6579
ustr	-6580
▁crâ	-6581
agine	-6582
bourg	-6583
endus	-6584
enier	-6585
▁Your	-6586
▁best	-6587
▁fich	-6588
▁gall	-6589
▁inde	-6590
▁inut	-6591
▁sott	-6592
évanou	-6593
▁Conti	-6594
▁Henri	-6595
▁bords	-6596
▁coque	-6597
▁entré	-6598
▁hands	-6599
▁maman	-6600
▁soupe	-6601
▁tabac	-6602
▁troup	-6603
▁Milord	-6604
▁cocher	-6605
▁fameux	-6606
▁matter	-6607
▁nouvel	-6608
▁procès	-6609
▁anciens	-6610
▁délicat	-6611
▁envoyer	-6612
▁manoeuv	-6613
▁perdait	-6614
▁poussée	-6615
▁replied	-6616
▁théâtre	-6617
▁carriage	-6618
▁conseils	-6619
▁diverses	-6620
▁terribles	-6621
▁étrangers	-6622
▁bohémienne	-6623
TI	-6624
du	-6625
îme	-6626
▁Gl	-6627
ably	-6628
▁Far	-6629
▁jup	-6630
enais	-6631
enses	-6632
objet	-6633
onnax	-6634
▁Nord	-6635
▁moll	-6636
▁pipe	-6637
▁used	-6638
chesse	-6639
écrire	-6640
▁bourg	-6641
▁dépit	-6642
▁least	-6643
▁poser	-6644
▁scand	-6645
▁small	-6646
▁tremp	-6647
eraient	-6648
▁Malgré	-6649
▁bruits	-6650
▁formes	-6651
▁invent	-6652
▁offrir	-6653
▁savant	-6654
▁venais	-6655
▁Aronnax	-6656
▁adresse	-6657
▁dédaign	-6658
▁frisson	-6659
▁liquide	-6660
▁ressour	-6661
▁risquer	-6662
▁répéter	-6663
▁troublé	-6664
▁velours	-6665
▁accoutum	-6666
▁manifest	-6667
▁stupéfait	-6668
▁conduisait	-6669
▁différence	-6670
▁résistance	-6671
▁personnages	-6672
▁tranquillité	-6673
EU	-6674
of	-6675
enz	-6676
fum	-6677
ief	-6678
ony	-6679
éph	-6680
ault	-6681
ened	-6682
ween	-6683
▁Cac	-6684
▁Fou	-6685
▁God	-6686
▁fun	-6687
▁ran	-6688
allum	-6689
ilson	-6690
ready	-6691
▁Jack	-6692
▁does	-6693
▁girl	-6694
▁note	-6695
▁play	-6696
▁égal	-6697
ustice	-6698
▁Venez	-6699
▁brisé	-6700
▁chrét	-6701
▁eûmes	-6702
▁lames	-6703
▁Était	-6704
▁éblou	-6705
▁écoul	-6706
établir	-6707
▁Wilson	-6708
▁better	-6709
▁chiens	-6710
▁couper	-6711
▁débord	-6712
▁excurs	-6713
▁solenn	-6714
▁suivis	-6715
▁tourné	-6716
▁Cacambo	-6717
▁apporté	-6718
▁arrêter	-6719
▁garçons	-6720
▁prudent	-6721
▁terminé	-6722
▁document	-6723
▁détresse	-6724
▁pressent	-6725
▁sanglots	-6726
▁sentence	-6727
▁couraient	-6728
▁serviteur	-6729
▁suffisait	-6730
▁traversée	-6731
▁vigoureux	-6732
▁embarcation	-6733
He	-6734
agg	-6735
oor	-6736
ork	-6737
rut	-6738
▁ev	-6739
▁sw	-6740
▁té	-6741
abli	-6742
aves	-6743
resc	-6744
ypte	-6745
▁San	-6746
▁blé	-6747
▁gol	-6748
▁lap	-6749
▁mov	-6750
aites	-6751
oulez	-6752
puiss	-6753
▁cult	-6754
▁fear	-6755
▁fonc	-6756
▁inqu	-6757
▁side	-6758
▁éper	-6759
▁amené	-6760
▁fleur	-6761
▁fonds	-6762
▁intim	-6763
▁nulle	-6764
▁vitre	-6765
Comment	-6766
ouvrait	-6767
▁cabine	-6768
▁grille	-6769
▁mother	-6770
▁return	-6771
▁routes	-6772
▁éclata	-6773
raisembl	-6774
▁already	-6775
▁baisers	-6776
▁brought	-6777
▁dessous	-6778
▁frégate	-6779
▁gardait	-6780
▁install	-6781
▁marches	-6782
▁pouvant	-6783
▁sanglot	-6784
▁voudrez	-6785
▁Sauvages	-6786
▁ancienne	-6787
▁brillait	-6788
▁défendre	-6789
▁présente	-6790
▁nettement	-6791
▁éprouvait	-6792
▁pourraient	-6793
▁7	-6794
mon	-6795
berg	-6796
hter	-6797
ieme	-6798
lock	-6799
mont	-6800
uves	-6801
▁cig	-6802
▁mai	-6803
▁pel	-6804
▁œil	-6805
ected	-6806
ongea	-6807
▁Port	-6808
▁also	-6809
▁crép	-6810
▁dign	-6811
▁excl	-6812
▁pire	-6813
▁race	-6814
arbres	-6815
ombien	-6816
riques	-6817
▁Jusqu	-6818
▁fermé	-6819
▁mener	-6820
▁mécan	-6821
▁récol	-6822
▁spoke	-6823
▁sueur	-6824
▁étage	-6825
itution	-6826
▁Louvre	-6827
▁Voyons	-6828
▁achevé	-6829
▁escape	-6830
▁lutter	-6831
▁néglig	-6832
▁ombres	-6833
▁parfum	-6834
▁prévôt	-6835
▁quitte	-6836
▁située	-6837
▁vallée	-6838
▁venant	-6839
▁étendu	-6840
▁aurions	-6841
▁between	-6842
▁embarqu	-6843
▁mission	-6844
▁ouvrage	-6845
▁plantes	-6846
▁proport	-6847
▁redress	-6848
▁refuser	-6849
▁commerce	-6850
▁disaient	-6851
▁empêcher	-6852
▁indiffér	-6853
▁planches	-6854
▁précieux	-6855
▁craignait	-6856
▁expliquer	-6857
▁formaient	-6858
▁discussion	-6859
▁infiniment	-6860
▁laissaient	-6861
▁observation	-6862
Is	-6863
NE	-6864
OR	-6865
▁4	-6866
ily	-6867
ool	-6868
êne	-6869
dres	-6870
ones	-6871
outh	-6872
érup	-6873
▁tig	-6874
▁vus	-6875
accro	-6876
atifs	-6877
rante	-6878
èches	-6879
▁levé	-6880
▁sien	-6881
▁spec	-6882
▁unif	-6883
aisses	-6884
allait	-6885
asions	-6886
vingts	-6887
▁added	-6888
▁grain	-6889
▁héros	-6890
▁porta	-6891
▁remem	-6892
▁risqu	-6893
▁scrup	-6894
▁désign	-6895
▁rideau	-6896
▁trompe	-6897
approche	-6898
▁because	-6899
▁empress	-6900
▁entrant	-6901
▁groupes	-6902
▁houille	-6903
▁meubles	-6904
▁commence	-6905
▁complète	-6906
▁paquebot	-6907
▁tonnerre	-6908
embouchure	-6909
impression	-6910
▁contenait	-6911
▁abandonnée	-6912
▁transporter	-6913
).	-6914
alc	-6915
bra	-6916
ipp	-6917
ury	-6918
▁Im	-6919
agan	-6920
amer	-6921
atri	-6922
auté	-6923
isté	-6924
édie	-6925
▁All	-6926
▁Col	-6927
▁Nég	-6928
▁Roi	-6929
▁fuy	-6930
▁gên	-6931
▁nég	-6932
alles	-6933
instr	-6934
ivité	-6935
tered	-6936
▁carr	-6937
▁each	-6938
▁lett	-6939
▁raid	-6940
▁trag	-6941
étouff	-6942
évrier	-6943
▁Aucun	-6944
▁Georg	-6945
▁colle	-6946
▁nommé	-6947
▁poète	-6948
▁pêche	-6949
▁tronc	-6950
▁trous	-6951
▁Négrel	-6952
▁déroul	-6953
▁ferais	-6954
▁govern	-6955
▁honour	-6956
▁inexpl	-6957
▁morale	-6958
▁paille	-6959
▁passai	-6960
Pourquoi	-6961
▁Certain	-6962
▁country	-6963
▁dangers	-6964
▁janvier	-6965
▁mettant	-6966
▁verrons	-6967
autrefois	-6968
▁charming	-6969
▁plaindre	-6970
▁produire	-6971
▁suivante	-6972
▁aventures	-6973
▁following	-6974
▁relations	-6975
▁séminaire	-6976
▁suffisamment	-6977
aj	-6978
ENT	-6979
▁IV	-6980
abor	-6981
empê	-6982
iais	-6983
lent	-6984
nait	-6985
oiss	-6986
élan	-6987
▁Att	-6988
▁pât	-6989
champ	-6990
clock	-6991
enard	-6992
ernes	-6993
ueuse	-6994
▁clim	-6995
▁gare	-6996
▁posé	-6997
▁pôle	-6998
▁quai	-6999
▁serg	-7000
attach	-7001
iletti	-7002
itable	-7003
▁Diana	-7004
▁expri	-7005
▁ferma	-7006
▁jetée	-7007
▁prêts	-7008
▁ruine	-7009
illages	-7010
éloigna	-7011
▁Fouqué	-7012
▁Temple	-7013
▁auriez	-7014
▁cuivre	-7015
▁lament	-7016
▁protég	-7017
▁élevée	-7018
▁éteint	-7019
arrêtait	-7020
▁however	-7021
▁invités	-7022
▁ouverts	-7023
▁superbe	-7024
▁séparer	-7025
▁vinrent	-7026
▁étroite	-7027
▁couverte	-7028
▁escalier	-7029
▁grandeur	-7030
▁journées	-7031
▁pavillon	-7032
▁perspect	-7033
▁quartier	-7034
▁repentir	-7035
▁respirer	-7036
▁secondes	-7037
▁profondes	-7038
▁Croisenois	-7039
▁apercevait	-7040
▁intérieure	-7041
▁tremblante	-7042
▁électrique	-7043
▁construction	-7044
▁attentivement	-7045
aye	-7046
ref	-7047
▁Pi	-7048
▁ôt	-7049
argn	-7050
elop	-7051
inée	-7052
▁Méd	-7053
▁fît	-7054
▁run	-7055
▁use	-7056
anges	-7057
astre	-7058
irons	-7059
▁West	-7060
▁cade	-7061
▁cong	-7062
▁crev	-7063
▁dict	-7064
▁exag	-7065
▁fixé	-7066
▁payé	-7067
▁porc	-7068
ounded	-7069
▁Reine	-7070
▁démon	-7071
▁estim	-7072
▁exerc	-7073
▁golfe	-7074
▁piano	-7075
▁rever	-7076
▁sever	-7077
envoyer	-7078
interro	-7079
émotion	-7080
épouser	-7081
▁appelé	-7082
▁désapp	-7083
▁mécont	-7084
▁permit	-7085
▁report	-7086
▁vitres	-7087
entendit	-7088
onnaient	-7089
échapper	-7090
▁Giletti	-7091
▁cerveau	-7092
▁pourrez	-7093
▁ramener	-7094
▁triomph	-7095
▁échange	-7096
affection	-7097
▁Seigneur	-7098
▁champion	-7099
▁renoncer	-7100
▁centaines	-7101
▁chevalier	-7102
▁murailles	-7103
▁naissance	-7104
▁conviction	-7105
architecture	-7106
▁appartenait	-7107
▁explication	-7108
▁silencieuse	-7109
hy	-7110
enb	-7111
▁Ni	-7112
agir	-7113
alda	-7114
iété	-7115
▁Reg	-7116
▁gém	-7117
▁led	-7118
elait	-7119
herbe	-7120
élène	-7121
▁Edie	-7122
▁Loth	-7123
▁aval	-7124
▁bale	-7125
▁chir	-7126
▁gone	-7127
▁loup	-7128
▁supr	-7129
▁trés	-7130
▁work	-7131
▁Guill	-7132
▁ailes	-7133
▁charp	-7134
▁genou	-7135
▁gross	-7136
▁laine	-7137
▁laves	-7138
▁libér	-7139
▁pages	-7140
▁teint	-7141
auberge	-7142
▁Maître	-7143
▁avouer	-7144
▁chevel	-7145
▁claire	-7146
▁galant	-7147
▁massif	-7148
▁montré	-7149
▁obtenu	-7150
▁secoua	-7151
▁soeurs	-7152
▁taking	-7153
▁église	-7154
▁élèves	-7155
▁briques	-7156
▁chercha	-7157
▁colline	-7158
▁croyant	-7159
▁définit	-7160
▁joyeuse	-7161
▁orgueil	-7162
▁parvint	-7163
▁serious	-7164
▁Sherlock	-7165
▁apporter	-7166
▁traversa	-7167
▁triomphe	-7168
▁paupières	-7169
▁produisit	-7170
▁arrivaient	-7171
▁cathédrale	-7172
▁distinguait	-7173
.)	-7174
apt	-7175
del	-7176
ilis	-7177
▁bég	-7178
▁jés	-7179
▁naï	-7180
▁ému	-7181
avers	-7182
▁Chac	-7183
▁Pres	-7184
▁adop	-7185
▁cant	-7186
▁coût	-7187
▁dear	-7188
▁fore	-7189
▁mand	-7190
▁refr	-7191
▁trad	-7192
ancien	-7193
laient	-7194
▁Lucas	-7195
▁among	-7196
▁levai	-7197
▁means	-7198
▁saisi	-7199
▁style	-7200
▁tourb	-7201
▁vides	-7202
▁voice	-7203
everina	-7204
meralda	-7205
▁balles	-7206
▁barque	-7207
▁bonnet	-7208
▁donnai	-7209
▁imprud	-7210
▁marque	-7211
▁orders	-7212
▁pressé	-7213
▁résign	-7214
▁voiles	-7215
▁Lothian	-7216
▁actions	-7217
▁magasin	-7218
▁perfect	-7219
▁poignée	-7220
▁avantage	-7221
▁fixement	-7222
▁rarement	-7223
▁régiment	-7224
▁sinistre	-7225
▁craignais	-7226
▁occasions	-7227
▁portaient	-7228
▁dévouement	-7229
▁gouverneur	-7230
▁Sanseverina	-7231
▁propriétaire	-7232
▁soigneusement	-7233
UE	-7234
abe	-7235
dou	-7236
ium	-7237
ows	-7238
raî	-7239
tés	-7240
▁bâ	-7241
▁bé	-7242
aigu	-7243
alle	-7244
cour	-7245
hire	-7246
obst	-7247
onom	-7248
édit	-7249
▁Sud	-7250
▁bav	-7251
▁emm	-7252
▁nar	-7253
▁wal	-7254
▁yet	-7255
impos	-7256
raîch	-7257
rette	-7258
▁Bonn	-7259
▁hôte	-7260
▁mens	-7261
▁next	-7262
▁vins	-7263
aillir	-7264
ologie	-7265
ousses	-7266
usques	-7267
▁After	-7268
▁Seine	-7269
▁above	-7270
▁attir	-7271
▁barbe	-7272
▁bourd	-7273
▁carte	-7274
▁cessé	-7275
▁child	-7276
▁couch	-7277
▁croit	-7278
▁fixés	-7279
▁paris	-7280
▁ronde	-7281
▁roses	-7282
▁roues	-7283
▁sonna	-7284
▁usage	-7285
▁voûte	-7286
ription	-7287
▁aurais	-7288
▁braves	-7289
▁chaude	-7290
▁débris	-7291
▁lisait	-7292
▁pendre	-7293
▁places	-7294
▁proche	-7295
▁rocher	-7296
▁voyons	-7297
lantique	-7298
éloigner	-7299
▁confort	-7300
▁couvent	-7301
▁esprits	-7302
▁février	-7303
▁mention	-7304
▁prouver	-7305
▁étendue	-7306
▁étonnée	-7307
adressant	-7308
▁Chapitre	-7309
▁bourreau	-7310
▁diamants	-7311
▁novembre	-7312
▁obstacle	-7313
▁physique	-7314
▁pouvions	-7315
▁soutenir	-7316
▁conserver	-7317
▁gravement	-7318
▁rapporter	-7319
embarcation	-7320
▁bouteilles	-7321
▁conséquence	-7322
▁instruments	-7323
▁promptement	-7324
sed	-7325
▁14	-7326
▁We	-7327
oeur	-7328
omac	-7329
orce	-7330
that	-7331
voir	-7332
çade	-7333
▁Aux	-7334
▁Low	-7335
▁One	-7336
▁nus	-7337
▁tue	-7338
auvre	-7339
emort	-7340
ertin	-7341
illet	-7342
suite	-7343
▁impl	-7344
▁ivre	-7345
▁lass	-7346
▁muet	-7347
▁quad	-7348
aisait	-7349
▁Tabor	-7350
▁adieu	-7351
▁alone	-7352
▁brand	-7353
▁later	-7354
▁vieil	-7355
▁voler	-7356
▁whose	-7357
▁équip	-7358
▁donnez	-7359
▁découp	-7360
▁façade	-7361
▁graves	-7362
▁hériss	-7363
▁refuge	-7364
▁venger	-7365
▁verrez	-7366
▁volume	-7367
auraient	-7368
ressions	-7369
▁Combien	-7370
▁Olivier	-7371
▁acheter	-7372
▁chances	-7373
▁confess	-7374
▁devrait	-7375
▁essayer	-7376
▁mainten	-7377
▁occupée	-7378
▁regardé	-7379
▁siècles	-7380
▁sortant	-7381
▁chasseur	-7382
▁contenta	-7383
▁désirais	-7384
▁désordre	-7385
▁franchir	-7386
▁yourself	-7387
admiration	-7388
▁Bonnemort	-7389
▁cheminées	-7390
▁désespéré	-7391
oureusement	-7392
▁Providence	-7393
▁admiration	-7394
▁magnifiques	-7395
▁souffrances	-7396
cs	-7397
Éc	-7398
itz	-7399
▁aw	-7400
ensé	-7401
gles	-7402
odes	-7403
pens	-7404
voix	-7405
▁Der	-7406
▁Lid	-7407
▁dîn	-7408
▁vir	-7409
icien	-7410
issue	-7411
ories	-7412
reign	-7413
▁Cour	-7414
▁cann	-7415
▁crav	-7416
▁guet	-7417
▁hang	-7418
▁sein	-7419
Allons	-7420
entrai	-7421
rouver	-7422
▁Tenez	-7423
▁coupé	-7424
▁crise	-7425
▁halet	-7426
▁lieux	-7427
▁marri	-7428
▁ought	-7429
▁pourp	-7430
▁power	-7431
▁serra	-7432
▁époux	-7433
landais	-7434
élevait	-7435
▁Excell	-7436
▁Palais	-7437
▁Quatre	-7438
▁améric	-7439
▁ballon	-7440
▁casser	-7441
▁cordes	-7442
▁dissip	-7443
▁donnée	-7444
▁décour	-7445
▁fusils	-7446
▁herbes	-7447
▁poches	-7448
▁servit	-7449
▁taches	-7450
▁chemins	-7451
▁meurtre	-7452
▁obscure	-7453
▁visites	-7454
▁anglaise	-7455
▁convient	-7456
▁embarras	-7457
▁entreten	-7458
▁quatorze	-7459
▁habitudes	-7460
▁histoires	-7461
▁promenait	-7462
▁revinrent	-7463
▁sympathie	-7464
▁clairement	-7465
▁philosophe	-7466
▁recherches	-7467
AS	-7468
GE	-7469
▁-	-7470
Aut	-7471
abb	-7472
ark	-7473
uck	-7474
loge	-7475
uant	-7476
uere	-7477
urch	-7478
èbre	-7479
▁Cin	-7480
▁cim	-7481
▁dre	-7482
▁haï	-7483
▁pis	-7484
▁sci	-7485
▁van	-7486
assés	-7487
onnes	-7488
oques	-7489
▁Axel	-7490
▁Pard	-7491
▁avou	-7492
▁capt	-7493
▁cave	-7494
▁enem	-7495
▁fray	-7496
▁past	-7497
▁seem	-7498
▁send	-7499
▁vêtu	-7500
ardins	-7501
iquait	-7502
▁Cresc	-7503
▁bâton	-7504
▁caill	-7505
▁fatal	-7506
▁riait	-7507
▁songé	-7508
▁sours	-7509
▁taire	-7510
appeler	-7511
enbrock	-7512
iterran	-7513
▁couple	-7514
▁disent	-7515
▁disput	-7516
▁gibier	-7517
▁inspir	-7518
▁offici	-7519
▁paliss	-7520
▁plaire	-7521
▁répète	-7522
▁sourde	-7523
▁street	-7524
▁tapiss	-7525
▁tirait	-7526
▁étourd	-7527
illaient	-7528
▁devoirs	-7529
▁prêtres	-7530
▁reviend	-7531
▁sentant	-7532
entendais	-7533
espérance	-7534
tructions	-7535
▁answered	-7536
▁magnific	-7537
▁passport	-7538
▁Esmeralda	-7539
▁Lidenbrock	-7540
▁excellente	-7541
▁mystérieux	-7542
▁consolation	-7543
▁franchement	-7544
▁perspective	-7545
▁Certainement	-7546
▁ordinairement	-7547
If	-7548
br	-7549
gg	-7550
▁ty	-7551
ceau	-7552
ogna	-7553
prop	-7554
tait	-7555
▁dil	-7556
▁noy	-7557
acter	-7558
appes	-7559
habit	-7560
ividu	-7561
▁Nouv	-7562
▁Sous	-7563
▁luis	-7564
▁Griff	-7565
▁aiguë	-7566
▁armés	-7567
▁céder	-7568
▁eight	-7569
▁hérit	-7570
▁light	-7571
▁paral	-7572
▁parts	-7573
▁roche	-7574
▁titre	-7575
enouill	-7576
ination	-7577
▁French	-7578
▁connue	-7579
▁craint	-7580
▁déguis	-7581
▁ennemi	-7582
▁excuse	-7583
▁forcée	-7584
▁fortes	-7585
▁fosses	-7586
▁parent	-7587
▁pourvu	-7588
▁réunis	-7589
▁écrite	-7590
▁évanou	-7591
▁aveugle	-7592
▁colonie	-7593
▁espèces	-7594
▁flammes	-7595
▁gouttes	-7596
▁lecteur	-7597
▁mercier	-7598
▁obligée	-7599
▁papiers	-7600
▁poisson	-7601
▁prétend	-7602
▁serions	-7603
▁énormes	-7604
▁affreuse	-7605
▁attitude	-7606
▁carrosse	-7607
▁demeurer	-7608
▁pleasure	-7609
▁profound	-7610
▁quittait	-7611
▁rafraîch	-7612
▁reproche	-7613
▁troupeau	-7614
▁gentlemen	-7615
▁intérieur	-7616
▁possédait	-7617
▁puissante	-7618
▁rencontra	-7619
▁souffrait	-7620
▁voisinage	-7621
▁importante	-7622
▁douloureuse	-7623
▁tranquilles	-7624
▁apparaissait	-7625
▁observations	-7626
IL	-7627
aw	-7628
èce	-7629
▁Is	-7630
▁cu	-7631
azin	-7632
over	-7633
▁tot	-7634
attre	-7635
ither	-7636
odeur	-7637
▁Mary	-7638
▁bete	-7639
▁brun	-7640
▁cand	-7641
▁cend	-7642
▁dura	-7643
▁fool	-7644
▁hoch	-7645
▁pape	-7646
▁sale	-7647
▁year	-7648
ething	-7649
igeait	-7650
ograph	-7651
ouvert	-7652
▁March	-7653
▁battu	-7654
▁cessa	-7655
▁claqu	-7656
▁lança	-7657
▁siens	-7658
▁sight	-7659
▁viend	-7660
▁êtres	-7661
uraient	-7662
écolier	-7663
▁appréc	-7664
▁essayé	-7665
▁oiseau	-7666
▁prière	-7667
▁seeing	-7668
▁stupéf	-7669
▁éclats	-7670
▁épargn	-7671
oiselles	-7672
▁Ensuite	-7673
▁Laissez	-7674
▁Michaud	-7675
▁account	-7676
▁disposé	-7677
▁lucarne	-7678
▁ressort	-7679
▁revient	-7680
▁serrait	-7681
▁underst	-7682
▁consider	-7683
▁plaisait	-7684
▁querelle	-7685
▁rentrait	-7686
▁revenant	-7687
▁souriait	-7688
▁voyaient	-7689
▁pareilles	-7690
▁solitaire	-7691
▁brouillard	-7692
▁embarrassé	-7693
▁inférieure	-7694
▁nombreuses	-7695
▁retournant	-7696
▁particulière	-7697
▁continuellement	-7698
Ma	-7699
ds	-7700
ël	-7701
ipl	-7702
ney	-7703
oïs	-7704
▁Po	-7705
alie	-7706
apon	-7707
elet	-7708
▁Pet	-7709
▁eye	-7710
▁lav	-7711
▁net	-7712
▁sum	-7713
armée	-7714
rance	-7715
▁Miss	-7716
▁conç	-7717
▁hâta	-7718
eloppe	-7719
onçant	-7720
upport	-7721
▁Bazin	-7722
▁grise	-7723
▁pusse	-7724
▁robes	-7725
▁salua	-7726
▁sucre	-7727
▁ébran	-7728
aughter	-7729
cepteur	-7730
èvement	-7731
▁Clopin	-7732
▁Tandis	-7733
▁affirm	-7734
▁amitié	-7735
▁exclam	-7736
▁infort	-7737
▁misere	-7738
▁misère	-7739
▁moulin	-7740
▁placée	-7741
▁really	-7742
▁voleur	-7743
▁échant	-7744
espérais	-7745
humanité	-7746
▁catastr	-7747
▁laissée	-7748
▁looking	-7749
▁magistr	-7750
▁several	-7751
▁trouvez	-7752
▁éloigné	-7753
expliquer	-7754
influence	-7755
▁douzaine	-7756
▁logement	-7757
▁services	-7758
▁soupçons	-7759
▁voitures	-7760
▁éclairée	-7761
importance	-7762
▁Messieurs	-7763
▁Néanmoins	-7764
▁Plusieurs	-7765
▁principal	-7766
kn	-7767
ani	-7768
cot	-7769
dit	-7770
gea	-7771
lis	-7772
tif	-7773
uil	-7774
ulé	-7775
▁af	-7776
clés	-7777
enzi	-7778
tect	-7779
ètes	-7780
▁fas	-7781
▁neu	-7782
▁sot	-7783
▁vén	-7784
ating	-7785
echer	-7786
ennem	-7787
envie	-7788
eurel	-7789
issez	-7790
ustri	-7791
▁airs	-7792
▁kept	-7793
▁pale	-7794
▁shew	-7795
▁soll	-7796
▁souc	-7797
▁trot	-7798
▁unes	-7799
▁verr	-7800
illant	-7801
oeuvre	-7802
ommage	-7803
▁Arriv	-7804
▁Bourg	-7805
▁crâne	-7806
▁gardé	-7807
▁ingén	-7808
▁pâles	-7809
▁roman	-7810
▁rêves	-7811
onville	-7812
érieurs	-7813
▁Seurel	-7814
▁Street	-7815
▁confir	-7816
▁lampes	-7817
▁plaign	-7818
▁rempli	-7819
▁récomp	-7820
▁songea	-7821
▁tables	-7822
▁turned	-7823
▁vastes	-7824
▁chirurg	-7825
▁despair	-7826
▁employé	-7827
▁extreme	-7828
▁franchi	-7829
▁gentils	-7830
▁greatly	-7831
▁malaise	-7832
▁pareils	-7833
▁paysans	-7834
▁étoiles	-7835
▁Franklin	-7836
▁cavalier	-7837
▁démarche	-7838
▁voyageur	-7839
▁équipage	-7840
▁Crescenzi	-7841
▁avantages	-7842
▁bâtiments	-7843
▁fantaisie	-7844
▁largement	-7845
▁racontait	-7846
▁terrestre	-7847
▁considérer	-7848
▁uniquement	-7849
▁véritables	-7850
▁Quelquefois	-7851
▁reconnaissant	-7852
▁singulièrement	-7853
Cl	-7854
iot	-7855
oad	-7856
ook	-7857
urb	-7858
▁So	-7859
▁rô	-7860
Inde	-7861
eule	-7862
iées	-7863
omen	-7864
ross	-7865
▁exh	-7866
▁pit	-7867
▁ros	-7868
▁sép	-7869
Voilà	-7870
arine	-7871
aught	-7872
glout	-7873
irais	-7874
olere	-7875
▁Vrai	-7876
▁harm	-7877
▁seiz	-7878
▁stre	-7879
▁tone	-7880
▁true	-7881
▁téne	-7882
▁writ	-7883
aucune	-7884
ionale	-7885
queton	-7886
étique	-7887
▁Rouen	-7888
▁begin	-7889
▁charb	-7890
▁cramp	-7891
▁croir	-7892
▁guere	-7893
▁monot	-7894
▁paire	-7895
▁sèche	-7896
▁vîmes	-7897
eussent	-7898
immense	-7899
▁amener	-7900
▁bottes	-7901
▁cachée	-7902
▁colere	-7903
▁comble	-7904
▁extrem	-7905
▁number	-7906
▁pesant	-7907
▁prends	-7908
▁revins	-7909
▁rompre	-7910
▁rougit	-7911
▁réussi	-7912
▁témoin	-7913
▁établi	-7914
▁attaché	-7915
▁carried	-7916
▁chanson	-7917
▁confier	-7918
▁jardins	-7919
▁marteau	-7920
▁pirates	-7921
▁rejoign	-7922
▁retomba	-7923
▁révolte	-7924
▁tableau	-7925
▁visages	-7926
▁craintes	-7927
▁daughter	-7928
▁descente	-7929
▁endroits	-7930
▁matelots	-7931
▁poussant	-7932
▁ténebres	-7933
▁victoire	-7934
▁étranges	-7935
impatience	-7936
▁fabriquer	-7937
▁favorable	-7938
▁something	-7939
▁vaguement	-7940
▁descendant	-7941
▁plantation	-7942
▁prisonnier	-7943
▁profession	-7944
▁désagréable	-7945
▁paraissaient	-7946
Ad	-7947
apl	-7948
aus	-7949
ini	-7950
▁ri	-7951
eufs	-7952
impr	-7953
isée	-7954
oces	-7955
yant	-7956
èner	-7957
▁arb	-7958
▁bad	-7959
▁fif	-7960
riche	-7961
uisit	-7962
œuvre	-7963
▁Ciel	-7964
▁Jock	-7965
▁Mous	-7966
▁date	-7967
▁else	-7968
▁juin	-7969
▁ruin	-7970
▁sugg	-7971
▁sulf	-7972
▁wait	-7973
▁wood	-7974
▁éche	-7975
espace	-7976
uscule	-7977
▁Fleur	-7978
▁Voyez	-7979
▁berge	-7980
▁coins	-7981
▁filet	-7982
▁hauts	-7983
▁jetés	-7984
▁rican	-7985
▁vôtre	-7986
arrivai	-7987
iendrez	-7988
▁chérie	-7989
▁ferons	-7990
▁humble	-7991
▁intime	-7992
▁leçons	-7993
▁origin	-7994
▁panier	-7995
▁pantal	-7996
▁refusa	-7997
▁région	-7998
étendait	-7999
▁distrib	-8000
▁feuille	-8001
▁letters	-8002
▁pensant	-8003
▁respons	-8004
▁simples	-8005
▁suprême	-8006
▁tumulte	-8007
▁Lheureux	-8008
▁complais	-8009
▁enchanté	-8010
▁exprimer	-8011
▁involont	-8012
▁naufrage	-8013
▁secousse	-8014
Maintenant	-8015
▁Guillaume	-8016
▁bienveill	-8017
▁chevelure	-8018
▁créatures	-8019
▁insupport	-8020
▁substance	-8021
▁tremblait	-8022
▁entrailles	-8023
intelligence	-8024
▁difficultés	-8025
▁différentes	-8026
▁remarquable	-8027
▁généralement	-8028
TE	-8029
aura	-8030
head	-8031
ombe	-8032
ting	-8033
usta	-8034
▁Bri	-8035
▁Nos	-8036
▁bed	-8037
▁cét	-8038
▁dig	-8039
▁gil	-8040
▁nue	-8041
▁osé	-8042
enser	-8043
istan	-8044
▁Hong	-8045
▁Mons	-8046
▁escl	-8047
▁hont	-8048
▁méth	-8049
▁poil	-8050
▁pria	-8051
▁suit	-8052
▁wall	-8053
atives	-8054
outerr	-8055
vreuse	-8056
▁Robin	-8057
▁bleus	-8058
▁canne	-8059
▁déton	-8060
▁exist	-8061
▁hache	-8062
▁reçus	-8063
▁tache	-8064
▁touff	-8065
embarqu	-8066
▁Nether	-8067
▁crimes	-8068
▁devons	-8069
▁effets	-8070
▁fruits	-8071
▁future	-8072
▁horses	-8073
▁manoir	-8074
▁menace	-8075
▁plumes	-8076
▁rentre	-8077
▁retiré	-8078
▁sudden	-8079
▁chaises	-8080
▁chargés	-8081
▁contrée	-8082
▁dépense	-8083
▁nerveux	-8084
▁observa	-8085
▁rapides	-8086
▁reposer	-8087
▁régions	-8088
▁secrète	-8089
▁serrant	-8090
▁traiter	-8091
ativement	-8092
▁appareil	-8093
▁arracher	-8094
▁attendit	-8095
▁barrière	-8096
▁brillant	-8097
▁courants	-8098
▁gaillard	-8099
▁returned	-8100
▁savaient	-8101
▁sérieuse	-8102
▁conduisit	-8103
▁extremely	-8104
▁remarquai	-8105
▁auxquelles	-8106
▁Netherfield	-8107
▁8	-8108
▁ô	-8109
Bon	-8110
kes	-8111
onf	-8112
▁mo	-8113
aged	-8114
ague	-8115
aper	-8116
aste	-8117
ctor	-8118
iète	-8119
ocat	-8120
reat	-8121
teen	-8122
uyer	-8123
▁Tor	-8124
▁Vir	-8125
▁gri	-8126
▁sut	-8127
ageux	-8128
assez	-8129
ellis	-8130
ondes	-8131
épuis	-8132
▁Bomb	-8133
▁Then	-8134
▁Treg	-8135
▁arme	-8136
▁corn	-8137
▁fixe	-8138
▁goth	-8139
▁rois	-8140
▁soud	-8141
▁surs	-8142
▁tamb	-8143
▁érup	-8144
ellent	-8145
humeur	-8146
▁accès	-8147
▁courb	-8148
▁danse	-8149
▁flanc	-8150
▁invis	-8151
▁maint	-8152
▁modif	-8153
▁odeur	-8154
▁rente	-8155
▁réjou	-8156
▁write	-8157
▁Naples	-8158
▁aurons	-8159
▁become	-8160
▁flancs	-8161
▁gloire	-8162
▁length	-8163
▁perles	-8164
▁prises	-8165
▁remise	-8166
▁restai	-8167
▁sollic	-8168
enceinte	-8169
▁baleine	-8170
▁couloir	-8171
▁diables	-8172
▁diamant	-8173
▁gagnait	-8174
▁prononc	-8175
▁rêverie	-8176
atteindre	-8177
iterranée	-8178
▁chapelle	-8179
▁governor	-8180
▁penchant	-8181
▁procurer	-8182
▁produits	-8183
▁remercie	-8184
▁sourcils	-8185
▁traînait	-8186
apercevoir	-8187
▁Tregellis	-8188
▁différent	-8189
▁inférieur	-8190
▁précautions	-8191
▁Méditerranée	-8192
▁dispositions	-8193
▁plaisanterie	-8194
OI	-8195
gs	-8196
Une	-8197
▁II	-8198
Kong	-8199
core	-8200
mons	-8201
âter	-8202
▁Dun	-8203
▁Pal	-8204
▁big	-8205
▁gât	-8206
▁nid	-8207
▁oeu	-8208
▁squ	-8209
amise	-8210
arned	-8211
atter	-8212
igine	-8213
irrit	-8214
night	-8215
orage	-8216
rages	-8217
reuve	-8218
rivet	-8219
▁Bert	-8220
▁XIII	-8221
▁ange	-8222
▁boug	-8223
▁dead	-8224
▁fire	-8225
▁gorg	-8226
▁iron	-8227
▁nett	-8228
▁prim	-8229
avouer	-8230
ettant	-8231
itudes	-8232
uction	-8233
usions	-8234
▁Berks	-8235
▁Leurs	-8236
▁Mason	-8237
▁baign	-8238
▁dérob	-8239
▁formé	-8240
▁fouet	-8241
▁hôtes	-8242
▁irait	-8243
▁minér	-8244
▁motif	-8245
▁ondul	-8246
▁saign	-8247
▁senti	-8248
▁spend	-8249
▁stood	-8250
▁water	-8251
ernelle	-8252
▁Bombay	-8253
▁Chélan	-8254
▁Grivet	-8255
▁appuyé	-8256
▁baissa	-8257
▁chaîne	-8258
▁couler	-8259
▁erreur	-8260
▁existe	-8261
▁indeed	-8262
▁profit	-8263
▁refusé	-8264
▁villes	-8265
▁virent	-8266
assaient	-8267
ustement	-8268
écoutait	-8269
▁Francis	-8270
▁charger	-8271
▁colonne	-8272
▁drawing	-8273
▁remplir	-8274
▁royaume	-8275
▁secrets	-8276
▁souterr	-8277
▁tristes	-8278
▁trouvée	-8279
othicaire	-8280
échappait	-8281
▁désespér	-8282
▁lanterne	-8283
▁moindres	-8284
▁occupait	-8285
▁parvenir	-8286
▁publique	-8287
▁séparait	-8288
inquiétude	-8289
▁parlaient	-8290
▁pourrions	-8291
▁réveiller	-8292
imagination	-8293
▁Mousqueton	-8294
▁adversaire	-8295
▁trouvèrent	-8296
▁préparatifs	-8297
.'	-8298
As	-8299
ME	-8300
Lys	-8301
gne	-8302
hip	-8303
ori	-8304
reb	-8305
▁Ab	-8306
▁ge	-8307
▁sk	-8308
grat	-8309
ouci	-8310
urée	-8311
▁Pri	-8312
▁XXX	-8313
▁cut	-8314
▁ign	-8315
Ouest	-8316
ancre	-8317
andes	-8318
arbre	-8319
aviez	-8320
ibule	-8321
▁cité	-8322
▁conj	-8323
▁full	-8324
▁juré	-8325
▁lead	-8326
▁lâch	-8327
▁soif	-8328
appart	-8329
ouette	-8330
▁achet	-8331
▁appét	-8332
▁brume	-8333
▁brune	-8334
▁causé	-8335
▁major	-8336
▁occur	-8337
▁revol	-8338
▁série	-8339
▁thous	-8340
▁trott	-8341
▁énerg	-8342
▁Chacun	-8343
▁Tamise	-8344
▁conten	-8345
▁deviné	-8346
▁dédain	-8347
▁matéri	-8348
▁seriez	-8349
▁slight	-8350
▁vision	-8351
Autriche	-8352
▁Pierron	-8353
▁William	-8354
▁ardente	-8355
▁cendres	-8356
▁gravité	-8357
▁octobre	-8358
▁partage	-8359
▁paysage	-8360
▁relever	-8361
▁échappé	-8362
▁écrivit	-8363
▁capitale	-8364
▁contente	-8365
▁décision	-8366
▁employer	-8367
▁extraord	-8368
▁plaisirs	-8369
▁pourriez	-8370
▁pratique	-8371
▁profiter	-8372
▁certitude	-8373
▁cérémonie	-8374
▁demandant	-8375
▁immobiles	-8376
▁meilleurs	-8377
▁phénomène	-8378
▁quinzaine	-8379
▁vaisseaux	-8380
▁crépuscule	-8381
▁demoiselle	-8382
▁recommença	-8383
▁appartement	-8384
▁mystérieuse	-8385
▁soulagement	-8386
▁commençaient	-8387
▁mélancolique	-8388
▁gentilshommes	-8389
▁renseignements	-8390
OM	-8391
On	-8392
vel	-8393
▁Va	-8394
▁ec	-8395
▁né	-8396
acée	-8397
itty	-8398
oule	-8399
▁Ass	-8400
▁Aut	-8401
▁bir	-8402
▁gam	-8403
alent	-8404
ayait	-8405
açait	-8406
heurs	-8407
ospit	-8408
rième	-8409
▁Ceux	-8410
▁Dreb	-8411
▁abbé	-8412
▁acte	-8413
▁boss	-8414
▁corp	-8415
▁hear	-8416
▁lugu	-8417
▁page	-8418
▁recl	-8419
▁sert	-8420
▁turn	-8421
amitié	-8422
braham	-8423
effroi	-8424
émilly	-8425
▁Grève	-8426
▁blood	-8427
▁flatt	-8428
▁irrés	-8429
▁jette	-8430
▁lancé	-8431
▁morne	-8432
▁offre	-8433
▁rival	-8434
▁shill	-8435
ensions	-8436
entraîn	-8437
entrepr	-8438
jection	-8439
onniers	-8440
▁Cécile	-8441
▁Faites	-8442
▁Lowood	-8443
▁anyone	-8444
▁appela	-8445
▁arrond	-8446
▁basses	-8447
▁droits	-8448
▁empris	-8449
▁lueurs	-8450
▁plaira	-8451
▁poings	-8452
▁samedi	-8453
itations	-8454
▁Drebber	-8455
▁Parfois	-8456
▁ajouter	-8457
▁diriger	-8458
▁haleine	-8459
▁multipl	-8460
▁obliged	-8461
▁partait	-8462
▁portail	-8463
▁remonta	-8464
▁soulier	-8465
▁énergie	-8466
▁annoncer	-8467
▁espérait	-8468
▁inconnue	-8469
▁nourrice	-8470
▁traversé	-8471
▁chasseurs	-8472
▁distraire	-8473
▁pardonner	-8474
▁quatrième	-8475
▁remontait	-8476
▁reproches	-8477
▁suivaient	-8478
▁tentative	-8479
▁poursuivre	-8480
▁travaillait	-8481
▁tremblement	-8482
▁tressaillit	-8483
▁indifférence	-8484
omn	-8485
rop	-8486
uth	-8487
▁VI	-8488
avag	-8489
delà	-8490
ophy	-8491
▁Den	-8492
▁Esp	-8493
▁III	-8494
▁bur	-8495
▁cot	-8496
▁dog	-8497
▁fal	-8498
▁fié	-8499
▁mem	-8500
▁«--	-8501
ambre	-8502
ancés	-8503
ereur	-8504
ortez	-8505
oudre	-8506
zième	-8507
élégr	-8508
▁déli	-8509
▁ranc	-8510
ington	-8511
rétion	-8512
taches	-8513
écurie	-8514
▁Italy	-8515
▁along	-8516
▁bouff	-8517
▁coupe	-8518
▁exasp	-8519
▁hiver	-8520
▁hôtel	-8521
▁rires	-8522
▁spent	-8523
▁toits	-8524
▁vives	-8525
étrange	-8526
▁Voulez	-8527
▁allumé	-8528
▁allure	-8529
▁bandes	-8530
▁bougie	-8531
▁glissa	-8532
▁indisc	-8533
▁jaunes	-8534
▁masses	-8535
▁parall	-8536
▁sentin	-8537
▁signes	-8538
▁verres	-8539
▁wished	-8540
ançaient	-8541
▁abandon	-8542
▁applaud	-8543
▁cherché	-8544
▁coulait	-8545
▁effrayé	-8546
▁fournir	-8547
▁largeur	-8548
▁montant	-8549
▁reproch	-8550
épouvante	-8551
▁adresser	-8552
▁contenir	-8553
▁interest	-8554
▁journaux	-8555
▁milliers	-8556
▁pleurait	-8557
▁remarque	-8558
▁retrouva	-8559
▁retrouvé	-8560
▁réveilla	-8561
▁thousand	-8562
▁convenait	-8563
▁demandais	-8564
▁extrémité	-8565
▁maréchale	-8566
▁naufragés	-8567
▁remercier	-8568
apothicaire	-8569
▁chirurgien	-8570
▁décidément	-8571
▁délivrance	-8572
▁moustaches	-8573
▁trouverait	-8574
ank	-8575
opé	-8576
uel	-8577
That	-8578
olue	-8579
ored	-8580
otid	-8581
étés	-8582
▁blâ	-8583
▁bus	-8584
▁mel	-8585
▁pin	-8586
alous	-8587
arter	-8588
isant	-8589
memes	-8590
oléon	-8591
oître	-8592
trois	-8593
▁Cité	-8594
▁Coqu	-8595
▁chim	-8596
▁land	-8597
▁pars	-8598
▁sorc	-8599
▁tart	-8600
▁volé	-8601
quérir	-8602
▁Rouge	-8603
▁agent	-8604
▁aider	-8605
▁autor	-8606
▁cache	-8607
▁jambe	-8608
▁lover	-8609
▁paroi	-8610
▁pendu	-8611
▁rangs	-8612
▁tente	-8613
absence	-8614
andises	-8615
ocation	-8616
▁Fausta	-8617
▁cadeau	-8618
▁détest	-8619
▁favour	-8620
▁offrit	-8621
▁rendis	-8622
▁saying	-8623
▁statue	-8624
▁valets	-8625
▁voulus	-8626
illement	-8627
overeign	-8628
étranger	-8629
▁besoins	-8630
▁dignité	-8631
▁modeste	-8632
▁soupçon	-8633
▁tendait	-8634
▁imbécile	-8635
▁parurent	-8636
▁speaking	-8637
▁Coquenard	-8638
▁Mouquette	-8639
▁agitation	-8640
▁brillants	-8641
▁confusion	-8642
▁espérance	-8643
▁longitude	-8644
▁persuader	-8645
▁procureur	-8646
▁remplacer	-8647
▁ressemble	-8648
▁Excellency	-8649
▁abandonner	-8650
▁douloureux	-8651
▁lieutenant	-8652
▁fréquemment	-8653
▁interrompit	-8654
▁silencieusement	-8655
AU	-8656
dge	-8657
dix	-8658
lés	-8659
ray	-8660
▁20	-8661
Emma	-8662
avou	-8663
ende	-8664
haut	-8665
ollo	-8666
owed	-8667
pool	-8668
veil	-8669
êche	-8670
▁Bol	-8671
▁ask	-8672
▁var	-8673
gypte	-8674
illez	-8675
illés	-8676
onnai	-8677
seaux	-8678
ustre	-8679
élice	-8680
▁Avon	-8681
▁With	-8682
▁York	-8683
▁armé	-8684
▁asse	-8685
▁calm	-8686
▁cors	-8687
▁ench	-8688
▁grec	-8689
▁mets	-8690
▁réch	-8691
appare	-8692
arrive	-8693
atoire	-8694
cheurs	-8695
ennemi	-8696
entret	-8697
osités	-8698
uaient	-8699
éraire	-8700
▁Brock	-8701
▁Celle	-8702
▁Charm	-8703
▁Grant	-8704
▁Tiens	-8705
▁atter	-8706
▁daign	-8707
▁grimp	-8708
▁happy	-8709
▁hypoc	-8710
▁paper	-8711
▁volée	-8712
▁élève	-8713
acement	-8714
chaient	-8715
istible	-8716
occuper	-8717
oujours	-8718
écouter	-8719
▁Robert	-8720
▁ardent	-8721
▁choisi	-8722
▁direct	-8723
▁fatale	-8724
▁frères	-8725
▁livrer	-8726
▁recula	-8727
▁serrer	-8728
▁télégr	-8729
avançait	-8730
▁Tristan	-8731
▁branche	-8732
▁chariot	-8733
▁fatigué	-8734
▁grimace	-8735
▁moyenne	-8736
▁ouvrait	-8737
▁prières	-8738
▁proposa	-8739
▁préparé	-8740
▁savants	-8741
▁servant	-8742
▁vivante	-8743
▁caresses	-8744
▁douleurs	-8745
▁farouche	-8746
▁fatiguée	-8747
▁galeries	-8748
▁généreux	-8749
▁mangeait	-8750
▁monstres	-8751
▁réfléchi	-8752
▁excursion	-8753
▁obscurité	-8754
▁pistolets	-8755
▁restèrent	-8756
▁suivirent	-8757
▁vingtaine	-8758
▁compliment	-8759
▁conclusion	-8760
▁dissimuler	-8761
▁instrument	-8762
▁merveilles	-8763
▁révolution	-8764
▁débarrasser	-8765
▁merveilleux	-8766
▁respiration	-8767
▁marchandises	-8768
dr	-8769
hém	-8770
,000	-8771
ecte	-8772
iqué	-8773
vint	-8774
étal	-8775
▁Pol	-8776
▁den	-8777
▁got	-8778
▁vet	-8779
▁wat	-8780
apres	-8781
assur	-8782
hurst	-8783
hérit	-8784
ilair	-8785
rices	-8786
▁Flor	-8787
▁Mill	-8788
▁brul	-8789
▁buis	-8790
▁fash	-8791
▁help	-8792
▁kind	-8793
▁mêlé	-8794
▁need	-8795
▁pitt	-8796
▁sain	-8797
▁subs	-8798
illart	-8799
propre	-8800
étroit	-8801
▁Kitty	-8802
▁Liver	-8803
▁agité	-8804
▁barre	-8805
▁corre	-8806
▁fîmes	-8807
▁joint	-8808
▁jouir	-8809
▁levée	-8810
▁sache	-8811
▁smile	-8812
▁stand	-8813
▁succe	-8814
▁vents	-8815
▁veste	-8816
▁women	-8817
Abraham	-8818
acheter	-8819
assible	-8820
avancer	-8821
ouvrage	-8822
pentier	-8823
▁Prenez	-8824
▁brisée	-8825
▁danser	-8826
▁enflam	-8827
▁entret	-8828
▁forger	-8829
▁froids	-8830
▁lancer	-8831
▁pâleur	-8832
▁rentré	-8833
▁réduit	-8834
▁veines	-8835
▁within	-8836
▁études	-8837
accommod	-8838
embarras	-8839
emporter	-8840
ettaient	-8841
exprimer	-8842
▁Ferrier	-8843
▁Frilair	-8844
▁billets	-8845
▁distinc	-8846
▁reached	-8847
▁roulait	-8848
▁success	-8849
▁viendra	-8850
▁éprouvé	-8851
▁Napoléon	-8852
▁Nautilus	-8853
▁couvrait	-8854
▁entraîné	-8855
▁frappait	-8856
▁marriage	-8857
▁panneaux	-8858
▁pittores	-8859
Atlantique	-8860
▁Sovereign	-8861
▁continuai	-8862
▁gendarmes	-8863
▁maintenir	-8864
▁manoeuvre	-8865
▁reprocher	-8866
▁vraisembl	-8867
▁procureuse	-8868
▁disparaissait	-8869
▁successivement	-8870
TER	-8871
igr	-8872
ody	-8873
▁10	-8874
▁To	-8875
aibl	-8876
amus	-8877
athe	-8878
elez	-8879
grès	-8880
ider	-8881
omes	-8882
urne	-8883
èles	-8884
▁dec	-8885
▁hav	-8886
▁sie	-8887
acier	-8888
aimez	-8889
airer	-8890
asmin	-8891
clési	-8892
fully	-8893
ility	-8894
sives	-8895
ébran	-8896
écras	-8897
éleva	-8898
ôtres	-8899
▁cler	-8900
▁clou	-8901
▁fest	-8902
▁frag	-8903
▁hold	-8904
▁joué	-8905
▁lord	-8906
▁luxe	-8907
▁péch	-8908
atrice	-8909
encour	-8910
ercice	-8911
fortun	-8912
ignant	-8913
▁Lydie	-8914
▁Parmi	-8915
▁apais	-8916
▁attem	-8917
▁often	-8918
▁plaça	-8919
▁princ	-8920
assurer	-8921
attente	-8922
elhurst	-8923
igneurs	-8924
▁Frollo	-8925
▁Rivers	-8926
▁absorb	-8927
▁acheva	-8928
▁appréh	-8929
▁facult	-8930
▁pensif	-8931
▁perdit	-8932
▁profil	-8933
▁sabots	-8934
▁terrif	-8935
▁treize	-8936
▁assurer	-8937
▁brûlait	-8938
▁changea	-8939
▁matière	-8940
▁moutons	-8941
▁méchant	-8942
▁noticed	-8943
▁offrait	-8944
▁parages	-8945
▁patient	-8946
▁refroid	-8947
▁souleva	-8948
▁Lestrade	-8949
▁collines	-8950
▁comptoir	-8951
▁dominait	-8952
▁emporter	-8953
▁flottait	-8954
▁individu	-8955
▁menaçait	-8956
▁persuadé	-8957
▁poignard	-8958
▁presence	-8959
▁rappelez	-8960
▁regardez	-8961
▁secouant	-8962
▁souviens	-8963
▁transpar	-8964
▁voudrait	-8965
▁Georgiana	-8966
▁Liverpool	-8967
▁finissait	-8968
▁indispens	-8969
▁vainement	-8970
interrompit	-8971
▁accompagné	-8972
▁effroyable	-8973
▁espérances	-8974
▁invitation	-8975
▁longuement	-8976
▁manquaient	-8977
▁procession	-8978
▁transports	-8979
▁prisonnière	-8980
▁recommencer	-8981
▁Brockelhurst	-8982
▁insupportable	-8983
▁nécessairement	-8984
Au	-8985
Ne	-8986
als	-8987
aça	-8988
the	-8989
vet	-8990
ége	-8991
▁Hé	-8992
etes	-8993
happ	-8994
ised	-8995
lier	-8996
neuf	-8997
oine	-8998
uise	-8999
vres	-9000
▁Del	-9001
▁Her	-9002
▁Lib	-9003
▁Sam	-9004
▁agi	-9005
▁loy	-9006
agent	-9007
ardez	-9008
arres	-9009
chons	-9010
océan	-9011
onses	-9012
osion	-9013
tesse	-9014
▁Déjà	-9015
▁Holl	-9016
▁Réqu	-9017
▁drag	-9018
▁exig	-9019
▁frac	-9020
▁jaun	-9021
▁mépr	-9022
▁stud	-9023
▁week	-9024
appris	-9025
assant	-9026
ilibre	-9027
issais	-9028
▁absor	-9029
▁aimée	-9030
▁angle	-9031
▁crist	-9032
▁emmen	-9033
▁incon	-9034
▁indig	-9035
▁saill	-9036
▁worth	-9037
horloge	-9038
ministr	-9039
obtenir	-9040
▁Pauvre	-9041
▁bavard	-9042
▁brûler	-9043
▁crever	-9044
▁filled	-9045
▁gallop	-9046
▁jaloux	-9047
▁justif	-9048
▁pommes	-9049
▁thirty	-9050
assassin	-9051
▁Bologna	-9052
▁accroup	-9053
▁cachait	-9054
▁caprice	-9055
▁choisir	-9056
▁commode	-9057
▁devient	-9058
▁fantôme	-9059
▁fashion	-9060
▁miracle	-9061
▁progrès	-9062
▁referma	-9063
▁réussir	-9064
▁sourcil	-9065
▁veulent	-9066
▁baissant	-9067
▁contract	-9068
▁demandez	-9069
▁disposer	-9070
▁détruire	-9071
▁froideur	-9072
▁ouvertes	-9073
▁rentrant	-9074
▁réponses	-9075
▁touchait	-9076
▁éloignée	-9077
▁approcher	-9078
▁découvrit	-9079
▁extérieur	-9080
▁opération	-9081
▁ouverture	-9082
▁souhaiter	-9083
▁tremblant	-9084
▁éclairait	-9085
▁Réquillart	-9086
▁commission	-9087
▁insensible	-9088
▁revenaient	-9089
▁sensations	-9090
▁surprendre	-9091
▁regardèrent	-9092
▁empressement	-9093
▁connaissances	-9094
▁plaisanteries	-9095
AL	-9096
agu	-9097
ior	-9098
van	-9099
apit	-9100
arty	-9101
raid	-9102
resh	-9103
rote	-9104
ward	-9105
▁dus	-9106
▁har	-9107
aimed	-9108
ember	-9109
ended	-9110
inées	-9111
ortue	-9112
▁Mery	-9113
▁Virg	-9114
▁dark	-9115
▁duel	-9116
▁huss	-9117
▁syst	-9118
▁vaud	-9119
ennent	-9120
ertume	-9121
espèce	-9122
inform	-9123
onnier	-9124
selves	-9125
▁Adieu	-9126
▁admit	-9127
▁armée	-9128
▁black	-9129
▁bound	-9130
▁creux	-9131
▁griff	-9132
▁inten	-9133
▁obéir	-9134
▁party	-9135
▁posit	-9136
▁prévu	-9137
▁sabre	-9138
▁stopp	-9139
▁tiers	-9140
▁Pember	-9141
▁Wardes	-9142
▁assuré	-9143
▁crédit	-9144
▁destru	-9145
▁douces	-9146
▁défait	-9147
▁déshab	-9148
▁estime	-9149
▁impéri	-9150
▁marcha	-9151
▁offert	-9152
▁office	-9153
▁retint	-9154
▁savons	-9155
▁secrét	-9156
▁talent	-9157
▁unhapp	-9158
▁voudra	-9159
imaginer	-9160
▁Meryton	-9161
▁berline	-9162
▁décidée	-9163
▁enfance	-9164
▁fermait	-9165
▁leaving	-9166
▁malades	-9167
▁sottise	-9168
opération	-9169
▁Vraiment	-9170
▁ajoutait	-9171
▁dressait	-9172
▁entendue	-9173
▁familles	-9174
▁prononcé	-9175
▁regagner	-9176
▁supplice	-9177
▁terminée	-9178
▁trembler	-9179
▁troubler	-9180
▁Pemberley	-9181
▁Souvarine	-9182
▁charpente	-9183
▁combattre	-9184
▁gratitude	-9185
▁possibles	-9186
▁président	-9187
▁sortirent	-9188
▁trouverez	-9189
▁viendrait	-9190
accompagner	-9191
▁mélancolie	-9192
▁satisfaite	-9193
▁themselves	-9194
▁constamment	-9195
▁demoiselles	-9196
▁horriblement	-9197
Av	-9198
oz	-9199
yg	-9200
RES	-9201
cro	-9202
antz	-9203
arte	-9204
arée	-9205
ased	-9206
atic	-9207
osed	-9208
▁Bar	-9209
▁hus	-9210
▁max	-9211
▁swe	-9212
There	-9213
Tiens	-9214
ascon	-9215
chées	-9216
cious	-9217
eller	-9218
erson	-9219
ouris	-9220
venue	-9221
▁Cinq	-9222
▁Ferv	-9223
▁Gast	-9224
▁King	-9225
▁Pont	-9226
▁Tour	-9227
▁bron	-9228
▁clos	-9229
▁encl	-9230
▁hiss	-9231
▁poli	-9232
▁roue	-9233
▁test	-9234
▁écus	-9235
abaiss	-9236
ablonn	-9237
attaqu	-9238
aversi	-9239
ettent	-9240
morrow	-9241
ouches	-9242
reuses	-9243
Égypte	-9244
étonne	-9245
▁Indes	-9246
▁aston	-9247
▁austr	-9248
▁bancs	-9249
▁bleue	-9250
▁bénéf	-9251
▁chefs	-9252
▁cimet	-9253
▁frott	-9254
▁hélas	-9255
▁notes	-9256
▁short	-9257
▁suffi	-9258
▁tendu	-9259
▁tenue	-9260
▁vainc	-9261
▁wrote	-9262
▁étoff	-9263
Harbert	-9264
inspect	-9265
ishment	-9266
morency	-9267
▁Europe	-9268
▁Fausse	-9269
▁Frantz	-9270
▁affair	-9271
▁afraid	-9272
▁answer	-9273
▁atroce	-9274
▁coffre	-9275
▁dettes	-9276
▁débatt	-9277
▁détour	-9278
▁famous	-9279
▁glacée	-9280
▁goûter	-9281
▁gueule	-9282
▁irrité	-9283
▁middle	-9284
▁pesait	-9285
▁restés	-9286
▁vivres	-9287
achement	-9288
ierement	-9289
ionnaire	-9290
▁Raversi	-9291
▁achever	-9292
▁combatt	-9293
▁donnent	-9294
▁enseign	-9295
▁entered	-9296
▁general	-9297
▁jésuite	-9298
▁notaire	-9299
▁pleines	-9300
▁reparut	-9301
▁volupté	-9302
exécution	-9303
ueusement	-9304
▁Nouvelle	-9305
▁accompli	-9306
▁allusion	-9307
▁bonhomme	-9308
▁complete	-9309
▁couverts	-9310
▁dépouill	-9311
▁imaginer	-9312
▁lumineux	-9313
▁marquise	-9314
▁nerveuse	-9315
▁pantalon	-9316
▁recevait	-9317
▁scrupule	-9318
▁soldiers	-9319
▁éléments	-9320
▁Charmolue	-9321
▁Fervaques	-9322
▁Rosémilly	-9323
▁character	-9324
▁mauvaises	-9325
▁principes	-9326
▁tombaient	-9327
▁abominable	-9328
▁approchait	-9329
▁contempler	-9330
▁différente	-9331
▁expérience	-9332
▁meilleures	-9333
▁Montmorency	-9334
▁catastrophe	-9335
▁gigantesque	-9336
▁possibilité	-9337
▁instructions	-9338
▁machinalement	-9339
▁régulièrement	-9340
De	-9341
▁9	-9342
Mad	-9343
bat	-9344
hyp	-9345
idé	-9346
▁ET	-9347
▁fé	-9348
abio	-9349
ardi	-9350
arly	-9351
bour	-9352
cide	-9353
oken	-9354
phew	-9355
tête	-9356
▁Vol	-9357
▁age	-9358
▁méf	-9359
▁sen	-9360
▁tât	-9361
▁vic	-9362
abîme	-9363
affir	-9364
iants	-9365
ignon	-9366
ilier	-9367
illed	-9368
oises	-9369
owing	-9370
uyait	-9371
▁Barb	-9372
▁Fors	-9373
▁arms	-9374
▁boit	-9375
▁carg	-9376
▁carn	-9377
▁cart	-9378
▁crit	-9379
▁lame	-9380
▁lost	-9381
▁meet	-9382
▁pige	-9383
▁plis	-9384
▁stri	-9385
▁vase	-9386
assins	-9387
ermain	-9388
ricité	-9389
venait	-9390
épaiss	-9391
▁Fabio	-9392
▁Ville	-9393
▁choqu	-9394
▁crach	-9395
▁finie	-9396
▁gants	-9397
▁gibet	-9398
▁grogn	-9399
▁inexp	-9400
▁leçon	-9401
▁monte	-9402
▁nomme	-9403
▁priai	-9404
▁tenté	-9405
▁veine	-9406
▁verra	-9407
issable	-9408
ongeant	-9409
tective	-9410
▁Gaston	-9411
▁Hélène	-9412
▁baronn	-9413
▁behind	-9414
▁blonde	-9415
▁during	-9416
▁encomb	-9417
▁libres	-9418
▁loisir	-9419
▁manche	-9420
▁marine	-9421
▁passés	-9422
▁placés	-9423
▁plongé	-9424
▁traité	-9425
humidité	-9426
istement	-9427
▁Forster	-9428
▁approuv	-9429
▁arrange	-9430
▁avirons	-9431
▁carreau	-9432
▁chargée	-9433
▁cruelle	-9434
▁déclaré	-9435
▁défense	-9436
▁détroit	-9437
▁hésiter	-9438
▁nourrir	-9439
▁tambour	-9440
▁traîner	-9441
▁veiller	-9442
▁verrait	-9443
▁Derville	-9444
▁centaine	-9445
▁compagne	-9446
▁condamné	-9447
▁discuter	-9448
▁distinct	-9449
▁distrait	-9450
▁effrayée	-9451
▁examiner	-9452
▁existait	-9453
▁expliqua	-9454
▁frappant	-9455
▁gothique	-9456
▁malheurs	-9457
▁manieres	-9458
▁mâchoire	-9459
▁pardonne	-9460
▁partager	-9461
▁quittant	-9462
▁remember	-9463
▁sûrement	-9464
▁annonçait	-9465
▁craignant	-9466
▁librement	-9467
▁maladroit	-9468
▁propriété	-9469
▁retournai	-9470
▁éternelle	-9471
▁confidence	-9472
▁marchaient	-9473
▁navigation	-9474
▁retrouvait	-9475
▁inexplicable	-9476
No	-9477
sh	-9478
***	-9479
apé	-9480
edy	-9481
ual	-9482
ude	-9483
▁Do	-9484
▁My	-9485
band	-9486
neff	-9487
oies	-9488
orie	-9489
orée	-9490
ptem	-9491
rich	-9492
vert	-9493
▁Béb	-9494
▁XIV	-9495
▁enl	-9496
▁gif	-9497
▁rug	-9498
acide	-9499
acées	-9500
dered	-9501
eurre	-9502
égard	-9503
▁Gaut	-9504
▁Mahi	-9505
▁Norb	-9506
▁auth	-9507
▁buff	-9508
▁call	-9509
▁insc	-9510
▁real	-9511
▁rong	-9512
▁vînt	-9513
devant	-9514
unique	-9515
écluse	-9516
▁Pierr	-9517
▁chuch	-9518
▁crête	-9519
▁défil	-9520
▁inond	-9521
▁mêlée	-9522
▁plats	-9523
▁serré	-9524
▁sound	-9525
▁utter	-9526
neffels	-9527
orifice	-9528
oussole	-9529
ptembre	-9530
remment	-9531
▁Bébert	-9532
▁amants	-9533
▁amours	-9534
▁connus	-9535
▁consac	-9536
▁coquin	-9537
▁coupée	-9538
▁fiacre	-9539
▁majest	-9540
▁master	-9541
▁quotid	-9542
▁rather	-9543
▁tenais	-9544
▁tombai	-9545
▁toucha	-9546
▁vertes	-9547
assement	-9548
iversité	-9549
érations	-9550
ériorité	-9551
▁Griffon	-9552
▁annonça	-9553
▁cloches	-9554
▁collège	-9555
▁contact	-9556
▁convuls	-9557
▁entouré	-9558
▁fenetre	-9559
▁laissai	-9560
▁mesures	-9561
▁promont	-9562
▁recluse	-9563
▁reculer	-9564
▁rentrée	-9565
▁réponds	-9566
▁truands	-9567
▁verdure	-9568
▁voleurs	-9569
▁admettre	-9570
▁consoler	-9571
▁descendu	-9572
▁fatigues	-9573
▁happened	-9574
▁innocent	-9575
▁scandale	-9576
▁septentr	-9577
▁songeant	-9578
▁échelles	-9579
▁Chapelier	-9580
▁apportait	-9581
▁arrivâmes	-9582
▁composait	-9583
▁donnerait	-9584
▁entendant	-9585
▁franchise	-9586
▁fraîcheur	-9587
▁tombèrent	-9588
▁caractères	-9589
▁couverture	-9590
▁intentions	-9591
▁perfection	-9592
▁understand	-9593
▁cruellement	-9594
▁monseigneur	-9595
▁enthousiasme	-9596
▁raisonnement	-9597
▁distinctement	-9598
IV	-9599
to	-9600
uz	-9601
wh	-9602
OUR	-9603
Qui	-9604
ake	-9605
amm	-9606
feu	-9607
inj	-9608
ren	-9609
▁hu	-9610
▁mû	-9611
accr	-9612
arth	-9613
iest	-9614
ster	-9615
ômes	-9616
▁Str	-9617
▁apl	-9618
▁din	-9619
▁eas	-9620
▁mug	-9621
▁rad	-9622
▁sad	-9623
▁tog	-9624
ecter	-9625
elieu	-9626
eulin	-9627
idées	-9628
ieces	-9629
imité	-9630
teaux	-9631
épend	-9632
▁Crom	-9633
▁Lady	-9634
▁Même	-9635
▁bott	-9636
▁exam	-9637
▁frot	-9638
▁grie	-9639
▁kill	-9640
▁sach	-9641
▁silh	-9642
▁want	-9643
Tortue	-9644
▁Merci	-9645
▁Roche	-9646
▁Savez	-9647
▁corne	-9648
▁disci	-9649
▁fixer	-9650
▁halte	-9651
▁known	-9652
▁peupl	-9653
▁spéci	-9654
▁truth	-9655
Anglais	-9656
Espagne	-9657
Lincoln	-9658
aujourd	-9659
ellerie	-9660
enfants	-9661
ruption	-9662
▁Croyez	-9663
▁Jasmin	-9664
▁beurre	-9665
▁convul	-9666
▁doutes	-9667
▁empois	-9668
▁enlevé	-9669
▁garant	-9670
▁ground	-9671
▁hypoth	-9672
▁naître	-9673
▁nephew	-9674
▁vienne	-9675
eulement	-9676
édiction	-9677
▁Norbert	-9678
▁arrêtée	-9679
▁attempt	-9680
▁compère	-9681
▁contrar	-9682
▁célèbre	-9683
▁devenus	-9684
▁doutait	-9685
▁décrire	-9686
▁horizon	-9687
▁importe	-9688
▁lugubre	-9689
▁muscles	-9690
▁ouvrier	-9691
▁pussent	-9692
▁période	-9693
▁sagesse	-9694
▁strange	-9695
▁sursaut	-9696
▁taillis	-9697
▁trompée	-9698
▁unhappy	-9699
▁Écoutez	-9700
▁édifice	-9701
▁épouser	-9702
ouverture	-9703
▁Deneulin	-9704
▁Rochelle	-9705
▁Sneffels	-9706
▁affirmer	-9707
▁cailloux	-9708
▁carreaux	-9709
▁flottant	-9710
▁furieuse	-9711
▁intérêts	-9712
▁matières	-9713
▁pauvreté	-9714
▁pistolet	-9715
▁pourrons	-9716
▁resplend	-9717
▁semblant	-9718
▁suspendu	-9719
▁vivaient	-9720
▁éprouver	-9721
étonnement	-9722
▁grossière	-9723
▁reconnais	-9724
▁seigneurs	-9725
▁éducation	-9726
▁brillaient	-9727
▁devenaient	-9728
▁précepteur	-9729
▁secrétaire	-9730
▁suffisante	-9731
clésiastique	-9732
▁appartenant	-9733
▁destruction	-9734
▁indifférent	-9735
▁intervalles	-9736
▁commencèrent	-9737
▁incessamment	-9738
▁échantillons	-9739
._	-9740
CH	-9741
ino	-9742
lus	-9743
por	-9744
rah	-9745
ror	-9746
écr	-9747
▁"'	-9748
▁Be	-9749
ayez	-9750
cess	-9751
iqua	-9752
ièce	-9753
écis	-9754
▁Dix	-9755
▁How	-9756
▁Sil	-9757
▁Tom	-9758
▁asc	-9759
▁cuv	-9760
▁orn	-9761
▁oss	-9762
▁vib	-9763
aches	-9764
assis	-9765
aussi	-9766
avert	-9767
ceaux	-9768
icale	-9769
marin	-9770
olyte	-9771
poser	-9772
résil	-9773
siers	-9774
tique	-9775
▁Bour	-9776
▁clam	-9777
▁deal	-9778
▁guér	-9779
▁inté	-9780
▁marm	-9781
▁pair	-9782
▁piét	-9783
▁tabl	-9784
▁émue	-9785
arreta	-9786
chauss	-9787
estime	-9788
frique	-9789
onnées	-9790
overed	-9791
▁avril	-9792
▁break	-9793
▁couru	-9794
▁deuil	-9795
▁débou	-9796
▁illum	-9797
▁jetai	-9798
▁jurés	-9799
▁louis	-9800
▁messe	-9801
▁mount	-9802
▁pieux	-9803
arreter	-9804
astille	-9805
isation	-9806
oiseaux	-9807
écriait	-9808
▁Brésil	-9809
▁Devant	-9810
▁acheté	-9811
▁across	-9812
▁avenir	-9813
▁balcon	-9814
▁beauty	-9815
▁confid	-9816
▁dirent	-9817
▁donnés	-9818
▁enfonc	-9819
▁fermés	-9820
▁giving	-9821
▁habité	-9822
▁jolies	-9823
▁lourds	-9824
▁pentes	-9825
▁ralent	-9826
▁arraché	-9827
▁bagages	-9828
▁battant	-9829
▁boucher	-9830
▁capital	-9831
▁clocher	-9832
▁contrib	-9833
▁couchée	-9834
▁devrais	-9835
▁endormi	-9836
▁enfermé	-9837
▁englout	-9838
▁enlever	-9839
▁frappée	-9840
▁fromage	-9841
▁habitée	-9842
▁husband	-9843
▁intense	-9844
▁marques	-9845
▁rancune	-9846
▁remplie	-9847
▁régnait	-9848
▁réunion	-9849
▁tendant	-9850
▁tombant	-9851
▁univers	-9852
▁établir	-9853
▁Toujours	-9854
▁baronnet	-9855
▁ignorait	-9856
▁mesurait	-9857
▁relevant	-9858
▁rudement	-9859
▁résoudre	-9860
▁réveillé	-9861
▁strength	-9862
▁together	-9863
▁traverse	-9864
approchait	-9865
▁brillante	-9866
▁cargaison	-9867
▁incidents	-9868
▁invisible	-9869
▁prendrait	-9870
▁étrangère	-9871
▁apparition	-9872
▁mollusques	-9873
▁protection	-9874
▁séparation	-9875
▁tristement	-9876
▁attendaient	-9877
▁consentement	-9878
▁conséquences	-9879
▁irrésistible	-9880
▁Ê	-9881
Ant	-9882
Les	-9883
ali	-9884
aya	-9885
bly	-9886
oon	-9887
▁13	-9888
▁DU	-9889
alla	-9890
anta	-9891
bleu	-9892
eded	-9893
icle	-9894
inqu	-9895
itut	-9896
rive	-9897
zire	-9898
▁Fin	-9899
▁LES	-9900
▁Lap	-9901
▁Nul	-9902
▁Oud	-9903
▁faç	-9904
▁ira	-9905
▁opp	-9906
▁sch	-9907
agues	-9908
isses	-9909
mille	-9910
osais	-9911
▁Anne	-9912
▁Hume	-9913
▁Noël	-9914
▁Piet	-9915
▁Suez	-9916
▁cône	-9917
▁dépe	-9918
▁mean	-9919
▁vend	-9920
amener	-9921
rirent	-9922
élever	-9923
▁Soyez	-9924
▁allem	-9925
▁bague	-9926
▁biens	-9927
▁bring	-9928
▁eusse	-9929
▁floor	-9930
▁forts	-9931
▁issue	-9932
▁louer	-9933
▁verts	-9934
▁wagon	-9935
atiques	-9936
emporta	-9937
imagine	-9938
isaient	-9939
itaient	-9940
▁Vierge	-9941
▁agitée	-9942
▁angles	-9943
▁aveugl	-9944
▁became	-9945
▁buvait	-9946
▁calmer	-9947
▁cannot	-9948
▁crosse	-9949
▁délire	-9950
▁engagé	-9951
▁envoya	-9952
▁fellow	-9953
▁flotte	-9954
▁grains	-9955
▁harpon	-9956
▁hésita	-9957
▁incons	-9958
▁livrée	-9959
▁maudit	-9960
▁minces	-9961
▁nommer	-9962
▁ongles	-9963
▁pencha	-9964
▁pouces	-9965
▁quarts	-9966
▁recogn	-9967
▁recond	-9968
▁retenu	-9969
▁ruines	-9970
▁suivie	-9971
ancienne	-9972
enfoncer	-9973
▁address	-9974
▁anxiété	-9975
▁consomm	-9976
▁dommage	-9977
▁learned	-9978
▁limites	-9979
▁paradis	-9980
▁prairie	-9981
▁récolte	-9982
▁soldier	-9983
▁étincel	-9984
embrasser	-9985
▁Bastille	-9986
▁barreaux	-9987
▁curieuse	-9988
▁déranger	-9989
▁espérant	-9990
▁impertin	-9991
▁occident	-9992
▁vivacité	-9993
▁vulgaire	-9994
Université	-9995
▁Richelieu	-9996
▁causaient	-9997
▁désappoin	-9998
▁obstacles	-9999
▁partirent	-10000
▁richesses	-10001
▁septembre	-10002
▁surnature	-10003
▁construire	-10004
▁habitation	-10005
▁kilometres	-10006
▁occupation	-10007
▁principale	-10008
▁recommandé	-10009
▁satisfaire	-10010
▁traversait	-10011
▁Marchiennes	-10012
RO	-10013
SE	-10014
dy	-10015
QUE	-10016
fer	-10017
▁aj	-10018
.»--	-10019
adém	-10020
alog	-10021
amme	-10022
gues	-10023
oach	-10024
oile	-10025
rimé	-10026
trai	-10027
what	-10028
éner	-10029
▁Aug	-10030
▁Bah	-10031
▁Lis	-10032
▁Roy	-10033
▁UNE	-10034
▁cis	-10035
▁nor	-10036
▁pag	-10037
▁pud	-10038
▁rôt	-10039
▁sex	-10040
▁spr	-10041
abond	-10042
ançai	-10043
ardon	-10044
chose	-10045
enons	-10046
jeant	-10047
oleon	-10048
orait	-10049
quête	-10050
écriv	-10051
▁Cons	-10052
▁Copp	-10053
▁dise	-10054
▁dégr	-10055
▁file	-10056
▁glor	-10057
▁keen	-10058
▁surr	-10059
▁wife	-10060
ardeur	-10061
itting	-10062
uisait	-10063
ulaire	-10064
éviter	-10065
▁Grace	-10066
▁House	-10067
▁Porte	-10068
▁affam	-10069
▁juges	-10070
▁loved	-10071
▁pleuv	-10072
▁périr	-10073
▁remor	-10074
▁situé	-10075
▁tasse	-10076
▁yards	-10077
antaine	-10078
aquette	-10079
honnête	-10080
inclina	-10081
oyaient	-10082
▁Encore	-10083
▁carrés	-10084
▁church	-10085
▁conter	-10086
▁dalles	-10087
▁divine	-10088
▁dépend	-10089
▁dévers	-10090
▁escort	-10091
▁espace	-10092
▁humili	-10093
▁orient	-10094
▁pleuré	-10095
▁promit	-10096
▁sapins	-10097
▁sauvée	-10098
▁seules	-10099
▁struck	-10100
▁talons	-10101
▁Oudarde	-10102
▁Presque	-10103
▁absorbé	-10104
▁allions	-10105
▁articul	-10106
▁boucles	-10107
▁concert	-10108
▁emporte	-10109
▁ferrets	-10110
▁jealous	-10111
▁message	-10112
▁mélange	-10113
▁raconté	-10114
▁reprend	-10115
▁stupeur	-10116
▁suffoqu	-10117
▁système	-10118
▁tendres	-10119
▁tremble	-10120
▁Mahiette	-10121
▁baleines	-10122
▁berlines	-10123
▁boussole	-10124
▁convenir	-10125
▁demeurai	-10126
▁dentelle	-10127
▁fonction	-10128
▁gaiement	-10129
▁glissait	-10130
▁greatest	-10131
▁médiocre	-10132
inspecteur	-10133
▁Justement	-10134
▁commettre	-10135
▁companion	-10136
▁consulter	-10137
▁dirigeait	-10138
▁montaient	-10139
▁sentaient	-10140
▁expédition	-10141
▁habituelle	-10142
▁précipiter	-10143
▁réservoirs	-10144
▁compliments	-10145
▁description	-10146
▁poursuivait	-10147
▁explications	-10148
▁conversations	-10149
▁définitivement	-10150
▁malheureusement	-10151
,'	-10152
Or	-10153
gée	-10154
nel	-10155
abes	-10156
appl	-10157
enfl	-10158
joux	-10159
leep	-10160
liza	-10161
usez	-10162
very	-10163
èdes	-10164
▁Bal	-10165
▁Dés	-10166
▁Man	-10167
▁Ven	-10168
▁fér	-10169
▁lay	-10170
▁sor	-10171
itter	-10172
▁Lake	-10173
▁Rome	-10174
▁clôt	-10175
▁monn	-10176
▁pari	-10177
▁préd	-10178
▁réel	-10179
▁âmes	-10180
▁élan	-10181
aignez	-10182
aquets	-10183
enfuir	-10184
oblige	-10185
ueille	-10186
âteaux	-10187
▁Lapin	-10188
▁bière	-10189
▁clois	-10190
▁disgr	-10191
▁fines	-10192
▁garda	-10193
▁image	-10194
▁incre	-10195
▁larme	-10196
▁muets	-10197
▁nièce	-10198
▁peint	-10199
▁posée	-10200
▁privé	-10201
▁péril	-10202
▁rattr	-10203
▁reins	-10204
▁sauve	-10205
▁spite	-10206
▁vêtue	-10207
Germain	-10208
emporte	-10209
olement	-10210
▁Gascon	-10211
▁Palace	-10212
▁announ	-10213
▁cesser	-10214
▁entire	-10215
▁famili	-10216
▁fierté	-10217
▁presby	-10218
▁rendue	-10219
▁royale	-10220
▁sainte	-10221
▁saisie	-10222
▁souris	-10223
▁sujets	-10224
▁touche	-10225
▁économ	-10226
aimerais	-10227
angoisse	-10228
appareil	-10229
▁Jackson	-10230
▁baisser	-10231
▁chèvres	-10232
▁details	-10233
▁devions	-10234
▁essouff	-10235
▁mourant	-10236
▁pendule	-10237
▁possède	-10238
▁quarter	-10239
▁réparer	-10240
▁whether	-10241
agenouill	-10242
approchai	-10243
uellement	-10244
videmment	-10245
▁Cromarty	-10246
▁Ferrante	-10247
▁ambition	-10248
▁désastre	-10249
▁forgeron	-10250
▁menaçant	-10251
▁mistress	-10252
▁portière	-10253
▁regrette	-10254
▁remained	-10255
▁réclamer	-10256
▁serjeant	-10257
▁tonneaux	-10258
ifications	-10259
▁Rochefort	-10260
▁battaient	-10261
▁blancheur	-10262
▁objection	-10263
▁regretter	-10264
▁réfléchit	-10265
▁sincérité	-10266
▁différents	-10267
▁impassible	-10268
▁kilomètres	-10269
▁maîtresses	-10270
▁répugnance	-10271
▁succession	-10272
▁tournaient	-10273
▁continuaient	-10274
▁descendaient	-10275
▁considération	-10276
00£	-10277
ben	-10278
osa	-10279
urn	-10280
vey	-10281
Cela	-10282
angé	-10283
aveu	-10284
eche	-10285
eron	-10286
excl	-10287
iner	-10288
isph	-10289
omne	-10290
ured	-10291
évén	-10292
▁Hum	-10293
▁Mai	-10294
▁Ser	-10295
▁eue	-10296
▁pup	-10297
▁tit	-10298
arque	-10299
cepte	-10300
eline	-10301
enole	-10302
ernel	-10303
inary	-10304
orted	-10305
ustom	-10306
▁Hall	-10307
▁aven	-10308
▁aîné	-10309
▁bref	-10310
▁cire	-10311
▁duty	-10312
▁ense	-10313
▁frat	-10314
▁hall	-10315
▁infl	-10316
▁isol	-10317
▁paid	-10318
▁pans	-10319
▁path	-10320
▁pomm	-10321
▁reve	-10322
Voyons	-10323
accent	-10324
actere	-10325
années	-10326
elaine	-10327
empire	-10328
offrir	-10329
otions	-10330
relles	-10331
▁Quels	-10332
▁carry	-10333
▁chron	-10334
▁dilig	-10335
▁durer	-10336
▁dépôt	-10337
▁escal	-10338
▁faces	-10339
▁loups	-10340
▁oeufs	-10341
▁union	-10342
▁verte	-10343
▁white	-10344
▁évent	-10345
reintes	-10346
urément	-10347
▁Aucune	-10348
▁bassin	-10349
▁caught	-10350
▁coeurs	-10351
▁courus	-10352
▁durent	-10353
▁dépour	-10354
▁emploi	-10355
▁exacte	-10356
▁failli	-10357
▁folies	-10358
▁forcer	-10359
▁marais	-10360
▁patrie	-10361
▁posait	-10362
▁souver	-10363
▁tender	-10364
▁timide	-10365
▁transm	-10366
ancèrent	-10367
angerson	-10368
▁appelée	-10369
▁brother	-10370
▁cloître	-10371
▁comédie	-10372
▁doutais	-10373
▁dresser	-10374
▁défendu	-10375
▁exploit	-10376
▁impuiss	-10377
▁manches	-10378
▁occuper	-10379
▁ouvrant	-10380
▁paquets	-10381
▁parvenu	-10382
▁prévenu	-10383
▁voyages	-10384
▁étudier	-10385
apparence	-10386
▁Delouche	-10387
▁François	-10388
▁couchant	-10389
▁criaient	-10390
▁lointain	-10391
▁occurred	-10392
▁pleurant	-10393
▁rapports	-10394
▁retomber	-10395
▁tournure	-10396
▁écrivait	-10397
expérience	-10398
▁Coppenole	-10399
▁beginning	-10400
▁caractere	-10401
▁découvris	-10402
▁exclaimed	-10403
▁indiquait	-10404
▁palissade	-10405
▁poursuite	-10406
▁précipité	-10407
▁conducteur	-10408
▁conseiller	-10409
▁contenance	-10410
▁convaincre	-10411
▁harponneur	-10412
▁hésitation	-10413
▁simplicité	-10414
▁solidement	-10415
▁sincèrement	-10416
▁spectateurs	-10417
▁étrangement	-10418
▁descendirent	-10419
▁épouvantable	-10420
▁désappointement	-10421
Ag	-10422
ts	-10423
Mes	-10424
aér	-10425
obt	-10426
rum	-10427
▁11	-10428
▁30	-10429
▁MM	-10430
▁Sh	-10431
▁wr	-10432
amie	-10433
gate	-10434
okoh	-10435
omot	-10436
pied	-10437
rité	-10438
égul	-10439
▁--,	-10440
▁Ess	-10441
▁Fri	-10442
▁Har	-10443
▁def	-10444
Hôtel	-10445
arted	-10446
ietta	-10447
urais	-10448
▁Boul	-10449
▁Suis	-10450
▁Vand	-10451
▁aboi	-10452
▁bare	-10453
▁bate	-10454
▁bisc	-10455
▁bous	-10456
▁dort	-10457
▁guid	-10458
▁harn	-10459
▁lake	-10460
▁nier	-10461
▁ours	-10462
▁roid	-10463
▁save	-10464
▁shut	-10465
▁spee	-10466
▁twel	-10467
▁vice	-10468
andais	-10469
auteur	-10470
espere	-10471
ifères	-10472
ighted	-10473
introd	-10474
istres	-10475
ranera	-10476
▁Fland	-10477
▁Yokoh	-10478
▁actes	-10479
▁apart	-10480
▁bouts	-10481
▁chêne	-10482
▁escap	-10483
▁faith	-10484
▁fanal	-10485
▁fauss	-10486
▁flung	-10487
▁gagne	-10488
▁horiz	-10489
▁lente	-10490
▁malle	-10491
▁moral	-10492
▁poêle	-10493
▁règne	-10494
▁subir	-10495
▁tried	-10496
▁égale	-10497
anément	-10498
appliqu	-10499
environ	-10500
ouragan	-10501
▁centim	-10502
▁cochon	-10503
▁heaven	-10504
▁hersch	-10505
▁ladies	-10506
▁necess	-10507
▁opposé	-10508
▁percer	-10509
▁ramena	-10510
▁refuse	-10511
▁reprod	-10512
▁rouler	-10513
▁réelle	-10514
▁sonore	-10515
▁tribun	-10516
▁trésor	-10517
▁étages	-10518
arracher	-10519
empecher	-10520
examiner	-10521
ippolyte	-10522
occupait	-10523
▁Liberal	-10524
▁Quoique	-10525
▁arrived	-10526
▁charité	-10527
▁contenu	-10528
▁excuses	-10529
▁faisons	-10530
▁habitué	-10531
▁juillet	-10532
▁panneau	-10533
▁rivages	-10534
▁serrure	-10535
▁soirées	-10536
▁solides	-10537
▁suspect	-10538
▁Marietta	-10539
▁Yokohama	-10540
▁couronne	-10541
▁danseuse	-10542
▁disposée	-10543
▁délicate	-10544
▁inutiles	-10545
▁mensonge	-10546
▁plancher	-10547
▁rassembl	-10548
▁terrains	-10549
▁élégante	-10550
▁Pierronne	-10551
▁cimetière	-10552
▁contenter	-10553
▁descendis	-10554
▁feuillage	-10555
▁française	-10556
▁ignorance	-10557
▁mettaient	-10558
▁populaire	-10559
▁promenant	-10560
▁ressource	-10561
▁Pietranera	-10562
▁Stangerson	-10563
▁dangereuse	-10564
▁entreprise	-10565
▁imprudence	-10566
▁proportion	-10567
▁silhouette	-10568
▁distraction	-10569
▁tempérament	-10570
▁merveilleuse	-10571
▁stupéfaction	-10572
We	-10573
xc	-10574
ata	-10575
hue	-10576
ink	-10577
tam	-10578
ompr	-10579
oyed	-10580
reen	-10581
sile	-10582
urai	-10583
État	-10584
ésie	-10585
▁Dom	-10586
▁Don	-10587
▁rét	-10588
▁sér	-10589
▁tra	-10590
▁véh	-10591
Parce	-10592
achev	-10593
amant	-10594
anque	-10595
assad	-10596
knuss	-10597
risie	-10598
▁Fitz	-10599
▁Pouv	-10600
▁flac	-10601
▁forç	-10602
▁goél	-10603
▁gren	-10604
▁lion	-10605
▁lits	-10606
▁live	-10607
▁paie	-10608
▁rech	-10609
▁rocs	-10610
▁rond	-10611
▁sill	-10612
▁surg	-10613
▁tach	-10614
▁term	-10615
▁wild	-10616
▁wret	-10617
Aramis	-10618
ageant	-10619
assées	-10620
enfuit	-10621
office	-10622
regson	-10623
▁Vingt	-10624
▁aient	-10625
▁amies	-10626
▁brute	-10627
▁cohue	-10628
▁câble	-10629
▁draps	-10630
▁dénou	-10631
▁désol	-10632
▁exige	-10633
▁fière	-10634
▁gazon	-10635
▁gener	-10636
▁laide	-10637
▁moust	-10638
▁métal	-10639
▁niais	-10640
▁offer	-10641
▁plage	-10642
▁pompe	-10643
▁produ	-10644
▁prosp	-10645
▁raide	-10646
▁range	-10647
▁reach	-10648
▁selle	-10649
▁sieur	-10650
▁soirs	-10651
▁start	-10652
▁volet	-10653
attends	-10654
engagea	-10655
offrait	-10656
▁Demain	-10657
▁Duncan	-10658
▁absent	-10659
▁aupres	-10660
▁cachot	-10661
▁capric	-10662
▁castle	-10663
▁démont	-10664
▁fracas	-10665
▁hangar	-10666
▁mariés	-10667
▁massac	-10668
▁menait	-10669
▁pilote	-10670
▁privil	-10671
▁relevé	-10672
▁retire	-10673
▁régler	-10674
▁tricot	-10675
▁twelve	-10676
▁écouté	-10677
▁épuisé	-10678
envelopp	-10679
possible	-10680
étonnait	-10681
▁Jupiter	-10682
▁Rosings	-10683
▁Saknuss	-10684
▁allowed	-10685
▁annoncé	-10686
▁apporta	-10687
▁bateaux	-10688
▁believe	-10689
▁bouquet	-10690
▁chaudes	-10691
▁chaînes	-10692
▁courtis	-10693
▁déplais	-10694
▁finally	-10695
▁grenier	-10696
▁liqueur	-10697
▁observé	-10698
▁revenue	-10699
▁révéler	-10700
▁serment	-10701
▁society	-10702
▁troupes	-10703
▁témoins	-10704
▁vaincre	-10705
▁éclater	-10706
ification	-10707
inquiéter	-10708
▁angoisse	-10709
▁bouquets	-10710
▁chantait	-10711
▁conclure	-10712
▁coquille	-10713
▁espagnol	-10714
▁everyone	-10715
▁extravag	-10716
▁hauteurs	-10717
▁inconnus	-10718
▁parcouru	-10719
▁refusait	-10720
▁sergents	-10721
▁signifie	-10722
▁éclatant	-10723
▁appareils	-10724
▁blessures	-10725
▁entretien	-10726
▁permettez	-10727
▁persuadée	-10728
▁sonnaient	-10729
▁cantinière	-10730
▁commençais	-10731
▁croissante	-10732
▁jouissance	-10733
▁ordinaires	-10734
▁redoutable	-10735
▁retournait	-10736
▁considérait	-10737
▁rencontrait	-10738
▁électriques	-10739
▁gigantesques	-10740
▁considérables	-10741
DI	-10742
UR	-10743
ls	-10744
zz	-10745
Moi	-10746
loc	-10747
▁hy	-10748
Bien	-10749
auve	-10750
ited	-10751
ples	-10752
uité	-10753
érif	-10754
▁186	-10755
▁Déc	-10756
▁aqu	-10757
▁fie	-10758
▁rag	-10759
▁tow	-10760
▁why	-10761
aurez	-10762
beaux	-10763
excès	-10764
inait	-10765
offre	-10766
ondez	-10767
ourir	-10768
terie	-10769
uring	-10770
▁Hope	-10771
▁Jeff	-10772
▁bene	-10773
▁boud	-10774
▁dira	-10775
▁flét	-10776
▁lave	-10777
▁mare	-10778
▁mart	-10779
▁pots	-10780
▁purs	-10781
▁vitr	-10782
Madame	-10783
accept	-10784
arrond	-10785
erturb	-10786
ilités	-10787
ouvris	-10788
rlande	-10789
énorme	-10790
▁Betty	-10791
▁Binet	-10792
▁Félic	-10793
▁châle	-10794
▁creek	-10795
▁dormi	-10796
▁fixes	-10797
▁forge	-10798
▁fresh	-10799
▁glacé	-10800
▁gouff	-10801
▁obéit	-10802
▁probl	-10803
▁révér	-10804
▁satin	-10805
▁singe	-10806
▁sécur	-10807
actions	-10808
aissant	-10809
extrême	-10810
ophytes	-10811
origine	-10812
échappa	-10813
▁Bright	-10814
▁bailli	-10815
▁beside	-10816
▁brouss	-10817
▁dignes	-10818
▁déchar	-10819
▁fautes	-10820
▁feriez	-10821
▁opport	-10822
▁porion	-10823
▁prouve	-10824
▁rabatt	-10825
▁savent	-10826
▁teinte	-10827
▁tendue	-10828
▁tâcher	-10829
▁évêque	-10830
apporter	-10831
arrivait	-10832
endormir	-10833
ichambre	-10834
observer	-10835
▁CHAPTER	-10836
▁Silence	-10837
▁appuyée	-10838
▁asseoir	-10839
▁bouscul	-10840
▁classes	-10841
▁croisés	-10842
▁destiné	-10843
▁deviend	-10844
▁dizaine	-10845
▁flèches	-10846
▁joindre	-10847
▁liaison	-10848
▁méthode	-10849
▁parquet	-10850
▁peindre	-10851
▁rentrai	-10852
▁résolue	-10853
▁serrées	-10854
▁souffre	-10855
▁spectre	-10856
▁spiritu	-10857
▁torches	-10858
▁vivants	-10859
élevaient	-10860
▁Duchesse	-10861
▁allèrent	-10862
▁conservé	-10863
▁convives	-10864
▁desquels	-10865
▁duchesse	-10866
▁entières	-10867
▁habitait	-10868
▁inquiète	-10869
▁ouvrages	-10870
▁penchait	-10871
▁relevait	-10872
▁souffler	-10873
▁troublée	-10874
auparavant	-10875
entretenir	-10876
▁Jefferson	-10877
▁châtiment	-10878
▁condamnée	-10879
▁constater	-10880
▁délicieux	-10881
▁excessive	-10882
▁marchands	-10883
▁moustache	-10884
▁promettre	-10885
▁recouvert	-10886
▁sortaient	-10887
▁suspendue	-10888
▁vestibule	-10889
▁continents	-10890
▁discrétion	-10891
▁désespérée	-10892
▁générosité	-10893
▁montraient	-10894
▁prétendait	-10895
▁délicatesse	-10896
▁intelligent	-10897
▁prodigieuse	-10898
▁promontoire	-10899
▁Mademoiselle	-10900
▁indispensable	-10901
DE	-10902
Où	-10903
gy	-10904
alm	-10905
und	-10906
.--«	-10907
Club	-10908
This	-10909
isés	-10910
medi	-10911
mond	-10912
osez	-10913
umed	-10914
umul	-10915
▁Dev	-10916
▁Dou	-10917
▁Oak	-10918
▁asp	-10919
▁bah	-10920
▁cic	-10921
▁jac	-10922
▁won	-10923
auves	-10924
encre	-10925
liers	-10926
élarg	-10927
înmes	-10928
▁Laqu	-10929
▁aisé	-10930
▁boat	-10931
▁born	-10932
▁clai	-10933
▁cray	-10934
▁fuss	-10935
▁gold	-10936
▁gras	-10937
▁grel	-10938
▁inév	-10939
▁mors	-10940
▁prél	-10941
▁sett	-10942
▁sons	-10943
▁stay	-10944
▁tins	-10945
▁trép	-10946
excell	-10947
iation	-10948
oiseau	-10949
oisses	-10950
oliers	-10951
veille	-10952
▁Bible	-10953
▁Japon	-10954
▁cacha	-10955
▁cadet	-10956
▁cloth	-10957
▁crisp	-10958
▁doing	-10959
▁essuy	-10960
▁fight	-10961
▁fourm	-10962
▁fruit	-10963
▁gilet	-10964
▁hardi	-10965
▁inacc	-10966
▁jurer	-10967
▁lasse	-10968
▁lundi	-10969
▁parap	-10970
▁quick	-10971
▁ranim	-10972
▁remet	-10973
▁roule	-10974
▁state	-10975
▁stone	-10976
▁whist	-10977
▁échev	-10978
▁égoïs	-10979
aillant	-10980
emparer	-10981
empress	-10982
engager	-10983
essayai	-10984
isphère	-10985
quement	-10986
Étienne	-10987
▁Virgin	-10988
▁ardeur	-10989
▁avance	-10990
▁bouger	-10991
▁causes	-10992
▁coudes	-10993
▁câbles	-10994
▁dévoré	-10995
▁fascin	-10996
▁favori	-10997
▁filets	-10998
▁habile	-10999
▁imprév	-11000
▁incont	-11001
▁insult	-11002
▁murder	-11003
▁oblige	-11004
▁peines	-11005
▁pilori	-11006
▁plante	-11007
▁préven	-11008
▁rumeur	-11009
▁scient	-11010
▁soumis	-11011
ageaient	-11012
arrêtant	-11013
▁Gregson	-11014
▁Rouault	-11015
▁attaque	-11016
▁besides	-11017
▁cessait	-11018
▁comptes	-11019
▁dégager	-11020
▁désirez	-11021
▁fiancée	-11022
▁figurer	-11023
▁flatter	-11024
▁piliers	-11025
▁portier	-11026
▁raconte	-11027
▁restera	-11028
▁revenus	-11029
▁réussit	-11030
▁stupide	-11031
▁écoutez	-11032
enfonçait	-11033
éprouvais	-11034
▁Brighton	-11035
▁Yonville	-11036
▁approche	-11037
▁bienfait	-11038
▁capables	-11039
▁chapeaux	-11040
▁colonnes	-11041
▁corporal	-11042
▁criminel	-11043
▁donnerai	-11044
▁entendez	-11045
▁essayait	-11046
▁installé	-11047
▁méridien	-11048
▁naufragé	-11049
▁repartit	-11050
▁richesse	-11051
▁répétant	-11052
▁sécurité	-11053
▁voisines	-11054
▁étroites	-11055
approchant	-11056
▁amoureuse	-11057
▁casquette	-11058
▁cavaliers	-11059
▁militaire	-11060
▁parcourir	-11061
▁préparait	-11062
▁reviendra	-11063
▁secousses	-11064
▁shillings	-11065
▁contrefort	-11066
▁extérieure	-11067
▁friendship	-11068
▁poussaient	-11069
▁ressources	-11070
▁saisissant	-11071
▁sentinelle	-11072
▁tapisserie	-11073
▁transporté	-11074
▁Évidemment	-11075
▁communiquer	-11076
▁magnificent	-11077
▁méridionale	-11078
▁compromettre	-11079
▁bienveillance	-11080
▁connaissaient	-11081
▁vigoureusement	-11082
US	-11083
END	-11084
acy	-11085
cie	-11086
hus	-11087
raw	-11088
raü	-11089
uif	-11090
▁Dj	-11091
▁Ré	-11092
▁cé	-11093
▁om	-11094
▁râ	-11095
▁zo	-11096
cade	-11097
cted	-11098
etés	-11099
ilip	-11100
lisa	-11101
nese	-11102
oyée	-11103
tère	-11104
ugit	-11105
uiss	-11106
urez	-11107
èmes	-11108
ébre	-11109
érés	-11110
▁Bob	-11111
▁Mir	-11112
▁Tur	-11113
▁ger	-11114
▁hom	-11115
▁nou	-11116
▁sag	-11117
▁tar	-11118
▁tun	-11119
allez	-11120
endie	-11121
image	-11122
ipath	-11123
journ	-11124
onstr	-11125
ourdi	-11126
river	-11127
▁Cast	-11128
▁Déja	-11129
▁aunt	-11130
▁bapt	-11131
▁chen	-11132
▁dipl	-11133
▁fair	-11134
▁fins	-11135
▁fixa	-11136
▁frip	-11137
▁gaie	-11138
▁irré	-11139
▁jeux	-11140
▁prec	-11141
▁réal	-11142
▁tôle	-11143
▁view	-11144
ageuse	-11145
effort	-11146
ormous	-11147
raüben	-11148
zaines	-11149
▁James	-11150
▁Stone	-11151
▁These	-11152
▁comes	-11153
▁corbe	-11154
▁cross	-11155
▁enemy	-11156
▁field	-11157
▁foret	-11158
▁franc	-11159
▁fugit	-11160
▁guise	-11161
▁knows	-11162
▁mines	-11163
▁mêler	-11164
▁piège	-11165
▁ponts	-11166
▁pouce	-11167
▁rompu	-11168
▁ronfl	-11169
▁third	-11170
▁tirai	-11171
approuv	-11172
automne	-11173
énergie	-11174
▁anéant	-11175
▁auront	-11176
▁author	-11177
▁battit	-11178
▁bijoux	-11179
▁bridge	-11180
▁brumes	-11181
▁carref	-11182
▁chapel	-11183
▁coupés	-11184
▁flèche	-11185
▁gaoler	-11186
▁guérir	-11187
▁haussa	-11188
▁membre	-11189
▁mineur	-11190
▁motifs	-11191
▁others	-11192
▁placed	-11193
▁prompt	-11194
▁pénétr	-11195
▁referm	-11196
▁remède	-11197
▁respir	-11198
▁subite	-11199
▁temple	-11200
▁tiroir	-11201
▁tortue	-11202
▁venues	-11203
▁écouta	-11204
▁Farnese	-11205
▁Justice	-11206
▁Maigrat	-11207
▁Sablonn	-11208
▁absolue	-11209
▁absurde	-11210
▁arriere	-11211
▁arrêtés	-11212
▁auberge	-11213
▁causant	-11214
▁conduct	-11215
▁couvrir	-11216
▁examina	-11217
▁feeling	-11218
▁forment	-11219
▁frayeur	-11220
▁infinie	-11221
▁innombr	-11222
▁insouci	-11223
▁lunette	-11224
▁moisson	-11225
▁obligés	-11226
▁pelouse	-11227
▁plonger	-11228
▁remonte	-11229
assurance	-11230
faitement	-11231
seulement	-11232
▁Félicité	-11233
▁Napoleon	-11234
▁achevait	-11235
▁approché	-11236
▁attendez	-11237
▁bougeait	-11238
▁détacher	-11239
▁enormous	-11240
▁faubourg	-11241
▁glissant	-11242
▁gracieux	-11243
▁lunettes	-11244
▁messager	-11245
▁méchante	-11246
▁naturels	-11247
▁produite	-11248
▁rappelai	-11249
▁repoussa	-11250
▁retenait	-11251
▁retrouve	-11252
▁revanche	-11253
▁sorcière	-11254
▁thoughts	-11255
apercevait	-11256
▁arguments	-11257
▁commander	-11258
▁disposées	-11259
▁munitions	-11260
▁splendide	-11261
▁vetements	-11262
▁Saknussemm	-11263
▁appartient	-11264
▁produisait	-11265
▁proprement	-11266
▁préférence	-11267
▁tendrement	-11268
▁inutilement	-11269
▁supériorité	-11270
▁Sablonnières	-11271
▁commandement	-11272
▁convenablement	-11273
AT	-11274
Pr	-11275
yn	-11276
fre	-11277
hôt	-11278
ket	-11279
Jean	-11280
agut	-11281
fran	-11282
oict	-11283
oter	-11284
tead	-11285
verb	-11286
▁***	-11287
▁---	-11288
▁Gon	-11289
▁Gri	-11290
▁Ter	-11291
▁die	-11292
▁fic	-11293
▁flâ	-11294
▁ful	-11295
▁lus	-11296
▁rau	-11297
▁rup	-11298
▁tiè	-11299
Quand	-11300
adier	-11301
assey	-11302
bonne	-11303
ennes	-11304
estim	-11305
locut	-11306
uffis	-11307
uries	-11308
élect	-11309
▁Como	-11310
▁Farr	-11311
▁dite	-11312
▁doré	-11313
▁held	-11314
▁imag	-11315
▁limp	-11316
▁mène	-11317
▁nomm	-11318
▁symb	-11319
▁tais	-11320
▁vant	-11321
accabl	-11322
apperç	-11323
dedans	-11324
ifices	-11325
iforme	-11326
itoire	-11327
ustens	-11328
érance	-11329
études	-11330
▁Ayant	-11331
▁Coict	-11332
▁Friar	-11333
▁Roddy	-11334
▁biere	-11335
▁brûlé	-11336
▁chats	-11337
▁combl	-11338
▁coupa	-11339
▁ennui	-11340
▁exalt	-11341
▁greff	-11342
▁jugea	-11343
▁lapin	-11344
▁sport	-11345
▁terme	-11346
▁épars	-11347
arrêtai	-11348
iemment	-11349
olution	-11350
vantage	-11351
▁Craven	-11352
▁acquis	-11353
▁combin	-11354
▁confié	-11355
▁divert	-11356
▁désiré	-11357
▁gisait	-11358
▁highly	-11359
▁invité	-11360
▁killed	-11361
▁lâcher	-11362
▁légers	-11363
▁presse	-11364
▁pretty	-11365
▁ranger	-11366
▁reding	-11367
▁revers	-11368
▁singes	-11369
▁sought	-11370
▁sécher	-11371
▁échoué	-11372
▁écoute	-11373
▁épousé	-11374
ambition	-11375
ancement	-11376
instinct	-11377
onçaient	-11378
élégance	-11379
▁accepta	-11380
▁balustr	-11381
▁briller	-11382
▁civilis	-11383
▁donnera	-11384
▁dépassé	-11385
▁enlevée	-11386
▁evident	-11387
▁fournit	-11388
▁graisse	-11389
▁guinées	-11390
▁insista	-11391
▁irrégul	-11392
▁monnaie	-11393
▁occupés	-11394
▁outside	-11395
▁parisis	-11396
▁rangées	-11397
▁réservé	-11398
▁sources	-11399
▁étendit	-11400
▁éternel	-11401
accomplir	-11402
reusement	-11403
épaisseur	-11404
▁Coictier	-11405
▁Farragut	-11406
▁cadavres	-11407
▁centrale	-11408
▁couchait	-11409
▁horizont	-11410
▁paroisse	-11411
▁passants	-11412
▁posséder	-11413
▁prennent	-11414
▁prononça	-11415
▁provinci	-11416
▁présenté	-11417
▁pêcheurs	-11418
▁repeated	-11419
▁réfugier	-11420
▁singular	-11421
▁suddenly	-11422
▁écoutant	-11423
▁épaisses	-11424
arrêtèrent	-11425
ustensiles	-11426
▁accomplir	-11427
▁anciennes	-11428
▁continued	-11429
▁dépassait	-11430
▁entraîner	-11431
▁lointains	-11432
▁pharmacie	-11433
▁précieuse	-11434
▁raccommod	-11435
▁sérieuses	-11436
observation	-11437
▁appearance	-11438
▁promettait	-11439
▁renouveler	-11440
▁rougissant	-11441
▁timidement	-11442
▁charpentier	-11443
▁confortable	-11444
▁confusément	-11445
▁couvertures	-11446
▁résignation	-11447
▁paisiblement	-11448
▁travailleurs	-11449
▁reconnaissait	-11450
My	-11451
RA	-11452
bs	-11453
▁Ô	-11454
for	-11455
fou	-11456
rog	-11457
vén	-11458
▁21	-11459
▁bû	-11460
Alle	-11461
Quel	-11462
aert	-11463
amar	-11464
anne	-11465
aube	-11466
chev	-11467
igné	-11468
iral	-11469
opes	-11470
pour	-11471
uies	-11472
vois	-11473
▁Cay	-11474
▁Mis	-11475
▁Nan	-11476
▁VII	-11477
▁nac	-11478
▁nèg	-11479
▁pul	-11480
▁rat	-11481
▁try	-11482
▁vex	-11483
▁âgé	-11484
alter	-11485
appui	-11486
ested	-11487
iquée	-11488
ities	-11489
énétr	-11490
▁Cham	-11491
▁Fort	-11492
▁Hors	-11493
▁Part	-11494
▁Soud	-11495
▁amer	-11496
▁barr	-11497
▁cerc	-11498
▁lips	-11499
▁noct	-11500
▁ramp	-11501
▁secs	-11502
▁semé	-11503
▁vifs	-11504
▁îlot	-11505
▁ôter	-11506
aisons	-11507
avocat	-11508
ilippe	-11509
offrit	-11510
ologue	-11511
ribles	-11512
tamira	-11513
éphant	-11514
étrang	-11515
▁Djali	-11516
▁Gonzo	-11517
▁Hurst	-11518
▁cages	-11519
▁climb	-11520
▁exemp	-11521
▁goutt	-11522
▁hâter	-11523
▁héroï	-11524
▁intol	-11525
▁labor	-11526
▁laver	-11527
▁meubl	-11528
▁miens	-11529
▁milit	-11530
▁plaid	-11531
▁reçue	-11532
▁rives	-11533
▁sitôt	-11534
▁vendu	-11535
ajouter	-11536
estomac	-11537
vénient	-11538
▁Reform	-11539
▁abattu	-11540
▁absurd	-11541
▁arrest	-11542
▁assoup	-11543
▁buffet	-11544
▁circum	-11545
▁cétacé	-11546
▁envoie	-11547
▁essent	-11548
▁foudre	-11549
▁gamins	-11550
▁garnie	-11551
▁hardly	-11552
▁invari	-11553
▁manusc	-11554
▁mettez	-11555
▁mobile	-11556
▁numéro	-11557
▁partez	-11558
▁penché	-11559
▁pendue	-11560
▁pieces	-11561
▁pleura	-11562
▁primit	-11563
▁pétrif	-11564
▁rubans	-11565
▁semblé	-11566
▁songez	-11567
▁spirit	-11568
▁strong	-11569
▁sépare	-11570
oureuses	-11571
éteignit	-11572
▁Aujourd	-11573
▁Gautier	-11574
▁Puisque	-11575
▁apprend	-11576
▁appétit	-11577
▁attirer	-11578
▁courtes	-11579
▁creuser	-11580
▁devriez	-11581
▁décharg	-11582
▁fameuse	-11583
▁leagues	-11584
▁majesté	-11585
▁nommait	-11586
▁promise	-11587
▁regrets	-11588
▁regrett	-11589
▁sonneur	-11590
▁stopped	-11591
▁talents	-11592
▁volumes	-11593
▁vouliez	-11594
aventurer	-11595
ternation	-11596
▁Augustin	-11597
▁Dansaert	-11598
▁Espagnol	-11599
▁Virginie	-11600
▁activité	-11601
▁avançait	-11602
▁balbutia	-11603
▁défiance	-11604
▁exécuter	-11605
▁félicité	-11606
▁illusion	-11607
▁jetaient	-11608
▁mendiant	-11609
▁mettrait	-11610
▁monotone	-11611
▁opposite	-11612
▁plaintes	-11613
▁prairies	-11614
▁redouter	-11615
▁trompait	-11616
▁vaudrait	-11617
▁angoisses	-11618
▁contraste	-11619
▁distingué	-11620
▁donnèrent	-11621
▁entrèrent	-11622
▁gracieuse	-11623
▁magistrat	-11624
▁murmurait	-11625
▁mâchoires	-11626
▁nageoires	-11627
▁quartiers	-11628
▁rendaient	-11629
▁trouvâmes	-11630
▁Impossible	-11631
▁aucunement	-11632
▁comprenant	-11633
▁cuisinière	-11634
▁naturelles	-11635
▁renfermait	-11636
enthousiasme	-11637
▁confidences	-11638
▁disparition	-11639
▁inclination	-11640
▁reviendrait	-11641
▁recommandation	-11642
3,	-11643
TRE	-11644
aha	-11645
cir	-11646
lyc	-11647
uai	-11648
yez	-11649
▁gê	-11650
▁og	-11651
Bart	-11652
Tout	-11653
anth	-11654
arts	-11655
auph	-11656
chet	-11657
diff	-11658
hood	-11659
omét	-11660
utta	-11661
œurs	-11662
▁DES	-11663
▁Fal	-11664
▁Now	-11665
▁Vic	-11666
▁dep	-11667
▁due	-11668
▁dût	-11669
▁idé	-11670
▁rôd	-11671
apais	-11672
autel	-11673
elage	-11674
elant	-11675
enfin	-11676
enter	-11677
geant	-11678
iches	-11679
iquez	-11680
tiful	-11681
uelle	-11682
élité	-11683
érant	-11684
▁Calc	-11685
▁Dire	-11686
▁Mong	-11687
▁abri	-11688
▁arre	-11689
▁bank	-11690
▁bann	-11691
▁dism	-11692
▁empe	-11693
▁fail	-11694
▁jugé	-11695
▁maid	-11696
▁narr	-11697
▁nine	-11698
▁qual	-11699
▁song	-11700
▁step	-11701
▁ster	-11702
assura	-11703
atever	-11704
douard	-11705
ernité	-11706
exécut	-11707
ignons	-11708
iously	-11709
orient	-11710
otique	-11711
resses	-11712
▁Every	-11713
▁Fitzw	-11714
▁Gates	-11715
▁bourb	-11716
▁bride	-11717
▁conce	-11718
▁encad	-11719
▁furie	-11720
▁gelée	-11721
▁géant	-11722
▁lieue	-11723
▁liste	-11724
▁niece	-11725
▁nourr	-11726
▁pause	-11727
▁pâlit	-11728
▁ripos	-11729
▁rooms	-11730
▁seems	-11731
▁sotte	-11732
▁story	-11733
▁sympt	-11734
▁vente	-11735
▁vérif	-11736
Afrique	-11737
Islande	-11738
chement	-11739
escence	-11740
ivresse	-11741
ouiller	-11742
▁Alzire	-11743
▁Justin	-11744
▁absolu	-11745
▁advice	-11746
▁afflig	-11747
▁barely	-11748
▁betray	-11749
▁cauche	-11750
▁chocol	-11751
▁clairs	-11752
▁collèg	-11753
▁crique	-11754
▁dureté	-11755
▁effroi	-11756
▁enthus	-11757
▁entrev	-11758
▁examen	-11759
▁family	-11760
▁fâchée	-11761
▁glance	-11762
▁glissé	-11763
▁jument	-11764
▁livide	-11765
▁mandat	-11766
▁manqua	-11767
▁modest	-11768
▁montée	-11769
▁mourut	-11770
▁mousse	-11771
▁métall	-11772
▁négoci	-11773
▁paress	-11774
▁réveil	-11775
▁seized	-11776
▁surviv	-11777
▁vierge	-11778
embrassa	-11779
ensemble	-11780
oulement	-11781
▁Estelle	-11782
▁Soudain	-11783
▁admirer	-11784
▁adressa	-11785
▁central	-11786
▁conform	-11787
▁coupait	-11788
▁cravate	-11789
▁discipl	-11790
▁dérange	-11791
▁entiere	-11792
▁express	-11793
▁favoris	-11794
▁gouffre	-11795
▁lenteur	-11796
▁lumiere	-11797
▁méprise	-11798
▁plaques	-11799
▁relâche	-11800
▁retenue	-11801
▁soupira	-11802
▁torture	-11803
▁trouvés	-11804
▁éclairé	-11805
ongeaient	-11806
éducation	-11807
événement	-11808
▁audience	-11809
▁communic	-11810
▁complice	-11811
▁constitu	-11812
▁détourna	-11813
▁endormie	-11814
▁entrevue	-11815
▁envoyait	-11816
▁facilité	-11817
▁interrog	-11818
▁lumières	-11819
▁persécut	-11820
▁rapporté	-11821
▁reposait	-11822
▁retentit	-11823
▁réchauff	-11824
▁servants	-11825
▁soudaine	-11826
▁tableaux	-11827
▁terminer	-11828
▁traînant	-11829
▁uniforme	-11830
▁étreinte	-11831
▁Gateshead	-11832
▁accoutumé	-11833
▁emportait	-11834
▁enveloppé	-11835
▁honorable	-11836
▁lanternes	-11837
▁necessary	-11838
▁observait	-11839
▁parlement	-11840
▁pourpoint	-11841
▁préférait	-11842
▁puissants	-11843
▁rappelant	-11844
▁remettait	-11845
▁remontant	-11846
▁reprenant	-11847
▁reprirent	-11848
▁retombait	-11849
▁soulevait	-11850
▁apparaître	-11851
▁atmosphère	-11852
▁augmentait	-11853
▁constables	-11854
▁difficiles	-11855
▁discovered	-11856
▁détonation	-11857
▁laissèrent	-11858
▁religieuse	-11859
▁traversant	-11860
▁Fitzwilliam	-11861
▁exclamation	-11862
▁exploration	-11863
▁impressions	-11864
▁intéressant	-11865
▁charbonniers	-11866
▁ressemblaient	-11867
Re	-11868
VE	-11869
Aug	-11870
ics	-11871
jug	-11872
oop	-11873
▁12	-11874
▁25	-11875
▁EN	-11876
▁az	-11877
Quoi	-11878
affl	-11879
alth	-11880
anda	-11881
atin	-11882
enar	-11883
inth	-11884
lieu	-11885
oila	-11886
olia	-11887
oved	-11888
tere	-11889
éfin	-11890
ôles	-11891
ôpit	-11892
▁--«	-11893
▁Lén	-11894
▁XXV	-11895
▁aug	-11896
▁bab	-11897
▁pyr	-11898
▁top	-11899
.....	-11900
acule	-11901
comme	-11902
ering	-11903
frère	-11904
hypoc	-11905
irond	-11906
ièmes	-11907
naire	-11908
oseph	-11909
ostat	-11910
reurs	-11911
tions	-11912
where	-11913
érine	-11914
▁From	-11915
▁Lapp	-11916
▁Volt	-11917
▁abus	-11918
▁both	-11919
▁cogn	-11920
▁crue	-11921
▁dieu	-11922
▁foug	-11923
▁grin	-11924
▁inég	-11925
▁news	-11926
▁noeu	-11927
▁nues	-11928
▁rall	-11929
▁reli	-11930
▁rept	-11931
▁sols	-11932
▁tiss	-11933
▁zèle	-11934
endues	-11935
illées	-11936
though	-11937
écorce	-11938
écoula	-11939
épanou	-11940
▁Brulé	-11941
▁Songe	-11942
▁amère	-11943
▁arret	-11944
▁baisa	-11945
▁burst	-11946
▁cordi	-11947
▁durée	-11948
▁fauve	-11949
▁filer	-11950
▁imper	-11951
▁jolis	-11952
▁marié	-11953
▁mouss	-11954
▁paill	-11955
▁reply	-11956
▁ruiné	-11957
▁scene	-11958
▁stair	-11959
▁tenta	-11960
▁therm	-11961
▁voies	-11962
▁égypt	-11963
ancholy	-11964
animaux	-11965
essayer	-11966
idément	-11967
ilomene	-11968
oquence	-11969
ouvrier	-11970
▁Banque	-11971
▁Contin	-11972
▁Diable	-11973
▁Glenar	-11974
▁Lénore	-11975
▁Mouque	-11976
▁Nanine	-11977
▁States	-11978
▁Venise	-11979
▁creusé	-11980
▁désolé	-11981
▁either	-11982
▁europé	-11983
▁exprès	-11984
▁fausse	-11985
▁fondre	-11986
▁glaces	-11987
▁height	-11988
▁horror	-11989
▁hospit	-11990
▁incert	-11991
▁itself	-11992
▁living	-11993
▁modèle	-11994
▁opened	-11995
▁palpit	-11996
▁pressa	-11997
▁reflet	-11998
▁rêvait	-11999
▁scènes	-12000
▁serrée	-12001
▁single	-12002
▁soyons	-12003
▁tourne	-12004
▁vilain	-12005
▁élevés	-12006
attacher	-12007
exercice	-12008
habiller	-12009
position	-12010
épouvant	-12011
éteindre	-12012
▁accepté	-12013
▁bastion	-12014
▁bougies	-12015
▁charmes	-12016
▁charret	-12017
▁collier	-12018
▁contrad	-12019
▁cruauté	-12020
▁déclare	-12021
▁fermeté	-12022
▁honteux	-12023
▁intimes	-12024
▁lançait	-12025
▁paralys	-12026
▁passais	-12027
▁pourpre	-12028
▁prevent	-12029
▁rattach	-12030
▁recours	-12031
▁reprise	-12032
▁running	-12033
▁rupture	-12034
▁sergent	-12035
▁subject	-12036
▁tablier	-12037
▁théorie	-12038
▁trompez	-12039
▁éteinte	-12040
▁Altamira	-12041
▁Mongolia	-12042
▁bohémien	-12043
▁chrétien	-12044
▁contourn	-12045
▁dessiner	-12046
▁eussions	-12047
▁grossier	-12048
▁marquait	-12049
▁mercière	-12050
▁monument	-12051
▁médecine	-12052
▁opportun	-12053
▁pressait	-12054
▁ramasser	-12055
▁retourne	-12056
▁semblent	-12057
▁sonnette	-12058
▁sterling	-12059
▁trottoir	-12060
▁étonnant	-12061
▁éveillée	-12062
instrument	-12063
▁beautiful	-12064
▁cavalerie	-12065
▁effrayant	-12066
▁entrevoir	-12067
▁enveloppe	-12068
▁innocente	-12069
▁manuscrit	-12070
▁orgueille	-12071
▁pénétrant	-12072
▁travaille	-12073
antichambre	-12074
▁assurément	-12075
▁collection	-12076
▁confession	-12077
▁desquelles	-12078
▁difficulty	-12079
▁effrayante	-12080
▁gouvernail	-12081
▁interrompu	-12082
▁melancholy	-12083
▁objections	-12084
▁pleinement	-12085
▁récompense	-12086
▁adroitement	-12087
▁cherchaient	-12088
▁respectable	-12089
▁supposition	-12090
▁représentait	-12091
▁contemplation	-12092
▁extraordinaires	-12093
Op	-12094
oe	-12095
ANS	-12096
eks	-12097
jon	-12098
jud	-12099
oge	-12100
vie	-12101
éth	-12102
▁Ap	-12103
▁ho	-12104
acca	-12105
drew	-12106
ellé	-12107
illo	-12108
inté	-12109
look	-12110
olet	-12111
âces	-12112
çois	-12113
èver	-12114
▁Cal	-12115
▁Sal	-12116
▁ele	-12117
▁pac	-12118
▁pio	-12119
▁rab	-12120
▁raj	-12121
▁rez	-12122
▁rit	-12123
▁tac	-12124
Cette	-12125
Union	-12126
ammes	-12127
andre	-12128
chage	-12129
croft	-12130
eless	-12131
emmen	-12132
estig	-12133
iaire	-12134
inthe	-12135
itime	-12136
onyme	-12137
rures	-12138
verse	-12139
▁Anna	-12140
▁Flam	-12141
▁Rest	-12142
▁bomb	-12143
▁boré	-12144
▁coat	-12145
▁disg	-12146
▁gaze	-12147
▁intr	-12148
▁jura	-12149
▁pose	-12150
▁serp	-12151
▁Êtes	-12152
appréc	-12153
audace	-12154
estres	-12155
etimes	-12156
icules	-12157
ompréh	-12158
onfort	-12159
onnent	-12160
onsoir	-12161
étonna	-12162
▁aimez	-12163
▁bouge	-12164
▁brûle	-12165
▁cabri	-12166
▁cassé	-12167
▁chale	-12168
▁comté	-12169
▁direz	-12170
▁dunes	-12171
▁démes	-12172
▁enfou	-12173
▁haies	-12174
▁isolé	-12175
▁liens	-12176
▁minut	-12177
▁océan	-12178
▁perro	-12179
▁piqué	-12180
▁poils	-12181
▁signé	-12182
▁steps	-12183
▁tower	-12184
▁volat	-12185
▁éperd	-12186
appelai	-12187
uissier	-12188
▁Arrivé	-12189
▁Berthe	-12190
▁Bourgh	-12191
▁Caylus	-12192
▁Parlez	-12193
▁bornes	-12194
▁cabane	-12195
▁charmé	-12196
▁culbut	-12197
▁cultiv	-12198
▁déport	-12199
▁déshon	-12200
▁exposé	-12201
▁fright	-12202
▁immedi	-12203
▁incomp	-12204
▁interm	-12205
▁isolée	-12206
▁limite	-12207
▁mortel	-12208
▁obtint	-12209
▁paraly	-12210
▁pluies	-12211
▁posant	-12212
▁presqu	-12213
▁remous	-12214
▁resser	-12215
▁restes	-12216
▁rompit	-12217
▁rougir	-12218
▁simply	-12219
▁séparé	-12220
▁territ	-12221
▁valoir	-12222
▁venons	-12223
▁volets	-12224
attitude	-12225
lycérine	-12226
▁beneath	-12227
▁billard	-12228
▁combust	-12229
▁confuse	-12230
▁dossier	-12231
▁défauts	-12232
▁délices	-12233
▁détruit	-12234
▁examiné	-12235
▁faillit	-12236
▁froides	-12237
▁humides	-12238
▁informe	-12239
▁insensé	-12240
▁miséric	-12241
▁parlais	-12242
▁phoques	-12243
▁profita	-12244
▁promets	-12245
▁prévoir	-12246
▁recette	-12247
▁savions	-12248
▁surpren	-12249
▁uniform	-12250
▁vacarme	-12251
▁vigueur	-12252
▁voyager	-12253
▁windows	-12254
▁written	-12255
▁éprouva	-12256
▁Calcutta	-12257
▁Paquette	-12258
▁assiette	-12259
▁banquise	-12260
▁carrière	-12261
▁chapitre	-12262
▁contient	-12263
▁discover	-12264
▁délivrer	-12265
▁emportée	-12266
▁enfermée	-12267
▁entirely	-12268
▁fortunes	-12269
▁haussant	-12270
▁humaines	-12271
▁occupied	-12272
▁peinture	-12273
▁remarked	-12274
▁rendrait	-12275
▁secouait	-12276
▁thinking	-12277
▁violents	-12278
▁vêtement	-12279
▁Chevreuse	-12280
▁Glenarvan	-12281
▁Philomene	-12282
▁abondance	-12283
▁agréables	-12284
▁bravement	-12285
▁diligence	-12286
▁détourner	-12287
▁farouches	-12288
▁multitude	-12289
▁religieux	-12290
▁réconfort	-12291
▁répondant	-12292
▁troisieme	-12293
▁épouvante	-12294
▁épouvanté	-12295
explication	-12296
électricité	-12297
▁balustrade	-12298
▁charmantes	-12299
▁continuant	-12300
▁délicieuse	-12301
▁incroyable	-12302
▁signifiait	-12303
▁séparaient	-12304
heureusement	-12305
▁sensibilité	-12306
▁tremblaient	-12307
▁ressemblance	-12308
▁développement	-12309
,_	-12310
CE	-12311
Es	-12312
rn	-12313
».	-12314
aum	-12315
fle	-12316
▁Tw	-12317
▁UN	-12318
aken	-12319
amed	-12320
aîné	-12321
elés	-12322
fles	-12323
ipel	-12324
late	-12325
oble	-12326
ésus	-12327
▁Dis	-12328
▁Stu	-12329
▁ago	-12330
▁dot	-12331
▁geô	-12332
▁idi	-12333
▁kil	-12334
▁nap	-12335
▁égl	-12336
elson	-12337
entin	-12338
expéd	-12339
iscal	-12340
ranch	-12341
ulter	-12342
ushed	-12343
▁Chez	-12344
▁Hein	-12345
▁VIII	-12346
▁août	-12347
▁cale	-12348
▁cime	-12349
▁fers	-12350
▁gars	-12351
▁mamm	-12352
▁noce	-12353
▁norm	-12354
▁ravi	-12355
▁talk	-12356
▁type	-12357
empara	-12358
enille	-12359
icales	-12360
ierges	-12361
marine	-12362
utions	-12363
▁Autre	-12364
▁Belle	-12365
▁Croix	-12366
▁Telle	-12367
▁allég	-12368
▁anger	-12369
▁borne	-12370
▁brisa	-12371
▁conta	-12372
▁fichu	-12373
▁fonte	-12374
▁group	-12375
▁gueux	-12376
▁guéri	-12377
▁human	-12378
▁joies	-12379
▁laugh	-12380
▁lâcha	-12381
▁menaç	-12382
▁mises	-12383
▁moved	-12384
▁noces	-12385
▁pomme	-12386
▁revue	-12387
▁saura	-12388
▁surpl	-12389
▁trees	-12390
▁élarg	-12391
augment	-12392
ictions	-12393
rimable	-12394
uration	-12395
édifice	-12396
épaisse	-12397
étendre	-12398
▁Durant	-12399
▁Lefran	-12400
▁Souris	-12401
▁Stuart	-12402
▁accomp	-12403
▁adieux	-12404
▁blouse	-12405
▁bâtons	-12406
▁cachet	-12407
▁common	-12408
▁compté	-12409
▁dressa	-12410
▁décriv	-12411
▁défend	-12412
▁explor	-12413
▁forget	-12414
▁fâcher	-12415
▁harmon	-12416
▁infern	-12417
▁jouant	-12418
▁mangea	-12419
▁masque	-12420
▁montai	-12421
▁résist	-12422
▁saurai	-12423
▁trahir	-12424
▁troncs	-12425
▁vanity	-12426
aremment	-12427
attendis	-12428
chaussée	-12429
entreten	-12430
ignorais	-12431
▁Newgate	-12432
▁armoire	-12433
▁assaill	-12434
▁assurée	-12435
▁atmosph	-12436
▁avancer	-12437
▁avancée	-12438
▁blessés	-12439
▁caisses	-12440
▁chiffre	-12441
▁chuchot	-12442
▁consequ	-12443
▁conspir	-12444
▁coquins	-12445
▁culotte	-12446
▁dispers	-12447
▁déchiré	-12448
▁effront	-12449
▁fabriqu	-12450
▁finesse	-12451
▁gardien	-12452
▁habiter	-12453
▁imagine	-12454
▁imaginé	-12455
▁invinci	-12456
▁locomot	-12457
▁légumes	-12458
▁managed	-12459
▁parlons	-12460
▁partons	-12461
▁passent	-12462
▁planche	-12463
▁possess	-12464
▁quadrup	-12465
▁quittai	-12466
▁saurons	-12467
▁superst	-12468
▁surprit	-12469
▁séminar	-12470
▁termina	-12471
▁tournée	-12472
▁vicaire	-12473
honorable	-12474
équilibre	-12475
▁arrivent	-12476
▁attachés	-12477
▁centimes	-12478
▁concerne	-12479
▁contrées	-12480
▁creature	-12481
▁fatalité	-12482
▁fouiller	-12483
▁fraîches	-12484
▁habillée	-12485
▁honnêtes	-12486
▁imagined	-12487
▁immenses	-12488
▁industri	-12489
▁infortun	-12490
▁oubliant	-12491
▁parcours	-12492
▁redevint	-12493
▁redressa	-12494
▁renversé	-12495
▁répandit	-12496
▁touchant	-12497
apercevais	-12498
itablement	-12499
▁assassins	-12500
▁boutiques	-12501
▁cherchais	-12502
▁different	-12503
▁déversoir	-12504
▁entraient	-12505
▁examinait	-12506
▁exécution	-12507
▁hurlement	-12508
▁jardinier	-12509
▁montèrent	-12510
▁provoquer	-12511
▁préoccupé	-12512
▁quiconque	-12513
▁quinzième	-12514
▁respirait	-12515
▁resterait	-12516
▁résultats	-12517
▁satisfais	-12518
▁Lefrançois	-12519
▁aboiements	-12520
▁brillantes	-12521
▁entendîmes	-12522
▁hurlements	-12523
▁interlocut	-12524
▁monstrueux	-12525
▁précédente	-12526
▁rencontrai	-12527
▁abondamment	-12528
▁indignation	-12529
▁monstrueuse	-12530
▁naturaliste	-12531
▁occidentale	-12532
▁occupations	-12533
▁appartenaient	-12534
▁raisonnements	-12535
2,	-12536
CI	-12537
yl	-12538
Att	-12539
OUS	-12540
Why	-12541
Yes	-12542
ims	-12543
kor	-12544
las	-12545
rew	-12546
ubl	-12547
you	-12548
▁QU	-12549
▁ow	-12550
▁sn	-12551
Sans	-12552
West	-12553
aced	-12554
exag	-12555
hton	-12556
iges	-12557
insp	-12558
isco	-12559
olit	-12560
omas	-12561
oted	-12562
well	-12563
wick	-12564
êché	-12565
▁Dan	-12566
▁Pap	-12567
▁War	-12568
▁ari	-12569
▁cah	-12570
▁héb	-12571
▁lic	-12572
▁maj	-12573
▁sût	-12574
▁tav	-12575
cided	-12576
endes	-12577
envah	-12578
excus	-12579
huile	-12580
ignif	-12581
ilips	-12582
onçai	-12583
osant	-12584
ueils	-12585
▁Loir	-12586
▁Suiv	-12587
▁blaf	-12588
▁cold	-12589
▁decl	-12590
▁dors	-12591
▁fure	-12592
▁palp	-12593
▁papa	-12594
▁perç	-12595
▁pinc	-12596
▁prém	-12597
▁rail	-12598
▁scie	-12599
▁séch	-12600
▁vues	-12601
ancher	-12602
apprit	-12603
broise	-12604
âtelet	-12605
émités	-12606
▁Duval	-12607
▁Juste	-12608
▁Torre	-12609
▁blond	-12610
▁bored	-12611
▁bread	-12612
▁carab	-12613
▁clous	-12614
▁coule	-12615
▁décor	-12616
▁foudr	-12617
▁grief	-12618
▁gromm	-12619
▁inhab	-12620
▁irons	-12621
▁lèvre	-12622
▁makes	-12623
▁mardi	-12624
▁plaie	-12625
▁rampe	-12626
▁sense	-12627
▁sleep	-12628
▁solit	-12629
▁tarda	-12630
▁Élisa	-12631
▁égaré	-12632
agitait	-12633
aîtrait	-12634
iculous	-12635
inction	-12636
matique	-12637
obation	-12638
onnante	-12639
onnerie	-12640
▁Christ	-12641
▁Fiscal	-12642
▁Grillo	-12643
▁Nelson	-12644
▁Tantôt	-12645
▁altern	-12646
▁arrêta	-12647
▁baissé	-12648
▁canapé	-12649
▁carrée	-12650
▁client	-12651
▁coucha	-12652
▁depart	-12653
▁dévoué	-12654
▁engage	-12655
▁excité	-12656
▁exprim	-12657
▁forcés	-12658
▁forgot	-12659
▁formée	-12660
▁grasse	-12661
▁infâme	-12662
▁jurons	-12663
▁levres	-12664
▁marqué	-12665
▁oeuvre	-12666
▁pleure	-12667
▁pudeur	-12668
▁ramené	-12669
▁rendra	-12670
▁result	-12671
▁romans	-12672
▁saviez	-12673
▁souple	-12674
▁toiles	-12675
▁utiles	-12676
▁étoile	-12677
aiguille	-12678
apitaine	-12679
appuyant	-12680
ceptible	-12681
issantes	-12682
▁Grianta	-12683
▁Philips	-12684
▁Vandame	-12685
▁affaiss	-12686
▁arrangé	-12687
▁berceau	-12688
▁changée	-12689
▁conject	-12690
▁courses	-12691
▁dressed	-12692
▁délivré	-12693
▁indigne	-12694
▁indiqué	-12695
▁injures	-12696
▁joueurs	-12697
▁maniere	-12698
▁million	-12699
▁preuves	-12700
▁rougeur	-12701
▁souffla	-12702
▁suffire	-12703
▁surmont	-12704
▁tombeau	-12705
▁traînée	-12706
agitation	-12707
▁Philippe	-12708
▁Richmond	-12709
▁ajoutant	-12710
▁assister	-12711
▁attaquer	-12712
▁baissait	-12713
▁believed	-12714
▁business	-12715
▁caprices	-12716
▁constant	-12717
▁déclarer	-12718
▁dépenses	-12719
▁désireux	-12720
▁fatigués	-12721
▁goélette	-12722
▁intermin	-12723
▁mortelle	-12724
▁populace	-12725
▁prouvait	-12726
▁soulever	-12727
▁trouvera	-12728
▁éruption	-12729
▁Horscroft	-12730
▁condamner	-12731
▁dessinait	-12732
▁imprudent	-12733
▁mécontent	-12734
▁parallèle	-12735
▁passeport	-12736
▁redingote	-12737
▁renversée	-12738
▁suffisant	-12739
▁tentation	-12740
▁théologie	-12741
▁travaillé	-12742
▁témoigner	-12743
▁énergique	-12744
exploration	-12745
▁completely	-12746
▁demanderai	-12747
▁extrémités	-12748
ministration	-12749
▁accompagner	-12750
▁comparaison	-12751
▁destination	-12752
▁découvertes	-12753
▁redescendre	-12754
▁broussailles	-12755
▁entreprendre	-12756
▁principalement	-12757
AM	-12758
Du	-12759
sm	-12760
Hen	-12761
ONS	-12762
RIS	-12763
adé	-12764
ati	-12765
avy	-12766
ilt	-12767
ism	-12768
oli	-12769
umé	-12770
yth	-12771
▁SE	-12772
▁XL	-12773
▁rh	-12774
Jane	-12775
MENT	-12776
acqu	-12777
aker	-12778
auds	-12779
four	-12780
ouge	-12781
sire	-12782
▁181	-12783
▁Bat	-12784
▁PAR	-12785
▁Ret	-12786
▁Tel	-12787
▁law	-12788
▁lie	-12789
▁lot	-12790
▁mac	-12791
▁vom	-12792
▁écr	-12793
ENDRE	-12794
Opéra	-12795
agard	-12796
avril	-12797
etier	-12798
iture	-12799
oigne	-12800
oline	-12801
quins	-12802
rnest	-12803
ussac	-12804
énité	-12805
▁Carn	-12806
▁Inch	-12807
▁Morm	-12808
▁Paul	-12809
▁Seul	-12810
▁Vern	-12811
▁Well	-12812
▁carc	-12813
▁deep	-12814
▁durs	-12815
▁ence	-12816
▁fill	-12817
▁hant	-12818
▁lamp	-12819
▁legs	-12820
▁lien	-12821
▁lier	-12822
▁prun	-12823
▁prît	-12824
▁pêle	-12825
▁rect	-12826
▁revu	-12827
▁risk	-12828
▁sacc	-12829
▁sanc	-12830
▁sexe	-12831
▁ébah	-12832
alogue	-12833
cation	-12834
chemin	-12835
entine	-12836
iences	-12837
ounted	-12838
uchart	-12839
ustrie	-12840
▁Vergy	-12841
▁adouc	-12842
▁amena	-12843
▁boeuf	-12844
▁causa	-12845
▁citer	-12846
▁clear	-12847
▁coûté	-12848
▁cribl	-12849
▁cuire	-12850
▁divin	-12851
▁délai	-12852
▁event	-12853
▁fifty	-12854
▁fossé	-12855
▁gêner	-12856
▁houle	-12857
▁nappe	-12858
▁neigh	-12859
▁péché	-12860
▁vases	-12861
▁États	-12862
enfonça	-12863
▁Donnez	-12864
▁Joseph	-12865
▁abaiss	-12866
▁animée	-12867
▁associ	-12868
▁bondit	-12869
▁bronze	-12870
▁carton	-12871
▁conval	-12872
▁coûter	-12873
▁desire	-12874
▁expéri	-12875
▁formed	-12876
▁grandi	-12877
▁grises	-12878
▁grâces	-12879
▁lâches	-12880
▁malice	-12881
▁manner	-12882
▁miroir	-12883
▁palier	-12884
▁perche	-12885
▁phosph	-12886
▁proven	-12887
▁remain	-12888
▁reçoit	-12889
▁récits	-12890
▁salons	-12891
▁sermon	-12892
▁tarder	-12893
▁verger	-12894
▁verrai	-12895
▁vôtres	-12896
▁worthy	-12897
▁épouse	-12898
affaires	-12899
agements	-12900
esterday	-12901
▁Château	-12902
▁Sauvage	-12903
▁advance	-12904
▁aperçue	-12905
▁ardents	-12906
▁assourd	-12907
▁assumed	-12908
▁campagn	-12909
▁concent	-12910
▁concern	-12911
▁decided	-12912
▁demeuré	-12913
▁désolée	-12914
▁dévorer	-12915
▁enemies	-12916
▁fidèles	-12917
▁formant	-12918
▁hardies	-12919
▁harnais	-12920
▁hautain	-12921
▁indéfin	-12922
▁intéret	-12923
▁journey	-12924
▁matelot	-12925
▁mesurer	-12926
▁moderne	-12927
▁narines	-12928
▁pendait	-12929
▁plainte	-12930
▁poussés	-12931
▁proposé	-12932
▁préféré	-12933
▁racines	-12934
▁ramassa	-12935
▁restaur	-12936
▁roulant	-12937
▁soutane	-12938
▁succomb	-12939
▁traître	-12940
▁trésors	-12941
▁wounded	-12942
▁églises	-12943
▁établie	-12944
entourait	-12945
énétrable	-12946
▁Amérique	-12947
▁aimables	-12948
▁arranger	-12949
▁attachée	-12950
▁cervelle	-12951
▁cherchez	-12952
▁compatri	-12953
▁comprise	-12954
▁courtois	-12955
▁craignez	-12956
▁disposés	-12957
▁entendus	-12958
▁entourée	-12959
▁facultés	-12960
▁features	-12961
▁fortress	-12962
▁fourneau	-12963
▁hastened	-12964
▁indiquer	-12965
▁insuffis	-12966
▁noblesse	-12967
▁retirait	-12968
▁réservée	-12969
▁révérend	-12970
▁souhaite	-12971
▁sourires	-12972
▁standing	-12973
▁terrasse	-12974
▁tragique	-12975
▁traitait	-12976
▁troubles	-12977
▁vacances	-12978
▁vocation	-12979
▁éclatait	-12980
▁écoliers	-12981
▁écriture	-12982
▁addressed	-12983
▁anglaises	-12984
▁charmants	-12985
▁charrette	-12986
▁concevoir	-12987
▁conseille	-12988
▁delighted	-12989
▁devinrent	-12990
▁douzaines	-12991
▁détective	-12992
▁déterminé	-12993
▁incompréh	-12994
▁instincts	-12995
▁mousquets	-12996
▁portraits	-12997
▁soumettre	-12998
▁soupirant	-12999
▁supposait	-13000
▁zoophytes	-13001
▁émerveill	-13002
▁Monsignore	-13003
▁couvraient	-13004
▁débarrassé	-13005
▁découvrait	-13006
▁promenades	-13007
▁quittèrent	-13008
▁redoublait	-13009
▁ridiculous	-13010
▁surrounded	-13011
▁traînaient	-13012
▁témoignait	-13013
▁ustensiles	-13014
▁changements	-13015
▁demandaient	-13016
▁philosophie	-13017
▁répondirent	-13018
▁accompagnait	-13019
▁débarquement	-13020
▁effectivement	-13021
▁protestations	-13022
6,	-13023
AI	-13024
Wh	-13025
fa	-13026
ecd	-13027
eul	-13028
inn	-13029
ouï	-13030
pre	-13031
wal	-13032
▁19	-13033
▁Di	-13034
▁IX	-13035
atig	-13036
chal	-13037
cote	-13038
fais	-13039
ival	-13040
mêle	-13041
ossé	-13042
père	-13043
reek	-13044
road	-13045
èses	-13046
▁Six	-13047
▁boc	-13048
▁dat	-13049
▁ear	-13050
▁sun	-13051
enlev	-13052
exasp	-13053
ignée	-13054
ileté	-13055
ochet	-13056
ocked	-13057
omptu	-13058
ophie	-13059
oresc	-13060
ridge	-13061
échal	-13062
élève	-13063
étiez	-13064
▁Lomb	-13065
▁Norm	-13066
▁fert	-13067
▁grad	-13068
▁gêne	-13069
▁hair	-13070
▁host	-13071
▁join	-13072
▁none	-13073
▁palm	-13074
▁pick	-13075
▁pill	-13076
▁pock	-13077
▁prog	-13078
▁rêvé	-13079
▁stop	-13080
▁syll	-13081
▁torp	-13082
▁trac	-13083
Quelle	-13084
assion	-13085
aviron	-13086
cherie	-13087
eliers	-13088
indiff	-13089
olence	-13090
épargn	-13091
▁Petit	-13092
▁Voila	-13093
▁abîme	-13094
▁balay	-13095
▁betes	-13096
▁blâme	-13097
▁calma	-13098
▁charn	-13099
▁chope	-13100
▁couss	-13101
▁coûte	-13102
▁deter	-13103
▁dette	-13104
▁endur	-13105
▁excès	-13106
▁hocha	-13107
▁hurla	-13108
▁infir	-13109
▁molle	-13110
▁neuve	-13111
▁nôtre	-13112
▁prime	-13113
▁punir	-13114
▁royal	-13115
▁récré	-13116
▁sales	-13117
▁scint	-13118
▁tiède	-13119
ENDREDI	-13120
arement	-13121
fortune	-13122
iquette	-13123
iraient	-13124
isseurs	-13125
itèrent	-13126
ommages	-13127
épreuve	-13128
▁Nature	-13129
▁Oliver	-13130
▁Parvis	-13131
▁active	-13132
▁alliez	-13133
▁assomm	-13134
▁avancé	-13135
▁barres	-13136
▁battue	-13137
▁blâmer	-13138
▁canots	-13139
▁collet	-13140
▁commod	-13141
▁corons	-13142
▁crayon	-13143
▁cueill	-13144
▁diplom	-13145
▁fondit	-13146
▁implac	-13147
▁incréd	-13148
▁indulg	-13149
▁littér	-13150
▁obstin	-13151
▁perron	-13152
▁pleurs	-13153
▁prévoy	-13154
▁pêcher	-13155
▁raille	-13156
▁répété	-13157
▁réunir	-13158
▁saisis	-13159
▁sauvés	-13160
▁speech	-13161
▁suspic	-13162
▁tempes	-13163
▁trajet	-13164
▁vivais	-13165
▁walked	-13166
▁écrasé	-13167
artement	-13168
empereur	-13169
encontre	-13170
horrible	-13171
écriture	-13172
▁Mouquet	-13173
▁aliment	-13174
▁allumée	-13175
▁allâmes	-13176
▁appelez	-13177
▁apporte	-13178
▁bouches	-13179
▁calculs	-13180
▁comique	-13181
▁compart	-13182
▁cuisses	-13183
▁dessert	-13184
▁défaite	-13185
▁engourd	-13186
▁fermées	-13187
▁interpr	-13188
▁jugeait	-13189
▁maudite	-13190
▁ménager	-13191
▁oubliez	-13192
▁passera	-13193
▁pointes	-13194
▁propose	-13195
▁refaire	-13196
▁rejoint	-13197
▁remuait	-13198
▁renferm	-13199
▁reviens	-13200
▁riaient	-13201
▁soupirs	-13202
▁started	-13203
▁streets	-13204
▁suffira	-13205
▁séparés	-13206
▁traitée	-13207
▁turning	-13208
▁tâchait	-13209
▁waiting	-13210
▁éclairs	-13211
▁étoffes	-13212
▁étourdi	-13213
▁éveillé	-13214
extérieur	-13215
▁VENDREDI	-13216
▁accourut	-13217
▁attached	-13218
▁bizarres	-13219
▁cherchai	-13220
▁chiffres	-13221
▁hésitait	-13222
▁ignorant	-13223
▁institut	-13224
▁observed	-13225
▁poliment	-13226
▁présents	-13227
▁ramenait	-13228
▁retourné	-13229
▁revolver	-13230
▁répandre	-13231
▁sottises	-13232
▁tempêtes	-13233
▁théories	-13234
▁timidité	-13235
▁tribunal	-13236
▁wretched	-13237
▁éloignés	-13238
habitation	-13239
▁Valentine	-13240
▁assurance	-13241
▁considéra	-13242
▁descendus	-13243
▁embrasser	-13244
▁généreuse	-13245
▁mountains	-13246
▁presented	-13247
▁prolonger	-13248
▁repousser	-13249
▁roulaient	-13250
▁révérence	-13251
▁servaient	-13252
abandonnait	-13253
▁Hollandais	-13254
▁circulaire	-13255
▁empreintes	-13256
▁lourdement	-13257
▁maintenait	-13258
▁recueillir	-13259
▁souhaitait	-13260
▁adversaires	-13261
▁frissonnant	-13262
▁pittoresque	-13263
▁résolutions	-13264
.............	-13265
▁représentant	-13266
▁sensiblement	-13267
▁préoccupation	-13268
▁responsabilité	-13269
▁Malheureusement	-13270
RI	-13271
EUR	-13272
cal	-13273
col	-13274
enr	-13275
imb	-13276
lys	-13277
pen	-13278
ump	-13279
œuv	-13280
▁23	-13281
acht	-13282
aphe	-13283
aris	-13284
cies	-13285
gong	-13286
iasm	-13287
lées	-13288
ocks	-13289
oyen	-13290
éger	-13291
élér	-13292
▁App	-13293
▁Duc	-13294
▁Dum	-13295
▁Gen	-13296
▁Nor	-13297
▁Per	-13298
▁coq	-13299
▁frô	-13300
▁osa	-13301
▁sui	-13302
alien	-13303
elées	-13304
ensée	-13305
igner	-13306
inier	-13307
oient	-13308
outed	-13309
urier	-13310
utely	-13311
vered	-13312
éroce	-13313
▁Bout	-13314
▁Bref	-13315
▁Cent	-13316
▁Comm	-13317
▁Craw	-13318
▁Gerv	-13319
▁Près	-13320
▁Xury	-13321
▁astr	-13322
▁book	-13323
▁club	-13324
▁flor	-13325
▁incl	-13326
▁late	-13327
▁prép	-13328
▁scud	-13329
▁slow	-13330
▁tact	-13331
▁toux	-13332
▁valu	-13333
▁vern	-13334
▁volt	-13335
▁voût	-13336
▁zone	-13337
▁épis	-13338
allées	-13339
auriez	-13340
emblée	-13341
icious	-13342
iliser	-13343
illers	-13344
itieux	-13345
nement	-13346
Église	-13347
étourd	-13348
▁Emper	-13349
▁Sacca	-13350
▁abrit	-13351
▁confr	-13352
▁conte	-13353
▁digue	-13354
▁divan	-13355
▁décis	-13356
▁enver	-13357
▁futur	-13358
▁gagna	-13359
▁guard	-13360
▁impit	-13361
▁marry	-13362
▁moque	-13363
▁mèche	-13364
▁mérit	-13365
▁mîmes	-13366
▁pelle	-13367
▁peser	-13368
▁polic	-13369
▁pyram	-13370
▁raies	-13371
▁raill	-13372
▁redou	-13373
▁remua	-13374
▁ruban	-13375
▁répar	-13376
▁score	-13377
▁seras	-13378
▁serre	-13379
▁tiend	-13380
▁touss	-13381
▁tracé	-13382
▁trent	-13383
▁école	-13384
allumer	-13385
applaud	-13386
emmener	-13387
exemple	-13388
ustomed	-13389
étonner	-13390
▁Austri	-13391
▁Eshton	-13392
▁Jusque	-13393
▁Priore	-13394
▁Quelqu	-13395
▁Suisse	-13396
▁branch	-13397
▁calmes	-13398
▁coquet	-13399
▁corner	-13400
▁couvre	-13401
▁disons	-13402
▁dugong	-13403
▁déclin	-13404
▁empire	-13405
▁emprun	-13406
▁enclos	-13407
▁fauves	-13408
▁féroce	-13409
▁happen	-13410
▁infini	-13411
▁labour	-13412
▁latter	-13413
▁mordre	-13414
▁myster	-13415
▁mêlait	-13416
▁nappes	-13417
▁pantou	-13418
▁plaint	-13419
▁planté	-13420
▁rauque	-13421
▁rendus	-13422
▁revêtu	-13423
▁réalis	-13424
▁shewed	-13425
▁sister	-13426
▁sooner	-13427
▁speedy	-13428
▁tombés	-13429
▁tunnel	-13430
existait	-13431
▁Crawley	-13432
▁Essarts	-13433
▁Lombard	-13434
▁affirma	-13435
▁atteign	-13436
▁avertir	-13437
▁bonnets	-13438
▁clôture	-13439
▁conclut	-13440
▁couvrit	-13441
▁deniers	-13442
▁détours	-13443
▁ensevel	-13444
▁esclave	-13445
▁fermant	-13446
▁glacial	-13447
▁guichet	-13448
▁humains	-13449
▁instead	-13450
▁maigres	-13451
▁meeting	-13452
▁montrai	-13453
▁mouillé	-13454
▁nacelle	-13455
▁nonchal	-13456
▁nuances	-13457
▁oeuvres	-13458
▁offered	-13459
▁officer	-13460
▁parenté	-13461
▁partant	-13462
▁plaines	-13463
▁planter	-13464
▁prenais	-13465
▁promena	-13466
▁riviere	-13467
▁saillie	-13468
▁shouted	-13469
▁soulevé	-13470
▁séjourn	-13471
▁tonneau	-13472
▁uttered	-13473
▁Édouard	-13474
▁égoïste	-13475
▁épreuve	-13476
efforçait	-13477
impatient	-13478
installer	-13479
▁Carnatic	-13480
▁Caroline	-13481
▁Gervaise	-13482
▁Millcote	-13483
▁Pluchart	-13484
▁Voltaire	-13485
▁addition	-13486
▁attentif	-13487
▁bourbier	-13488
▁buissons	-13489
▁chagrins	-13490
▁chemises	-13491
▁contempt	-13492
▁contrari	-13493
▁critique	-13494
▁destinés	-13495
▁deuxième	-13496
▁dirigeai	-13497
▁dévorait	-13498
▁fenetres	-13499
▁feraient	-13500
▁inattend	-13501
▁jetèrent	-13502
▁lecteurs	-13503
▁machines	-13504
▁mangeant	-13505
▁matériel	-13506
▁miracule	-13507
▁mépriser	-13508
▁official	-13509
▁rapporte	-13510
▁reconnue	-13511
▁redoubla	-13512
▁solennel	-13513
▁songeais	-13514
▁sévérité	-13515
▁trouvent	-13516
▁vendredi	-13517
▁voudriez	-13518
allongeait	-13519
apparition	-13520
interroger	-13521
▁Francisco	-13522
▁américain	-13523
▁clairière	-13524
▁consentit	-13525
▁dentelles	-13526
▁donnerais	-13527
▁délicates	-13528
▁détachait	-13529
▁fiévreuse	-13530
▁gardaient	-13531
▁passerait	-13532
▁poursuivi	-13533
▁rendirent	-13534
▁souverain	-13535
▁succeeded	-13536
▁suppliant	-13537
▁visiteurs	-13538
▁arriverait	-13539
▁battements	-13540
▁bouleversé	-13541
▁comprenais	-13542
▁confection	-13543
▁désappoint	-13544
▁enthusiasm	-13545
▁meurtriers	-13546
▁mécanicien	-13547
▁population	-13548
▁principaux	-13549
▁prononçait	-13550
▁providence	-13551
▁rapprocher	-13552
▁sifflement	-13553
▁soupçonner	-13554
▁sévèrement	-13555
▁témoignage	-13556
▁contemplait	-13557
▁développait	-13558
▁indiquaient	-13559
▁intolérable	-13560
▁jouissances	-13561
▁probabilité	-13562
▁représenter	-13563
▁inexprimable	-13564
▁relativement	-13565
▁surveillance	-13566
▁excessivement	-13567
4,	-13568
enh	-13569
ius	-13570
ued	-13571
éta	-13572
êté	-13573
▁Co	-13574
▁Li	-13575
▁RE	-13576
▁Ta	-13577
arés	-13578
iary	-13579
ular	-13580
urés	-13581
érez	-13582
▁CON	-13583
▁Hav	-13584
▁Hug	-13585
▁Meu	-13586
▁Mus	-13587
▁Pil	-13588
▁Tuv	-13589
▁fly	-13590
▁hut	-13591
▁mic	-13592
▁riz	-13593
▁tis	-13594
----,	-13595
arded	-13596
arthe	-13597
credi	-13598
eloup	-13599
envol	-13600
iales	-13601
iling	-13602
leste	-13603
ouses	-13604
uette	-13605
unité	-13606
vonne	-13607
ygène	-13608
▁Belg	-13609
▁Dent	-13610
▁Engl	-13611
▁Rang	-13612
▁Tais	-13613
▁Vict	-13614
▁aidé	-13615
▁bâti	-13616
▁cédé	-13617
▁engr	-13618
▁esqu	-13619
▁gour	-13620
▁gâté	-13621
▁jupe	-13622
▁lutt	-13623
▁mâts	-13624
▁obey	-13625
▁pity	-13626
▁prep	-13627
▁prié	-13628
▁raff	-13629
▁ronf	-13630
▁somn	-13631
▁tués	-13632
▁énig	-13633
Agathe	-13634
académ	-13635
aparte	-13636
aurons	-13637
gramme	-13638
hélice	-13639
issure	-13640
oublie	-13641
étions	-13642
ôpital	-13643
▁Const	-13644
▁Jésus	-13645
▁aigus	-13646
▁aspir	-13647
▁avoué	-13648
▁blocs	-13649
▁blott	-13650
▁boule	-13651
▁chers	-13652
▁dalle	-13653
▁dériv	-13654
▁farde	-13655
▁fumer	-13656
▁jaill	-13657
▁labyr	-13658
▁memes	-13659
▁mètre	-13660
▁nègre	-13661
▁patte	-13662
▁pince	-13663
▁pipes	-13664
▁piste	-13665
▁pénit	-13666
▁rames	-13667
▁roula	-13668
▁rudes	-13669
▁règle	-13670
▁sacré	-13671
▁scrut	-13672
▁track	-13673
▁trône	-13674
▁versa	-13675
▁zones	-13676
▁étude	-13677
achever	-13678
attaque	-13679
avançai	-13680
endicul	-13681
marines	-13682
octobre	-13683
ulation	-13684
vention	-13685
écarter	-13686
énormes	-13687
▁Andrew	-13688
▁Autour	-13689
▁Jussac	-13690
▁Lièvre	-13691
▁appuya	-13692
▁attiré	-13693
▁battle	-13694
▁brisés	-13695
▁brutal	-13696
▁chassé	-13697
▁chauve	-13698
▁cigare	-13699
▁corail	-13700
▁cornes	-13701
▁déposé	-13702
▁dérang	-13703
▁désord	-13704
▁eleven	-13705
▁enjamb	-13706
▁envahi	-13707
▁froiss	-13708
▁garden	-13709
▁gâteau	-13710
▁hélice	-13711
▁hôtels	-13712
▁interd	-13713
▁moquer	-13714
▁mortes	-13715
▁mouton	-13716
▁museau	-13717
▁novice	-13718
▁nuance	-13719
▁priait	-13720
▁priest	-13721
▁remark	-13722
▁repeat	-13723
▁règles	-13724
▁récifs	-13725
▁scélér	-13726
▁sourds	-13727
▁vertus	-13728
amertume	-13729
arranger	-13730
douzaine	-13731
incendie	-13732
observai	-13733
ographie	-13734
uniforme	-13735
▁Emperor	-13736
▁Rangoon	-13737
▁Tuvache	-13738
▁abattre	-13739
▁affaibl	-13740
▁amusant	-13741
▁anonyme	-13742
▁article	-13743
▁bandits	-13744
▁charmée	-13745
▁clameur	-13746
▁convoit	-13747
▁couples	-13748
▁covered	-13749
▁cristal	-13750
▁dépêche	-13751
▁enfoncé	-13752
▁entends	-13753
▁estomac	-13754
▁grandir	-13755
▁grelott	-13756
▁gronder	-13757
▁injuste	-13758
▁joignit	-13759
▁laissés	-13760
▁marquer	-13761
▁mettais	-13762
▁monture	-13763
▁oubliée	-13764
▁parapet	-13765
▁parvins	-13766
▁penchée	-13767
▁perdues	-13768
▁pigeons	-13769
▁porions	-13770
▁portent	-13771
▁presser	-13772
▁pénétré	-13773
▁remonté	-13774
▁remplis	-13775
▁réduite	-13776
▁secouer	-13777
▁servent	-13778
▁sifflet	-13779
▁sitting	-13780
▁soigner	-13781
▁statues	-13782
▁touchée	-13783
▁étouffé	-13784
explosion	-13785
éloignait	-13786
▁Lisbonne	-13787
▁Regardez	-13788
▁accroché	-13789
▁antipath	-13790
▁caractér	-13791
▁chantier	-13792
▁chauffer	-13793
▁croirait	-13794
▁décharge	-13795
▁dépasser	-13796
▁dépenser	-13797
▁enceinte	-13798
▁greffier	-13799
▁habituel	-13800
▁illustre	-13801
▁insolent	-13802
▁maltrait	-13803
▁mercredi	-13804
▁médecins	-13805
▁passionn	-13806
▁passâmes	-13807
▁problème	-13808
▁prolongé	-13809
▁reverrai	-13810
▁sérénité	-13811
▁Bouteloup	-13812
▁Hippolyte	-13813
▁Monsignor	-13814
▁audacieux	-13815
▁brigadier	-13816
▁certainly	-13817
▁considéré	-13818
▁croyaient	-13819
▁dormaient	-13820
▁hardiment	-13821
▁mouchoirs	-13822
▁perfectly	-13823
▁plaignait	-13824
▁programme	-13825
▁pénétrait	-13826
▁rapproché	-13827
▁servirait	-13828
▁sometimes	-13829
▁symptômes	-13830
▁tourmente	-13831
▁troublait	-13832
▁voulurent	-13833
▁équipages	-13834
▁Décidément	-13835
▁dirigèrent	-13836
▁discipline	-13837
▁déterminer	-13838
▁enthousias	-13839
▁expliquait	-13840
▁implacable	-13841
▁puissantes	-13842
▁rechercher	-13843
▁tentatives	-13844
▁tourbillon	-13845
▁triomphant	-13846
▁arrangement	-13847
▁combustible	-13848
▁considérant	-13849
▁contreforts	-13850
▁déclaration	-13851
▁embarrassée	-13852
▁inquiétudes	-13853
▁ondulations	-13854
▁paralytique	-13855
▁perpendicul	-13856
▁précipitait	-13857
▁surprenante	-13858
▁thermomètre	-13859
▁cinquantaine	-13860
▁frémissement	-13861
▁innombrables	-13862
▁permettaient	-13863
▁admirablement	-13864
▁appréhensions	-13865
▁gracieusement	-13866
▁précipitèrent	-13867
▁établissement	-13868
▁disparaissaient	-13869
0£	-13870
7,	-13871
IX	-13872
Va	-13873
▁*	-13874
dom	-13875
enl	-13876
oom	-13877
uct	-13878
œuf	-13879
Neuf	-13880
ancy	-13881
bert	-13882
bien	-13883
eman	-13884
empr	-13885
imum	-13886
mère	-13887
obin	-13888
rand	-13889
rate	-13890
sifs	-13891
uler	-13892
êmes	-13893
îtes	-13894
▁000	-13895
▁Mas	-13896
▁Mer	-13897
▁Our	-13898
▁Sat	-13899
▁Suz	-13900
▁XIX	-13901
▁bul	-13902
▁fes	-13903
▁low	-13904
▁nef	-13905
▁sel	-13906
▁tuy	-13907
▁unc	-13908
Comme	-13909
Henri	-13910
Rouge	-13911
Tenez	-13912
Venez	-13913
Voici	-13914
anted	-13915
assai	-13916
empar	-13917
ercer	-13918
extra	-13919
fract	-13920
ichel	-13921
ledge	-13922
lesse	-13923
mergé	-13924
ommer	-13925
organ	-13926
osity	-13927
ulité	-13928
▁Cher	-13929
▁DANS	-13930
▁Font	-13931
▁Lucy	-13932
▁Neuf	-13933
▁blas	-13934
▁bold	-13935
▁bran	-13936
▁broc	-13937
▁caps	-13938
▁chét	-13939
▁cott	-13940
▁cure	-13941
▁céda	-13942
▁doll	-13943
▁furt	-13944
▁gain	-13945
▁gate	-13946
▁hame	-13947
▁line	-13948
▁marg	-13949
▁mini	-13950
▁plum	-13951
▁plun	-13952
▁poup	-13953
▁tron	-13954
▁verm	-13955
▁vile	-13956
▁walk	-13957
▁wine	-13958
------	-13959
aignée	-13960
aplomb	-13961
arrête	-13962
herbes	-13963
ièrent	-13964
onomie	-13965
ueuses	-13966
urante	-13967
▁Chine	-13968
▁Lyons	-13969
▁Maria	-13970
▁Marsh	-13971
▁Poole	-13972
▁Prime	-13973
▁Vieux	-13974
▁admis	-13975
▁ayons	-13976
▁aînée	-13977
▁broad	-13978
▁chaux	-13979
▁civil	-13980
▁coche	-13981
▁courr	-13982
▁galib	-13983
▁honor	-13984
▁lance	-13985
▁noyés	-13986
▁parût	-13987
▁perru	-13988
▁plier	-13989
▁ports	-13990
▁ramer	-13991
▁ready	-13992
▁sourn	-13993
▁twice	-13994
▁vêtus	-13995
▁watch	-13996
aillons	-13997
aisance	-13998
anciers	-13999
artiste	-14000
essible	-14001
exposer	-14002
feuille	-14003
icables	-14004
lexible	-14005
ovision	-14006
oyables	-14007
unsford	-14008
èlement	-14009
étendue	-14010
êtement	-14011
▁Cesare	-14012
▁Chante	-14013
▁Jeanne	-14014
▁accusé	-14015
▁allées	-14016
▁brandy	-14017
▁broken	-14018
▁cendre	-14019
▁choeur	-14020
▁classi	-14021
▁conclu	-14022
▁crises	-14023
▁dressé	-14024
▁déchaî	-14025
▁dévast	-14026
▁ennuis	-14027
▁entrés	-14028
▁filait	-14029
▁grotes	-14030
▁géolog	-14031
▁imprat	-14032
▁indice	-14033
▁insist	-14034
▁lancée	-14035
▁meurtr	-14036
▁nearly	-14037
▁palefr	-14038
▁pocket	-14039
▁pompes	-14040
▁pousse	-14041
▁préfet	-14042
▁préfér	-14043
▁prêter	-14044
▁rangés	-14045
▁rememb	-14046
▁renomm	-14047
▁ruelle	-14048
▁réconc	-14049
▁saluer	-14050
▁saurez	-14051
▁surexc	-14052
▁trains	-14053
Espagnol	-14054
accident	-14055
aperçois	-14056
apperçus	-14057
autorité	-14058
onnèrent	-14059
éveiller	-14060
▁Corinth	-14061
▁Graüben	-14062
▁Suzanne	-14063
▁ajoutai	-14064
▁annonce	-14065
▁arrival	-14066
▁attract	-14067
▁austral	-14068
▁baraque	-14069
▁blesser	-14070
▁blessée	-14071
▁boutons	-14072
▁conclus	-14073
▁condamn	-14074
▁couchés	-14075
▁culture	-14076
▁discret	-14077
▁doubler	-14078
▁défaill	-14079
▁déteste	-14080
▁emotion	-14081
▁funeste	-14082
▁habillé	-14083
▁heurter	-14084
▁incliné	-14085
▁langues	-14086
▁liberty	-14087
▁lourdes	-14088
▁matelas	-14089
▁misères	-14090
▁méchanc	-14091
▁opposée	-14092
▁paresse	-14093
▁perçant	-14094
▁peuples	-14095
▁rassuré	-14096
▁ressais	-14097
▁restant	-14098
▁rouvrit	-14099
▁ruissel	-14100
▁someone	-14101
▁sonnait	-14102
▁teintes	-14103
▁tiroirs	-14104
▁vertige	-14105
▁écarter	-14106
▁échauff	-14107
adressait	-14108
ceptibles	-14109
enveloppe	-14110
onnements	-14111
ouillefou	-14112
écisément	-14113
écrièrent	-14114
épendance	-14115
▁Ambroise	-14116
▁Attendez	-14117
▁Beaucoup	-14118
▁Chenille	-14119
▁Laquelle	-14120
▁accorder	-14121
▁although	-14122
▁ambassad	-14123
▁argument	-14124
▁biscuits	-14125
▁bruyante	-14126
▁brûlante	-14127
▁cachette	-14128
▁comptais	-14129
▁employés	-14130
▁ennuyeux	-14131
▁fidélité	-14132
▁figurait	-14133
▁gendarme	-14134
▁insignif	-14135
▁instance	-14136
▁interdit	-14137
▁levèrent	-14138
▁méchants	-14139
▁méritait	-14140
▁pleasant	-14141
▁préparée	-14142
▁préviens	-14143
▁refermer	-14144
▁renvoyer	-14145
▁serpents	-14146
▁somewhat	-14147
▁tiennent	-14148
▁trahison	-14149
▁émotions	-14150
étendaient	-14151
▁Bonaparte	-14152
▁Espagnols	-14153
▁animation	-14154
▁balançait	-14155
▁campement	-14156
▁compléter	-14157
▁compromis	-14158
▁consentir	-14159
▁contenant	-14160
▁contraint	-14161
▁courtiers	-14162
▁departure	-14163
▁evidently	-14164
▁exception	-14165
▁hardiesse	-14166
▁incontest	-14167
▁indigènes	-14168
▁insolence	-14169
▁manomètre	-14170
▁pardonnez	-14171
▁passionné	-14172
▁pesanteur	-14173
▁précédent	-14174
▁rapprocha	-14175
▁redescend	-14176
▁réguliers	-14177
▁suffirait	-14178
▁supposant	-14179
▁terminait	-14180
▁testament	-14181
▁trentaine	-14182
échappaient	-14183
▁américaine	-14184
▁apercevant	-14185
▁apparurent	-14186
▁chancelier	-14187
▁directions	-14188
▁entretenir	-14189
▁entretenue	-14190
▁manoeuvrer	-14191
▁rapportait	-14192
▁totalement	-14193
▁vieillards	-14194
▁vieillesse	-14195
indifférence	-14196
▁Brusquement	-14197
▁Trouillefou	-14198
▁apparemment	-14199
▁distinction	-14200
▁fantastique	-14201
▁joyeusement	-14202
▁miséricorde	-14203
▁personnelle	-14204
▁péniblement	-14205
▁impraticable	-14206
▁impénétrable	-14207
extraordinaire	-14208
▁remerciements	-14209
▁pressentiments	-14210
▁volontairement	-14211
IÈ	-14212
OL	-14213
UX	-14214
co	-14215
go	-14216
»;	-14217
ÉE	-14218
Ang	-14219
How	-14220
RAN	-14221
ala	-14222
mpe	-14223
oes	-14224
▁ps	-14225
Hein	-14226
Rien	-14227
Well	-14228
ador	-14229
anès	-14230
bord	-14231
enev	-14232
gnes	-14233
icip	-14234
icol	-14235
ilée	-14236
mais	-14237
otel	-14238
oyai	-14239
phab	-14240
rain	-14241
ypes	-14242
▁Ent	-14243
▁Rem	-14244
▁abî	-14245
▁châ	-14246
▁coc	-14247
▁dro	-14248
▁fag	-14249
▁gau	-14250
▁goy	-14251
▁hop	-14252
▁osc	-14253
▁sli	-14254
▁sph	-14255
▁war	-14256
Alice	-14257
adère	-14258
anged	-14259
elois	-14260
expri	-14261
icate	-14262
illai	-14263
illot	-14264
infin	-14265
istoc	-14266
oïsme	-14267
treat	-14268
étoff	-14269
▁Hier	-14270
▁Huit	-14271
▁bass	-14272
▁body	-14273
▁brac	-14274
▁calc	-14275
▁chan	-14276
▁clin	-14277
▁crow	-14278
▁dupe	-14279
▁exal	-14280
▁fain	-14281
▁farc	-14282
▁ferv	-14283
▁firm	-14284
▁flux	-14285
▁furn	-14286
▁init	-14287
▁jury	-14288
▁lose	-14289
▁nids	-14290
▁orph	-14291
▁pics	-14292
▁salu	-14293
▁sere	-14294
▁tall	-14295
▁weak	-14296
▁écum	-14297
abbaye	-14298
allure	-14299
ausire	-14300
elling	-14301
etting	-14302
occupa	-14303
onnais	-14304
ossais	-14305
porion	-14306
smouth	-14307
▁Bonne	-14308
▁Lille	-14309
▁Lucie	-14310
▁Tours	-14311
▁anecd	-14312
▁avoua	-14313
▁birds	-14314
▁birth	-14315
▁bossu	-14316
▁casse	-14317
▁dauph	-14318
▁dorés	-14319
▁délég	-14320
▁false	-14321
▁fémin	-14322
▁gratt	-14323
▁hatre	-14324
▁haïss	-14325
▁humil	-14326
▁ident	-14327
▁jupes	-14328
▁latér	-14329
▁malin	-14330
▁nuire	-14331
▁ouest	-14332
▁perle	-14333
▁pouls	-14334
▁pract	-14335
▁quais	-14336
▁rosée	-14337
▁terms	-14338
▁tetes	-14339
▁worse	-14340
▁Éliza	-14341
Irlande	-14342
abbesse	-14343
admirer	-14344
apparut	-14345
elettes	-14346
haleine	-14347
onnance	-14348
uosités	-14349
échauff	-14350
élancer	-14351
▁Autant	-14352
▁Barone	-14353
▁Blanès	-14354
▁Rodney	-14355
▁accost	-14356
▁agents	-14357
▁alluma	-14358
▁annonc	-14359
▁arrête	-14360
▁attrib	-14361
▁bleues	-14362
▁bordée	-14363
▁boxeur	-14364
▁comest	-14365
▁congéd	-14366
▁courts	-14367
▁durait	-14368
▁dégout	-14369
▁expres	-14370
▁exquis	-14371
▁farine	-14372
▁fermes	-14373
▁feront	-14374
▁feutre	-14375
▁finira	-14376
▁flacon	-14377
▁flanqu	-14378
▁forçat	-14379
▁fumait	-14380
▁fumées	-14381
▁fuyait	-14382
▁histor	-14383
▁judges	-14384
▁jurait	-14385
▁justes	-14386
▁kilogr	-14387
▁lisant	-14388
▁narwal	-14389
▁obstru	-14390
▁pagode	-14391
▁piétin	-14392
▁plaies	-14393
▁plains	-14394
▁poésie	-14395
▁screen	-14396
▁sèches	-14397
▁truand	-14398
▁vaches	-14399
▁vaincu	-14400
▁verser	-14401
▁écoulé	-14402
enfermer	-14403
évanouit	-14404
▁Barbone	-14405
▁accueil	-14406
▁adressé	-14407
▁allongé	-14408
▁antique	-14409
▁aperçus	-14410
▁atelier	-14411
▁attaqué	-14412
▁attente	-14413
▁brisées	-14414
▁choisit	-14415
▁cigaret	-14416
▁coffres	-14417
▁constat	-14418
▁cuiller	-14419
▁cérémon	-14420
▁cétacés	-14421
▁empêché	-14422
▁flotter	-14423
▁féroces	-14424
▁inspiré	-14425
▁juments	-14426
▁libéral	-14427
▁lâcheté	-14428
▁menaces	-14429
▁nations	-14430
▁ordered	-14431
▁pensive	-14432
▁porteur	-14433
▁poumons	-14434
▁poussai	-14435
▁prépare	-14436
▁raisins	-14437
▁refused	-14438
▁request	-14439
▁seconds	-14440
▁seeking	-14441
▁soulagé	-14442
▁steamer	-14443
▁succeed	-14444
▁supplie	-14445
▁taisait	-14446
▁tordait	-14447
▁versant	-14448
▁écuries	-14449
▁élégant	-14450
empreinte	-14451
ouvraient	-14452
▁Derrière	-14453
▁Hunsford	-14454
▁Maréchal	-14455
▁admitted	-14456
▁bravoure	-14457
▁circumst	-14458
▁continué	-14459
▁devinait	-14460
▁diminuer	-14461
▁emportés	-14462
▁gentille	-14463
▁habituée	-14464
▁héritage	-14465
▁imprison	-14466
▁inquiets	-14467
▁instruit	-14468
▁mouiller	-14469
▁pensions	-14470
▁persiste	-14471
▁portions	-14472
▁procéder	-14473
▁protéger	-14474
▁puissent	-14475
▁rassurer	-14476
▁remercia	-14477
▁respects	-14478
▁retrouss	-14479
▁sournois	-14480
▁superbes	-14481
▁volontés	-14482
▁éclairer	-14483
▁édifices	-14484
▁évanouie	-14485
emplissait	-14486
inquiétait	-14487
écoulèrent	-14488
▁Rochelois	-14489
▁ardemment	-14490
▁authority	-14491
▁battement	-14492
▁changeait	-14493
▁collègues	-14494
▁coquilles	-14495
▁coulaient	-14496
▁coururent	-14497
▁destinées	-14498
▁déclarait	-14499
▁démarches	-14500
▁introduit	-14501
▁justifier	-14502
▁parcourut	-14503
▁plaisante	-14504
▁rejoignit	-14505
▁roulement	-14506
▁ruisseaux	-14507
▁surprised	-14508
▁therefore	-14509
▁yesterday	-14510
▁échappait	-14511
attendaient	-14512
interrompre	-14513
▁Portsmouth	-14514
▁absolutely	-14515
▁accoutumée	-14516
▁convaincue	-14517
▁galanterie	-14518
▁labyrinthe	-14519
▁lamentable	-14520
▁locomotive	-14521
▁partageait	-14522
▁passionate	-14523
▁paternelle	-14524
▁presbytere	-14525
▁régularité	-14526
▁surveiller	-14527
▁volcanique	-14528
▁abominables	-14529
▁attachement	-14530
▁considérais	-14531
▁détonations	-14532
▁professionn	-14533
▁ressemblent	-14534
▁visiblement	-14535
▁Parfaitement	-14536
▁recommençait	-14537
▁spécialement	-14538
▁rencontrèrent	-14539
▁ecclésiastique	-14540
▁précipitamment	-14541
Nom	-14542
ado	-14543
ams	-14544
ana	-14545
aos	-14546
exh	-14547
ilé	-14548
mét	-14549
ogu	-14550
ply	-14551
▁Sw	-14552
Very	-14553
adée	-14554
aggi	-14555
eres	-14556
ided	-14557
itch	-14558
oïse	-14559
pere	-14560
quit	-14561
ther	-14562
▁Dak	-14563
▁Rym	-14564
▁Rép	-14565
▁arc	-14566
▁féc	-14567
▁hau	-14568
▁lié	-14569
Adèle	-14570
Ainsi	-14571
acity	-14572
ading	-14573
afaud	-14574
agère	-14575
aight	-14576
améli	-14577
elled	-14578
elons	-14579
fleur	-14580
house	-14581
major	-14582
olesc	-14583
omnie	-14584
oppos	-14585
orace	-14586
otait	-14587
ouise	-14588
ouler	-14589
ûment	-14590
▁Four	-14591
▁Maur	-14592
▁Soit	-14593
▁ador	-14594
▁agon	-14595
▁alar	-14596
▁army	-14597
▁bain	-14598
▁cool	-14599
▁crié	-14600
▁duré	-14601
▁gene	-14602
▁home	-14603
▁opin	-14604
▁oser	-14605
▁pile	-14606
▁ponc	-14607
▁pétr	-14608
▁récl	-14609
▁subt	-14610
▁thor	-14611
▁vare	-14612
▁virt	-14613
▁whis	-14614
▁écor	-14615
Martin	-14616
appela	-14617
arante	-14618
envoie	-14619
envoya	-14620
ically	-14621
issons	-14622
onnade	-14623
rested	-14624
rnesto	-14625
uisant	-14626
ultère	-14627
▁Blanc	-14628
▁Reims	-14629
▁Stras	-14630
▁Tourn	-14631
▁audit	-14632
▁carap	-14633
▁chamb	-14634
▁corri	-14635
▁dying	-14636
▁décol	-14637
▁décom	-14638
▁folly	-14639
▁frêle	-14640
▁goûts	-14641
▁ideas	-14642
▁langu	-14643
▁lents	-14644
▁levés	-14645
▁maréc	-14646
▁mouth	-14647
▁music	-14648
▁onagg	-14649
▁percé	-14650
▁pourv	-14651
▁proce	-14652
▁quiet	-14653
▁ronds	-14654
▁sapin	-14655
▁scudi	-14656
▁sonné	-14657
▁swear	-14658
▁troop	-14659
▁vaiss	-14660
▁verme	-14661
▁wrong	-14662
▁yacht	-14663
▁épave	-14664
▁éping	-14665
▁épées	-14666
affaiss	-14667
attache	-14668
illerie	-14669
issions	-14670
oliques	-14671
ouilles	-14672
oxygène	-14673
étendit	-14674
étudier	-14675
▁Harvey	-14676
▁Lequel	-14677
▁assist	-14678
▁bandit	-14679
▁coloss	-14680
▁cordon	-14681
▁courbe	-14682
▁dinner	-14683
▁disiez	-14684
▁dément	-14685
▁enferm	-14686
▁enragé	-14687
▁establ	-14688
▁fentes	-14689
▁flight	-14690
▁fourni	-14691
▁hatred	-14692
▁images	-14693
▁inerte	-14694
▁lancés	-14695
▁martyr	-14696
▁mérité	-14697
▁nourri	-14698
▁offres	-14699
▁payait	-14700
▁perman	-14701
▁privée	-14702
▁prîmes	-14703
▁pureté	-14704
▁rejeta	-14705
▁requin	-14706
▁sacrée	-14707
▁songes	-14708
▁superf	-14709
▁wooden	-14710
accorder	-14711
asseyant	-14712
aérostat	-14713
héritage	-14714
iliation	-14715
onnettes	-14716
ulations	-14717
▁Berwick	-14718
▁Quelles	-14719
▁amusing	-14720
▁anxious	-14721
▁boulets	-14722
▁brigade	-14723
▁briquet	-14724
▁casaque	-14725
▁chargea	-14726
▁cloison	-14727
▁compose	-14728
▁condesc	-14729
▁correct	-14730
▁céleste	-14731
▁desserv	-14732
▁devoted	-14733
▁directe	-14734
▁envoyée	-14735
▁fardeau	-14736
▁franche	-14737
▁fâcheux	-14738
▁geôlier	-14739
▁ignoble	-14740
▁mériter	-14741
▁ordonna	-14742
▁pardieu	-14743
▁perçait	-14744
▁plongée	-14745
▁princes	-14746
▁procédé	-14747
▁précédé	-14748
▁prépara	-14749
▁rendant	-14750
▁renoncé	-14751
[...]
