[PAD]	0
[UNK]	0
[EOS]	0
[BOS]	0
[SEP]	0
[CLS]	0
[MASK]	0
▁t	-0
he	-1
▁a	-2
in	-3
▁s	-4
▁the	-5
▁w	-6
re	-7
▁o	-8
ou	-9
nd	-10
ha	-11
er	-12
▁m	-13
it	-14
▁b	-15
is	-16
en	-17
▁c	-18
ed	-19
▁d	-20
▁f	-21
on	-22
▁to	-23
▁l	-24
▁p	-25
▁of	-26
es	-27
ing	-28
as	-29
▁and	-30
or	-31
ll	-32
ar	-33
▁h	-34
an	-35
▁he	-36
▁n	-37
▁in	-38
▁ha	-39
▁I	-40
at	-41
om	-42
▁e	-43
le	-44
hat	-45
▁g	-46
▁be	-47
ic	-48
ot	-49
▁"	-50
ut	-51
se	-52
im	-53
ent	-54
▁was	-55
ve	-56
ow	-57
▁re	-58
id	-59
ld	-60
▁th	-61
▁y	-62
st	-63
▁that	-64
▁u	-65
ce	-66
▁on	-67
▁wh	-68
ur	-69
ly	-70
▁it	-71
et	-72
ir	-73
gh	-74
ith	-75
▁you	-76
ver	-77
▁de	-78
▁with	-79
ion	-80
▁his	-81
▁T	-82
ad	-83
qu	-84
▁had	-85
ay	-86
al	-87
▁for	-88
▁r	-89
▁as	-90
▁we	-91
▁not	-92
▁st	-93
ac	-94
ght	-95
ould	-96
▁at	-97
▁her	-98
il	-99
▁se	-100
am	-101
▁me	-102
▁an	-103
▁M	-104
ain	-105
ri	-106
ill	-107
▁my	-108
ter	-109
▁A	-110
her	-111
ro	-112
▁him	-113
▁sa	-114
▁The	-115
▁H	-116
▁v	-117
ich	-118
▁is	-119
red	-120
ke	-121
▁which	-122
oo	-123
if	-124
▁qu	-125
our	-126
."	-127
▁so	-128
us	-129
▁le	-130
ore	-131
▁she	-132
ag	-133
pe	-134
▁su	-135
and	-136
ch	-137
▁have	-138
ant	-139
ess	-140
li	-141
▁fr	-142
▁C	-143
ct	-144
ous	-145
out	-146
▁ne	-147
▁S	-148
▁con	-149
▁by	-150
▁this	-151
res	-152
ard	-153
▁com	-154
ne	-155
▁sh	-156
▁all	-157
ble	-158
ight	-159
▁B	-160
all	-161
▁but	-162
▁up	-163
▁j	-164
te	-165
▁from	-166
▁ex	-167
▁k	-168
▁were	-169
th	-170
▁said	-171
ait	-172
▁la	-173
est	-174
lf	-175
▁who	-176
os	-177
ul	-178
▁fe	-179
▁they	-180
pp	-181
▁whe	-182
▁P	-183
ame	-184
ie	-185
▁would	-186
,"	-187
very	-188
ong	-189
ast	-190
▁no	-191
ust	-192
▁do	-193
ers	-194
ist	-195
▁one	-196
▁li	-197
em	-198
▁L	-199
ol	-200
▁or	-201
art	-202
▁un	-203
▁them	-204
▁en	-205
ome	-206
▁F	-207
ound	-208
▁pl	-209
▁al	-210
ation	-211
▁man	-212
un	-213
self	-214
ind	-215
▁W	-216
ure	-217
ap	-218
?"	-219
▁'	-220
ak	-221
▁ab	-222
han	-223
▁tr	-224
▁He	-225
ass	-226
ge	-227
ood	-228
um	-229
ort	-230
▁their	-231
▁out	-232
▁could	-233
one	-234
hed	-235
ell	-236
▁there	-237
ven	-238
ck	-239
ig	-240
▁been	-241
▁J	-242
▁N	-243
▁wor	-244
ice	-245
ire	-246
ide	-247
▁ar	-248
el	-249
▁will	-250
ate	-251
▁ag	-252
ace	-253
▁pr	-254
!"	-255
ked	-256
--	-257
▁G	-258
▁int	-259
▁are	-260
▁go	-261
ine	-262
▁when	-263
itt	-264
au	-265
▁tw	-266
ite	-267
own	-268
nt	-269
▁pro	-270
reat	-271
ved	-272
▁if	-273
ough	-274
▁am	-275
ive	-276
▁co	-277
able	-278
▁your	-279
▁af	-280
▁more	-281
▁et	-282
hing	-283
▁what	-284
ence	-285
▁mo	-286
ther	-287
ack	-288
urn	-289
▁gr	-290
ab	-291
▁ro	-292
▁br	-293
▁sp	-294
▁E	-295
▁tim	-296
ake	-297
▁lo	-298
ais	-299
lo	-300
▁very	-301
pt	-302
▁then	-303
▁D	-304
▁kn	-305
ought	-306
▁It	-307
▁some	-308
tain	-309
▁dis	-310
▁R	-311
ade	-312
▁us	-313
▁into	-314
▁im	-315
▁rep	-316
ans	-317
ment	-318
cc	-319
me	-320
ance	-321
▁des	-322
▁po	-323
ile	-324
ity	-325
▁again	-326
ud	-327
▁day	-328
nder	-329
age	-330
▁like	-331
▁à	-332
▁see	-333
▁any	-334
▁did	-335
ft	-336
av	-337
ress	-338
ep	-339
ry	-340
▁sha	-341
ave	-342
fore	-343
▁ad	-344
▁other	-345
way	-346
▁upon	-347
ittle	-348
ue	-349
ng	-350
▁two	-351
▁long	-352
▁over	-353
▁time	-354
▁hand	-355
▁than	-356
are	-357
▁too	-358
fe	-359
▁little	-360
ish	-361
▁ch	-362
▁should	-363
op	-364
ree	-365
▁O	-366
▁bo	-367
▁loo	-368
▁per	-369
▁que	-370
▁can	-371
▁only	-372
▁our	-373
▁say	-374
▁now	-375
▁But	-376
▁know	-377
che	-378
▁bl	-379
ated	-380
other	-381
▁pass	-382
ving	-383
▁comp	-384
▁made	-385
▁pre	-386
ra	-387
ps	-388
▁about	-389
▁pe	-390
ber	-391
▁rem	-392
we	-393
▁cha	-394
ions	-395
▁fo	-396
▁cl	-397
ried	-398
▁before	-399
ies	-400
ons	-401
▁great	-402
ious	-403
▁after	-404
ady	-405
king	-406
▁du	-407
▁its	-408
▁thought	-409
ose	-410
▁himself	-411
▁down	-412
▁has	-413
rie	-414
▁fir	-415
▁even	-416
ather	-417
co	-418
▁ey	-419
▁ob	-420
▁off	-421
▁must	-422
▁sur	-423
You	-424
ét	-425
od	-426
▁these	-427
▁how	-428
▁good	-429
▁under	-430
les	-431
▁str	-432
▁every	-433
▁without	-434
ary	-435
ally	-436
ars	-437
▁She	-438
ach	-439
ount	-440
▁res	-441
led	-442
ise	-443
uch	-444
ward	-445
ord	-446
▁And	-447
▁ap	-448
wn	-449
▁part	-450
ang	-451
ings	-452
▁;	-453
▁went	-454
▁par	-455
▁first	-456
ness	-457
▁Th	-458
▁cr	-459
▁il	-460
▁came	-461
▁cont	-462
▁les	-463
si	-464
▁back	-465
▁vo	-466
▁imp	-467
ife	-468
▁qui	-469
ux	-470
ild	-471
anc	-472
▁let	-473
int	-474
ty	-475
▁such	-476
▁never	-477
▁ent	-478
act	-479
▁spe	-480
de	-481
▁thr	-482
ened	-483
ared	-484
▁much	-485
▁bet	-486
▁come	-487
ull	-488
▁exp	-489
▁beg	-490
▁well	-491
ff	-492
orn	-493
▁wat	-494
ath	-495
iss	-496
ink	-497
▁sc	-498
▁Mr	-499
▁op	-500
▁ser	-501
ouse	-502
▁mar	-503
ai	-504
ful	-505
▁ret	-506
ied	-507
ign	-508
▁bec	-509
ves	-510
ont	-511
oment	-512
▁way	-513
ien	-514
▁might	-515
▁moment	-516
▁last	-517
rt	-518
▁seem	-519
ier	-520
llow	-521
▁sm	-522
▁where	-523
▁je	-524
ks	-525
agn	-526
▁eyes	-527
▁acc	-528
▁nothing	-529
aut	-530
lied	-531
▁ce	-532
▁head	-533
▁car	-534
▁still	-535
ix	-536
▁av	-537
▁ho	-538
air	-539
▁wom	-540
,'	-541
cl	-542
lle	-543
▁fl	-544
▁turn	-545
▁make	-546
▁young	-547
▁word	-548
▁found	-549
▁just	-550
▁Ju	-551
ick	-552
▁being	-553
▁gl	-554
hen	-555
▁replied	-556
ince	-557
riend	-558
que	-559
▁away	-560
ip	-561
▁une	-562
▁In	-563
mb	-564
ever	-565
▁friend	-566
▁.	-567
land	-568
▁saw	-569
▁They	-570
▁shall	-571
pect	-572
▁old	-573
less	-574
▁three	-575
ged	-576
▁left	-577
▁appe	-578
med	-579
▁son	-580
▁mon	-581
▁dist	-582
▁set	-583
▁end	-584
lt	-585
▁At	-586
▁There	-587
aking	-588
ille	-589
▁ke	-590
ors	-591
ond	-592
▁cons	-593
▁V	-594
▁This	-595
ui	-596
omet	-597
ished	-598
thing	-599
ily	-600
▁ét	-601
▁pres	-602
▁took	-603
▁pos	-604
▁te	-605
▁put	-606
iz	-607
ertain	-608
▁app	-609
▁Juli	-610
▁think	-611
▁ye	-612
▁dans	-613
ret	-614
.'	-615
▁pour	-616
▁Julien	-617
per	-618
▁cour	-619
▁wind	-620
der	-621
▁take	-622
enc	-623
tre	-624
▁cap	-625
▁those	-626
ens	-627
agnan	-628
Art	-629
Artagnan	-630
▁night	-631
▁through	-632
ted	-633
▁own	-634
▁seemed	-635
ction	-636
▁men	-637
sel	-638
ren	-639
▁au	-640
▁may	-641
▁che	-642
▁kne	-643
▁hour	-644
▁here	-645
▁soon	-646
▁return	-647
ting	-648
▁place	-649
leas	-650
▁myself	-651
ches	-652
▁once	-653
▁get	-654
▁most	-655
une	-656
lie	-657
und	-658
be	-659
ail	-660
▁Then	-661
▁while	-662
▁woman	-663
oub	-664
▁life	-665
▁house	-666
▁don	-667
vent	-668
▁asked	-669
ause	-670
▁tell	-671
▁call	-672
▁going	-673
▁door	-674
▁har	-675
▁pas	-676
iv	-677
▁face	-678
▁att	-679
▁cried	-680
▁happ	-681
▁lui	-682
▁inst	-683
aster	-684
vers	-685
▁bot	-686
▁heard	-687
▁hands	-688
▁same	-689
▁love	-690
ci	-691
▁comm	-692
here	-693
ner	-694
▁ter	-695
▁light	-696
ling	-697
▁sil	-698
▁heart	-699
▁want	-700
man	-701
▁arm	-702
ost	-703
▁room	-704
igh	-705
ched	-706
ways	-707
orm	-708
ced	-709
▁point	-710
▁having	-711
▁supp	-712
get	-713
▁somet	-714
▁min	-715
ition	-716
pr	-717
ée	-718
ither	-719
Yes	-720
adame	-721
ained	-722
▁reg	-723
thos	-724
▁looked	-725
▁against	-726
ently	-727
ru	-728
elle	-729
▁yet	-730
▁ans	-731
▁told	-732
rew	-733
ult	-734
ark	-735
gg	-736
wards	-737
je	-738
▁began	-739
▁pleas	-740
▁another	-741
▁La	-742
▁Cha	-743
▁We	-744
▁mat	-745
▁count	-746
▁certain	-747
▁You	-748
urs	-749
▁follow	-750
ered	-751
▁child	-752
ros	-753
▁wr	-754
ween	-755
▁tout	-756
▁rest	-757
sible	-758
oy	-759
▁pers	-760
▁bre	-761
▁though	-762
▁water	-763
▁ear	-764
ined	-765
▁chan	-766
What	-767
▁char	-768
rice	-769
▁Fab	-770
▁find	-771
pped	-772
▁ac	-773
▁felt	-774
mer	-775
fect	-776
▁air	-777
▁give	-778
ures	-779
arr	-780
▁hor	-781
▁plus	-782
▁always	-783
▁contin	-784
den	-785
▁As	-786
▁fort	-787
▁between	-788
ins	-789
▁dev	-790
▁gi	-791
▁ever	-792
ian	-793
▁dr	-794
▁conf	-795
▁whom	-796
▁fa	-797
ations	-798
és	-799
▁half	-800
▁Fabrice	-801
▁Fr	-802
ict	-803
▁herself	-804
▁few	-805
ows	-806
ase	-807
▁inc	-808
men	-809
▁gu	-810
aken	-811
▁ass	-812
ory	-813
▁sent	-814
▁near	-815
hy	-816
▁seen	-817
▁sea	-818
▁ref	-819
ating	-820
▁vous	-821
▁far	-822
entle	-823
ene	-824
▁round	-825
▁es	-826
▁Par	-827
▁add	-828
▁four	-829
ette	-830
▁morn	-831
ople	-832
ieur	-833
ement	-834
▁tal	-835
▁sw	-836
▁side	-837
oud	-838
▁knew	-839
▁each	-840
light	-841
▁morning	-842
iness	-843
onsieur	-844
lock	-845
▁Gr	-846
▁open	-847
▁right	-848
▁occ	-849
▁doub	-850
▁!	-851
▁sat	-852
▁new	-853
▁tre	-854
▁days	-855
éc	-856
▁gave	-857
▁work	-858
haps	-859
▁voice	-860
▁Mar	-861
▁met	-862
ten	-863
▁stre	-864
And	-865
the	-866
ured	-867
cei	-868
▁Madame	-869
osed	-870
ired	-871
▁many	-872
▁evening	-873
..	-874
lic	-875
▁gentle	-876
▁enough	-877
▁Her	-878
▁feel	-879
▁quite	-880
owed	-881
▁unc	-882
up	-883
xt	-884
▁passed	-885
so	-886
▁em	-887
▁mind	-888
selves	-889
▁belie	-890
▁dif	-891
▁nat	-892
▁cur	-893
▁ave	-894
ued	-895
▁look	-896
▁nor	-897
ning	-898
▁On	-899
▁avait	-900
▁1	-901
▁Le	-902
most	-903
▁sub	-904
▁people	-905
ale	-906
ove	-907
uck	-908
ery	-909
ters	-910
▁est	-911
▁When	-912
ool	-913
▁lar	-914
ub	-915
vant	-916
▁wal	-917
▁Je	-918
▁whole	-919
▁dire	-920
▁inf	-921
ison	-922
▁eng	-923
▁cle	-924
▁sl	-925
▁dep	-926
ower	-927
▁compan	-928
▁ins	-929
▁things	-930
▁since	-931
▁arri	-932
hes	-933
▁done	-934
▁inter	-935
▁mother	-936
ank	-937
az	-938
▁What	-939
ross	-940
▁name	-941
It	-942
roft	-943
aient	-944
▁:	-945
ject	-946
cess	-947
tend	-948
ère	-949
▁poor	-950
▁–	-951
irl	-952
ple	-953
ude	-954
ho	-955
▁got	-956
▁wait	-957
▁ind	-958
▁world	-959
▁father	-960
▁His	-961
ised	-962
▁doubt	-963
▁whose	-964
But	-965
▁ou	-966
▁cond	-967
ane	-968
ute	-969
encroft	-970
▁avec	-971
aring	-972
ular	-973
▁words	-974
The	-975
▁Pencroft	-976
ying	-977
▁fam	-978
ook	-979
undred	-980
▁sou	-981
Well	-982
▁hundred	-983
uring	-984
aught	-985
▁thing	-986
▁Ne	-987
▁était	-988
▁longer	-989
▁brought	-990
ents	-991
▁turned	-992
▁bro	-993
▁underst	-994
als	-995
ides	-996
▁something	-997
▁vis	-998
right	-999
▁inde	-1000
▁also	-1001
▁feet	-1002
▁master	-1003
▁sk	-1004
▁six	-1005
▁read	-1006
oke	-1007
ready	-1008
▁fall	-1009
ressed	-1010
aint	-1011
▁bed	-1012
No	-1013
its	-1014
▁rec	-1015
▁ide	-1016
▁full	-1017
▁girl	-1018
ately	-1019
vered	-1020
▁jour	-1021
omp	-1022
▁less	-1023
▁elle	-1024
▁years	-1025
eth	-1026
▁fire	-1027
▁towards	-1028
ser	-1029
▁Ar	-1030
cept	-1031
▁sir	-1032
ceived	-1033
▁gen	-1034
▁mid	-1035
▁sort	-1036
▁St	-1037
▁col	-1038
▁taken	-1039
▁fin	-1040
ason	-1041
▁dark	-1042
▁ste	-1043
▁already	-1044
oun	-1045
▁care	-1046
▁least	-1047
▁leave	-1048
▁captain	-1049
raw	-1050
▁better	-1051
orr	-1052
▁because	-1053
▁ma	-1054
use	-1055
ger	-1056
▁alone	-1057
enty	-1058
▁appeared	-1059
▁God	-1060
ached	-1061
▁almost	-1062
dden	-1063
▁black	-1064
▁hard	-1065
▁trou	-1066
▁large	-1067
▁both	-1068
mes	-1069
bert	-1070
▁perhaps	-1071
outh	-1072
▁clo	-1073
▁kind	-1074
gu	-1075
ousand	-1076
▁dit	-1077
▁quest	-1078
▁speak	-1079
hind	-1080
rent	-1081
▁plac	-1082
▁sle	-1083
▁sto	-1084
▁hum	-1085
▁bien	-1086
gether	-1087
▁sudden	-1088
▁My	-1089
used	-1090
amp	-1091
▁next	-1092
▁Athos	-1093
▁called	-1094
ster	-1095
ér	-1096
▁thousand	-1097
▁reco	-1098
▁themselves	-1099
arding	-1100
ater	-1101
▁ten	-1102
ange	-1103
ép	-1104
not	-1105
▁Ma	-1106
du	-1107
▁dear	-1108
▁ir	-1109
fort	-1110
ime	-1111
rest	-1112
▁anything	-1113
▁person	-1114
ces	-1115
▁lau	-1116
▁keep	-1117
▁behind	-1118
▁mis	-1119
▁wall	-1120
oir	-1121
▁dre	-1122
tle	-1123
tered	-1124
ient	-1125
Oh	-1126
val	-1127
▁_	-1128
cha	-1129
▁five	-1130
cy	-1131
ois	-1132
▁hon	-1133
▁gone	-1134
ets	-1135
▁island	-1136
day	-1137
cted	-1138
▁How	-1139
▁indeed	-1140
ention	-1141
▁eas	-1142
▁sec	-1143
ided	-1144
▁mais	-1145
▁among	-1146
▁si	-1147
▁ve	-1148
▁rather	-1149
▁sim	-1150
▁sure	-1151
▁Harding	-1152
▁everything	-1153
bit	-1154
▁lad	-1155
▁lay	-1156
▁uncle	-1157
▁sing	-1158
ned	-1159
▁boat	-1160
▁obser	-1161
tem	-1162
▁aff	-1163
▁sail	-1164
▁friends	-1165
▁wife	-1166
▁run	-1167
owing	-1168
▁prof	-1169
▁however	-1170
ken	-1171
▁K	-1172
▁inte	-1173
▁fore	-1174
▁Paris	-1175
▁grand	-1176
anger	-1177
ical	-1178
cond	-1179
▁?	-1180
omme	-1181
▁along	-1182
▁order	-1183
▁hear	-1184
▁suff	-1185
▁war	-1186
▁country	-1187
▁surpr	-1188
▁cette	-1189
gr	-1190
bed	-1191
▁together	-1192
▁Char	-1193
▁sign	-1194
▁cal	-1195
▁fur	-1196
▁(	-1197
ense	-1198
▁fut	-1199
▁pri	-1200
▁mist	-1201
▁letter	-1202
let	-1203
▁det	-1204
▁does	-1205
▁swe	-1206
▁Q	-1207
ible	-1208
ister	-1209
imes	-1210
▁small	-1211
▁continued	-1212
lp	-1213
▁vie	-1214
ages	-1215
yr	-1216
▁Mil	-1217
▁hus	-1218
▁tem	-1219
ual	-1220
▁If	-1221
▁present	-1222
inal	-1223
▁fell	-1224
▁prom	-1225
▁abs	-1226
▁lost	-1227
▁fine	-1228
▁list	-1229
▁remained	-1230
irc	-1231
▁till	-1232
▁stood	-1233
▁«	-1234
aim	-1235
▁ill	-1236
▁second	-1237
▁disc	-1238
▁land	-1239
▁returned	-1240
▁believe	-1241
00	-1242
▁above	-1243
▁beaut	-1244
ceed	-1245
ield	-1246
▁mil	-1247
▁fear	-1248
lan	-1249
▁exc	-1250
▁use	-1251
aptain	-1252
ering	-1253
▁adm	-1254
▁low	-1255
▁twenty	-1256
fic	-1257
room	-1258
▁able	-1259
to	-1260
▁Il	-1261
▁enc	-1262
▁hun	-1263
ards	-1264
▁home	-1265
▁Al	-1266
oney	-1267
clock	-1268
▁arms	-1269
▁form	-1270
▁table	-1271
▁sun	-1272
▁hours	-1273
▁coming	-1274
▁engine	-1275
!'	-1276
uis	-1277
ains	-1278
▁bene	-1279
▁Eng	-1280
▁bel	-1281
▁bar	-1282
▁need	-1283
▁high	-1284
▁stand	-1285
for	-1286
▁thus	-1287
▁death	-1288
▁rais	-1289
utes	-1290
▁ses	-1291
bour	-1292
That	-1293
▁For	-1294
▁el	-1295
ys	-1296
eng	-1297
▁dec	-1298
▁thir	-1299
▁bur	-1300
▁mot	-1301
ès	-1302
▁tou	-1303
▁best	-1304
▁hope	-1305
▁kept	-1306
▁circ	-1307
▁cold	-1308
▁disp	-1309
▁road	-1310
▁idea	-1311
▁wood	-1312
▁aw	-1313
▁given	-1314
▁short	-1315
iver	-1316
▁king	-1317
▁foot	-1318
▁month	-1319
▁adv	-1320
illed	-1321
▁instant	-1322
▁ele	-1323
▁sound	-1324
?'	-1325
▁white	-1326
▁expect	-1327
▁jo	-1328
▁-	-1329
band	-1330
▁pol	-1331
ances	-1332
wer	-1333
▁Ro	-1334
▁All	-1335
▁red	-1336
▁deep	-1337
▁dem	-1338
but	-1339
▁dé	-1340
ific	-1341
▁Sp	-1342
▁followed	-1343
▁U	-1344
▁step	-1345
▁window	-1346
▁Captain	-1347
▁brother	-1348
hile	-1349
ats	-1350
▁No	-1351
▁says	-1352
▁became	-1353
▁duches	-1354
▁looking	-1355
▁question	-1356
ety	-1357
▁vi	-1358
He	-1359
that	-1360
▁act	-1361
▁possible	-1362
▁shore	-1363
▁ground	-1364
▁Monsieur	-1365
cer	-1366
▁bus	-1367
▁silence	-1368
▁appro	-1369
▁others	-1370
▁So	-1371
▁cou	-1372
appe	-1373
mm	-1374
▁pet	-1375
wered	-1376
▁understand	-1377
▁money	-1378
▁sight	-1379
▁husband	-1380
gn	-1381
▁mur	-1382
▁answered	-1383
ushed	-1384
▁cent	-1385
▁Miss	-1386
▁terri	-1387
ial	-1388
ully	-1389
▁necess	-1390
▁reason	-1391
vid	-1392
ized	-1393
▁cut	-1394
▁draw	-1395
▁repe	-1396
liz	-1397
ock	-1398
▁play	-1399
▁Milady	-1400
▁cannot	-1401
▁hold	-1402
▁esc	-1403
▁times	-1404
▁opened	-1405
ilus	-1406
ia	-1407
ole	-1408
fter	-1409
▁Sir	-1410
autilus	-1411
▁making	-1412
▁matter	-1413
▁Herbert	-1414
▁minutes	-1415
ience	-1416
▁wish	-1417
▁ca	-1418
▁duchesse	-1419
▁pie	-1420
▁Eliz	-1421
itude	-1422
▁often	-1423
▁fellow	-1424
▁Mrs	-1425
▁ut	-1426
ited	-1427
▁help	-1428
▁Me	-1429
ville	-1430
▁fact	-1431
▁obli	-1432
ash	-1433
▁opp	-1434
▁That	-1435
esides	-1436
−−	-1437
ric	-1438
▁Fo	-1439
▁excl	-1440
enal	-1441
ments	-1442
▁gener	-1443
▁mer	-1444
▁card	-1445
dy	-1446
ody	-1447
onse	-1448
▁Y	-1449
▁aut	-1450
▁dro	-1451
▁rel	-1452
ER	-1453
▁unt	-1454
▁remem	-1455
▁tro	-1456
▁rose	-1457
▁engineer	-1458
▁close	-1459
▁ris	-1460
▁live	-1461
▁»	-1462
▁Cl	-1463
▁bon	-1464
riage	-1465
▁added	-1466
▁sever	-1467
▁pay	-1468
▁strange	-1469
▁ship	-1470
▁diffic	-1471
min	-1472
▁dead	-1473
▁quel	-1474
▁rock	-1475
▁comme	-1476
ton	-1477
▁appear	-1478
▁course	-1479
▁ran	-1480
fully	-1481
▁prop	-1482
▁tri	-1483
▁comple	-1484
▁family	-1485
ts	-1486
▁Is	-1487
▁anim	-1488
▁Nautilus	-1489
aves	-1490
▁true	-1491
ote	-1492
▁gre	-1493
▁power	-1494
aces	-1495
▁cor	-1496
▁prison	-1497
uit	-1498
▁eye	-1499
body	-1500
ilet	-1501
▁bu	-1502
ants	-1503
▁really	-1504
ils	-1505
abeth	-1506
▁port	-1507
▁Renal	-1508
▁beneath	-1509
▁suddenly	-1510
▁ext	-1511
▁eight	-1512
▁Elizabeth	-1513
ates	-1514
▁sleep	-1515
ider	-1516
▁mean	-1517
nes	-1518
▁const	-1519
br	-1520
▁thin	-1521
▁during	-1522
être	-1523
▁emb	-1524
▁gall	-1525
▁prov	-1526
▁inv	-1527
inc	-1528
ably	-1529
▁é	-1530
ching	-1531
▁bring	-1532
▁pur	-1533
▁imag	-1534
ert	-1535
yrus	-1536
▁several	-1537
▁din	-1538
▁Fogg	-1539
▁Por	-1540
ually	-1541
▁quar	-1542
▁Cyrus	-1543
▁Charles	-1544
▁earth	-1545
▁dri	-1546
▁conv	-1547
▁creat	-1548
▁until	-1549
▁lady	-1550
ror	-1551
ump	-1552
▁One	-1553
ract	-1554
▁ask	-1555
▁carried	-1556
▁manner	-1557
▁hur	-1558
aving	-1559
iously	-1560
▁either	-1561
▁entered	-1562
ienne	-1563
ieux	-1564
nded	-1565
▁ready	-1566
▁women	-1567
medi	-1568
▁Qu	-1569
▁ru	-1570
mber	-1571
▁eff	-1572
isf	-1573
▁breat	-1574
oc	-1575
va	-1576
▁cross	-1577
▁convers	-1578
▁express	-1579
▁mad	-1580
▁fait	-1581
▁cardinal	-1582
▁sn	-1583
▁children	-1584
Ah	-1585
▁nous	-1586
ls	-1587
oon	-1588
quis	-1589
▁answer	-1590
▁spoke	-1591
▁start	-1592
▁whether	-1593
▁clear	-1594
app	-1595
lish	-1596
ques	-1597
▁expl	-1598
▁viol	-1599
ec	-1600
rit	-1601
▁Not	-1602
▁become	-1603
ging	-1604
ours	-1605
ler	-1606
ists	-1607
▁sit	-1608
ib	-1609
▁ast	-1610
▁After	-1611
▁nature	-1612
you	-1613
gs	-1614
▁ord	-1615
▁horse	-1616
▁taking	-1617
▁within	-1618
▁Porthos	-1619
▁disco	-1620
▁fif	-1621
▁gard	-1622
▁strong	-1623
▁why	-1624
▁resol	-1625
▁stopped	-1626
▁Jane	-1627
▁real	-1628
▁faire	-1629
▁Ch	-1630
▁arr	-1631
aimed	-1632
▁An	-1633
▁fright	-1634
▁ces	-1635
▁desp	-1636
▁seeing	-1637
▁servant	-1638
oth	-1639
▁cat	-1640
orrow	-1641
▁corn	-1642
ounded	-1643
▁mouth	-1644
ues	-1645
▁impos	-1646
ham	-1647
▁satisf	-1648
▁respect	-1649
▁cast	-1650
▁means	-1651
dle	-1652
ouv	-1653
atter	-1654
▁begin	-1655
▁laugh	-1656
▁comte	-1657
▁prince	-1658
▁saying	-1659
▁account	-1660
sh	-1661
▁leng	-1662
▁exam	-1663
▁yourself	-1664
▁held	-1665
▁regard	-1666
ots	-1667
én	-1668
▁To	-1669
ilett	-1670
▁year	-1671
▁gentleman	-1672
urent	-1673
emo	-1674
▁front	-1675
▁sus	-1676
aw	-1677
nde	-1678
▁case	-1679
▁perfect	-1680
▁É	-1681
ket	-1682
▁used	-1683
--"	-1684
▁cry	-1685
▁Nemo	-1686
▁wee	-1687
pl	-1688
▁forg	-1689
▁main	-1690
▁move	-1691
▁glass	-1692
ney	-1693
asse	-1694
ution	-1695
▁immedi	-1696
▁interest	-1697
cri	-1698
▁break	-1699
▁past	-1700
▁known	-1701
ape	-1702
guer	-1703
▁trans	-1704
▁secret	-1705
▁certainly	-1706
▁ed	-1707
▁pleasure	-1708
aged	-1709
▁sister	-1710
▁wanted	-1711
▁pale	-1712
▁ann	-1713
▁mal	-1714
▁Lord	-1715
▁itself	-1716
ume	-1717
▁di	-1718
▁bit	-1719
▁length	-1720
▁heav	-1721
cher	-1722
iled	-1723
▁spr	-1724
▁placed	-1725
We	-1726
▁num	-1727
iful	-1728
▁pain	-1729
▁sold	-1730
guerite	-1731
▁Ét	-1732
amis	-1733
▁hair	-1734
▁scar	-1735
▁received	-1736
▁thoughts	-1737
orter	-1738
rig	-1739
▁mount	-1740
aded	-1741
ancs	-1742
▁town	-1743
▁dream	-1744
ze	-1745
resh	-1746
▁pal	-1747
▁quick	-1748
ley	-1749
▁Now	-1750
▁happy	-1751
▁Étienne	-1752
▁therefore	-1753
▁Marguerite	-1754
airs	-1755
▁rap	-1756
▁pret	-1757
▁voy	-1758
ening	-1759
était	-1760
▁danger	-1761
▁worth	-1762
My	-1763
rupt	-1764
ility	-1765
▁lips	-1766
bo	-1767
iers	-1768
▁joy	-1769
▁sch	-1770
tempt	-1771
▁exclaimed	-1772
▁conversation	-1773
iment	-1774
par	-1775
▁natur	-1776
▁offic	-1777
▁tried	-1778
▁2	-1779
ieu	-1780
▁sometimes	-1781
▁companions	-1782
end	-1783
▁yes	-1784
▁Aramis	-1785
▁reached	-1786
▁Bon	-1787
▁lear	-1788
▁sett	-1789
▁talk	-1790
▁accomp	-1791
▁distance	-1792
▁sal	-1793
Why	-1794
▁ven	-1795
▁else	-1796
▁Conse	-1797
▁fix	-1798
onder	-1799
▁stay	-1800
▁francs	-1801
ax	-1802
oss	-1803
▁fat	-1804
▁vol	-1805
▁succ	-1806
▁miles	-1807
ony	-1808
▁mine	-1809
▁occas	-1810
▁anx	-1811
▁Roche	-1812
▁necessary	-1813
onn	-1814
▁flo	-1815
ief	-1816
aven	-1817
side	-1818
aux	-1819
anite	-1820
▁hast	-1821
▁arrived	-1822
ges	-1823
umed	-1824
▁slow	-1825
▁fit	-1826
▁crow	-1827
HA	-1828
▁meet	-1829
▁bott	-1830
▁partic	-1831
aul	-1832
isted	-1833
▁diffe	-1834
▁visit	-1835
akes	-1836
ines	-1837
▁emp	-1838
▁blood	-1839
read	-1840
enn	-1841
▁extre	-1842
▁refle	-1843
▁pat	-1844
ination	-1845
oire	-1846
▁wished	-1847
▁hat	-1848
▁sol	-1849
ité	-1850
lled	-1851
▁struck	-1852
▁Conseil	-1853
▁neither	-1854
▁terrible	-1855
erm	-1856
▁stri	-1857
▁equ	-1858
fered	-1859
ident	-1860
ased	-1861
▁quiet	-1862
els	-1863
ming	-1864
▁Neb	-1865
▁art	-1866
itted	-1867
▁dest	-1868
▁pap	-1869
▁crowd	-1870
ped	-1871
▁Re	-1872
▁body	-1873
▁tears	-1874
▁business	-1875
tended	-1876
▁complete	-1877
▁impossible	-1878
▁immediately	-1879
▁poss	-1880
▁ought	-1881
iff	-1882
▁deg	-1883
▁daught	-1884
ities	-1885
▁deux	-1886
▁lived	-1887
▁shout	-1888
▁disappe	-1889
▁mus	-1890
▁aston	-1891
▁trees	-1892
▁bad	-1893
▁iron	-1894
uss	-1895
ême	-1896
urch	-1897
▁Pro	-1898
▁fig	-1899
▁serv	-1900
▁human	-1901
▁Spilett	-1902
▁consider	-1903
ern	-1904
▁ph	-1905
▁gaz	-1906
▁pit	-1907
▁sad	-1908
▁boy	-1909
inter	-1910
▁passion	-1911
ante	-1912
▁squ	-1913
▁requ	-1914
▁carry	-1915
▁sailor	-1916
▁around	-1917
ior	-1918
▁glo	-1919
▁tone	-1920
▁homme	-1921
retched	-1922
part	-1923
rait	-1924
essor	-1925
inary	-1926
▁Lond	-1927
itting	-1928
▁recogn	-1929
og	-1930
▁circum	-1931
▁beautiful	-1932
▁gentlemen	-1933
▁Ned	-1934
▁arch	-1935
▁fast	-1936
▁neigh	-1937
▁Laurent	-1938
oes	-1939
▁calm	-1940
▁easy	-1941
▁shut	-1942
▁fortune	-1943
yed	-1944
▁Tre	-1945
▁tor	-1946
ffect	-1947
▁acqu	-1948
▁wild	-1949
▁rép	-1950
▁free	-1951
oured	-1952
▁Mahe	-1953
▁occup	-1954
aire	-1955
▁big	-1956
▁—	-1957
▁ré	-1958
▁stud	-1959
teen	-1960
▁ball	-1961
▁gold	-1962
▁Therese	-1963
▁Pr	-1964
▁bell	-1965
▁direct	-1966
▁eat	-1967
▁conce	-1968
▁fresh	-1969
▁With	-1970
▁vill	-1971
tern	-1972
▁lead	-1973
▁soul	-1974
▁pretty	-1975
▁repeated	-1976
ms	-1977
nding	-1978
▁spir	-1979
Th	-1980
uc	-1981
ush	-1982
▁Hen	-1983
▁demand	-1984
▁observed	-1985
ex	-1986
▁Co	-1987
▁sav	-1988
▁London	-1989
tes	-1990
▁CHA	-1991
▁fre	-1992
▁led	-1993
▁rapid	-1994
▁obliged	-1995
ug	-1996
ées	-1997
▁fav	-1998
where	-1999
▁reply	-2000
TER	-2001
eor	-2002
▁Dar	-2003
▁bat	-2004
ishing	-2005
▁walked	-2006
vous	-2007
▁shad	-2008
▁heavy	-2009
▁months	-2010
▁Mme	-2011
▁ves	-2012
rence	-2013
▁fair	-2014
▁Be	-2015
ager	-2016
▁dou	-2017
▁deal	-2018
▁super	-2019
▁thick	-2020
▁Harr	-2021
▁Jo	-2022
▁ang	-2023
▁incre	-2024
▁produ	-2025
▁hop	-2026
▁river	-2027
▁living	-2028
▁rev	-2029
▁effect	-2030
rer	-2031
aced	-2032
raid	-2033
▁CHAP	-2034
▁drew	-2035
▁House	-2036
▁smile	-2037
▁jud	-2038
▁import	-2039
▁English	-2040
▁delight	-2041
orte	-2042
▁rid	-2043
▁shar	-2044
ût	-2045
▁post	-2046
▁Darcy	-2047
▁feeling	-2048
▁possess	-2049
▁monsieur	-2050
form	-2051
▁chance	-2052
▁simple	-2053
▁belong	-2054
▁waiting	-2055
▁attention	-2056
ctor	-2057
▁Geor	-2058
▁contr	-2059
▁midst	-2060
▁vessel	-2061
▁happened	-2062
▁del	-2063
▁These	-2064
▁raised	-2065
what	-2066
▁evid	-2067
▁prec	-2068
▁plain	-2069
▁covered	-2070
▁position	-2071
phe	-2072
night	-2073
▁burn	-2074
▁mass	-2075
▁noise	-2076
▁object	-2077
▁scarce	-2078
▁Se	-2079
inct	-2080
▁Jean	-2081
▁kiss	-2082
How	-2083
uge	-2084
▁bread	-2085
▁However	-2086
▁circumst	-2087
ôt	-2088
pend	-2089
▁afraid	-2090
ails	-2091
▁silent	-2092
ov	-2093
▁surf	-2094
If	-2095
▁Passe	-2096
partout	-2097
▁ver	-2098
▁vent	-2099
▁coast	-2100
▁broken	-2101
▁forward	-2102
▁bir	-2103
▁inn	-2104
iling	-2105
▁tous	-2106
of	-2107
bre	-2108
▁hang	-2109
▁dress	-2110
▁formed	-2111
▁remember	-2112
ugg	-2113
▁pa	-2114
ames	-2115
▁From	-2116
▁mere	-2117
▁narr	-2118
uff	-2119
▁compl	-2120
▁turning	-2121
▁Passepartout	-2122
igne	-2123
▁closed	-2124
ury	-2125
▁sans	-2126
▁conse	-2127
▁forget	-2128
▁priest	-2129
▁bottom	-2130
▁entire	-2131
ici	-2132
▁furn	-2133
There	-2134
▁murm	-2135
▁piece	-2136
▁remain	-2137
,−−	-2138
uth	-2139
ounds	-2140
▁hors	-2141
▁prob	-2142
▁Alice	-2143
▁board	-2144
▁later	-2145
▁charac	-2146
▁standing	-2147
unt	-2148
▁die	-2149
▁Pier	-2150
▁slight	-2151
▁occasion	-2152
▁church	-2153
▁view	-2154
▁X	-2155
ingly	-2156
▁inqu	-2157
▁Saint	-2158
▁press	-2159
▁trave	-2160
▁leaving	-2161
▁prevent	-2162
tained	-2163
▁loved	-2164
▁streng	-2165
mma	-2166
▁moi	-2167
▁success	-2168
▁presence	-2169
▁cab	-2170
ustom	-2171
▁cause	-2172
▁Island	-2173
ung	-2174
vern	-2175
▁cro	-2176
ones	-2177
▁pub	-2178
▁pull	-2179
▁walk	-2180
▁fight	-2181
▁subject	-2182
▁carriage	-2183
▁particular	-2184
▁jam	-2185
port	-2186
ining	-2187
▁company	-2188
▁natural	-2189
▁thinking	-2190
▁surprised	-2191
rench	-2192
▁Cand	-2193
▁shop	-2194
aulnes	-2195
▁garden	-2196
cell	-2197
ices	-2198
ceeded	-2199
▁watch	-2200
▁dinner	-2201
▁CHAPTER	-2202
ries	-2203
atherine	-2204
aled	-2205
▁warm	-2206
▁wonder	-2207
▁happiness	-2208
▁fing	-2209
▁across	-2210
▁surface	-2211
ead	-2212
ague	-2213
▁prep	-2214
acieux	-2215
ission	-2216
▁single	-2217
▁trouble	-2218
▁Meaulnes	-2219
▁creature	-2220
yond	-2221
▁fem	-2222
▁Emma	-2223
▁spite	-2224
▁except	-2225
▁forgot	-2226
▁Candide	-2227
▁Catherine	-2228
HE	-2229
▁depth	-2230
▁fixed	-2231
▁story	-2232
▁doing	-2233
▁caught	-2234
▁desire	-2235
▁daughter	-2236
▁tu	-2237
▁clot	-2238
▁plan	-2239
▁stone	-2240
ask	-2241
▁attempt	-2242
amed	-2243
ique	-2244
inion	-2245
▁event	-2246
▁steps	-2247
▁Rochester	-2248
aped	-2249
▁Math	-2250
▁surprise	-2251
▁div	-2252
▁Mais	-2253
▁fanc	-2254
▁week	-2255
though	-2256
▁tremb	-2257
▁speaking	-2258
hn	-2259
any	-2260
oul	-2261
umb	-2262
iced	-2263
▁bes	-2264
▁state	-2265
irt	-2266
ilde	-2267
▁top	-2268
antly	-2269
ively	-2270
▁slowly	-2271
▁Bonacieux	-2272
▁peu	-2273
▁neck	-2274
▁accept	-2275
▁strength	-2276
ds	-2277
fin	-2278
oint	-2279
▁Land	-2280
▁grew	-2281
▁truth	-2282
▁talking	-2283
▁sac	-2284
▁middle	-2285
▁courage	-2286
ize	-2287
ires	-2288
▁laid	-2289
▁different	-2290
ule	-2291
▁Gu	-2292
ented	-2293
▁extreme	-2294
▁running	-2295
▁“	-2296
rill	-2297
ceive	-2298
▁John	-2299
▁passage	-2300
lia	-2301
ndre	-2302
ussi	-2303
▁mort	-2304
▁show	-2305
▁chair	-2306
▁sweet	-2307
▁gun	-2308
anced	-2309
▁showed	-2310
omm	-2311
▁Ay	-2312
▁reach	-2313
▁accord	-2314
▁Mathilde	-2315
▁Can	-2316
▁exact	-2317
eb	-2318
▁school	-2319
▁Mole	-2320
▁fool	-2321
▁exist	-2322
▁George	-2323
▁nearly	-2324
▁England	-2325
▁filled	-2326
▁perm	-2327
▁devil	-2328
▁De	-2329
▁aux	-2330
▁suc	-2331
▁seems	-2332
fection	-2333
by	-2334
▁threw	-2335
vel	-2336
oute	-2337
ctions	-2338
▁force	-2339
▁effort	-2340
▁thirty	-2341
▁character	-2342
ah	-2343
ron	-2344
ously	-2345
▁concer	-2346
▁journey	-2347
▁reporter	-2348
▁understood	-2349
Then	-2350
hant	-2351
rton	-2352
▁age	-2353
udence	-2354
▁habit	-2355
▁arrang	-2356
▁confess	-2357
▁Treville	-2358
oup	-2359
usion	-2360
▁line	-2361
▁condu	-2362
▁beyond	-2363
▁change	-2364
▁windows	-2365
gy	-2366
▁lim	-2367
▁won	-2368
▁magn	-2369
cially	-2370
pter	-2371
▁Mus	-2372
▁empt	-2373
▁soft	-2374
▁French	-2375
▁easily	-2376
Do	-2377
▁fer	-2378
▁pen	-2379
▁grave	-2380
mp	-2381
▁où	-2382
ature	-2383
ortun	-2384
morrow	-2385
▁desce	-2386
▁exper	-2387
▁heads	-2388
▁scarcely	-2389
▁following	-2390
▁remar	-2391
▁rocks	-2392
▁walls	-2393
▁corner	-2394
▁giving	-2395
▁number	-2396
▁drawing	-2397
▁passing	-2398
▁shoulders	-2399
▁former	-2400
▁pi	-2401
like	-2402
▁Fel	-2403
▁mem	-2404
▁send	-2405
▁burst	-2406
ingoire	-2407
▁beginning	-2408
▁hot	-2409
▁opinion	-2410
▁resumed	-2411
▁Gringoire	-2412
▁afterwards	-2413
lly	-2414
ope	-2415
sib	-2416
otre	-2417
▁King	-2418
▁blue	-2419
▁cand	-2420
▁broke	-2421
▁difficult	-2422
▁sy	-2423
▁sens	-2424
▁advant	-2425
▁hardly	-2426
esty	-2427
hold	-2428
▁été	-2429
▁Granite	-2430
▁darkness	-2431
▁situ	-2432
▁toward	-2433
bs	-2434
▁incl	-2435
▁peut	-2436
▁rich	-2437
▁separ	-2438
▁seven	-2439
▁figure	-2440
pecially	-2441
▁comfort	-2442
▁condition	-2443
▁cet	-2444
ailed	-2445
▁decl	-2446
▁lean	-2447
▁common	-2448
▁resolved	-2449
▁und	-2450
ennet	-2451
▁Here	-2452
▁seized	-2453
▁getting	-2454
▁suppose	-2455
▁disappeared	-2456
▁stra	-2457
▁Ayrton	-2458
▁waters	-2459
ply	-2460
head	-2461
▁pock	-2462
▁ladies	-2463
▁motion	-2464
▁appearance	-2465
acon	-2466
kete	-2467
▁news	-2468
▁sense	-2469
▁fle	-2470
▁sum	-2471
▁breath	-2472
▁mistress	-2473
▁escape	-2474
af	-2475
erable	-2476
▁faith	-2477
▁meant	-2478
▁jamais	-2479
▁Muskete	-2480
▁letters	-2481
▁service	-2482
▁perceived	-2483
wo	-2484
oly	-2485
▁THE	-2486
pping	-2487
In	-2488
ays	-2489
▁gén	-2490
▁waves	-2491
itation	-2492
▁depart	-2493
▁cru	-2494
▁law	-2495
ardon	-2496
▁emplo	-2497
▁horses	-2498
alth	-2499
▁kill	-2500
▁distur	-2501
▁Ce	-2502
This	-2503
▁Hol	-2504
▁prem	-2505
▁yell	-2506
▁lower	-2507
▁Bennet	-2508
▁Besides	-2509
▁general	-2510
▁quarter	-2511
▁expression	-2512
▁Do	-2513
▁spo	-2514
oiselle	-2515
▁married	-2516
▁quickly	-2517
▁Un	-2518
▁fro	-2519
▁spot	-2520
▁despair	-2521
▁expected	-2522
▁direction	-2523
oof	-2524
▁dut	-2525
▁val	-2526
dered	-2527
▁book	-2528
▁public	-2529
▁spread	-2530
▁decided	-2531
▁further	-2532
cean	-2533
▁below	-2534
▁France	-2535
▁neighbour	-2536
lers	-2537
▁Jim	-2538
▁hes	-2539
▁sli	-2540
otion	-2541
aching	-2542
▁quelque	-2543
aud	-2544
▁...	-2545
▁didn	-2546
▁glad	-2547
▁rain	-2548
▁Every	-2549
▁terror	-2550
▁moments	-2551
▁especially	-2552
hor	-2553
ulty	-2554
▁hung	-2555
▁besides	-2556
▁consequ	-2557
asc	-2558
▁Du	-2559
ayed	-2560
arent	-2561
▁bank	-2562
▁occur	-2563
▁glance	-2564
▁straight	-2565
can	-2566
▁cel	-2567
▁sear	-2568
▁soci	-2569
▁horiz	-2570
▁sword	-2571
▁future	-2572
kn	-2573
iter	-2574
▁dog	-2575
▁strugg	-2576
ift	-2577
str	-2578
fast	-2579
▁Why	-2580
ument	-2581
▁Bing	-2582
▁pens	-2583
▁handsome	-2584
▁perfectly	-2585
▁id	-2586
rist	-2587
well	-2588
▁lie	-2589
▁corr	-2590
▁vain	-2591
▁admir	-2592
▁green	-2593
▁knows	-2594
▁listened	-2595
▁bas	-2596
▁moved	-2597
▁forest	-2598
▁killed	-2599
▁seated	-2600
▁Mad	-2601
▁usual	-2602
▁street	-2603
▁circumstances	-2604
To	-2605
bb	-2606
▁pu	-2607
élia	-2608
ashion	-2609
▁allow	-2610
écri	-2611
▁try	-2612
icked	-2613
▁save	-2614
▁spec	-2615
▁Never	-2616
▁Clélia	-2617
▁Bingley	-2618
oned	-2619
▁Bar	-2620
▁enj	-2621
▁sky	-2622
ables	-2623
habit	-2624
ideon	-2625
▁hill	-2626
▁none	-2627
▁Gideon	-2628
▁Holmes	-2629
▁rising	-2630
▁By	-2631
▁Oh	-2632
▁Cam	-2633
ég	-2634
ips	-2635
elve	-2636
ouve	-2637
▁encore	-2638
▁mention	-2639
II	-2640
rees	-2641
rief	-2642
fortun	-2643
▁cloud	-2644
▁allowed	-2645
▁chamber	-2646
▁van	-2647
mense	-2648
▁sole	-2649
▁marry	-2650
▁3	-2651
ilt	-2652
▁cre	-2653
▁cher	-2654
▁drag	-2655
▁stop	-2656
▁weak	-2657
▁interrupt	-2658
▁cost	-2659
▁dread	-2660
▁floor	-2661
▁animal	-2662
▁waited	-2663
▁clothes	-2664
emoiselle	-2665
▁affection	-2666
),	-2667
acle	-2668
eness	-2669
iting	-2670
▁colon	-2671
▁Felton	-2672
▁finished	-2673
▁difficulty	-2674
ative	-2675
▁command	-2676
▁watched	-2677
olog	-2678
▁box	-2679
▁Mont	-2680
▁clim	-2681
▁village	-2682
Come	-2683
▁deli	-2684
▁yeux	-2685
▁comes	-2686
lig	-2687
rès	-2688
ière	-2689
▁ren	-2690
lling	-2691
▁pict	-2692
▁pouv	-2693
action	-2694
▁fifty	-2695
▁Harris	-2696
▁please	-2697
▁proper	-2698
chet	-2699
▁height	-2700
▁serious	-2701
...	-2702
rel	-2703
ades	-2704
ored	-2705
▁hid	-2706
▁fish	-2707
▁purs	-2708
▁ring	-2709
▁whis	-2710
▁enjoy	-2711
▁heaven	-2712
▁twelve	-2713
▁believed	-2714
usted	-2715
▁bare	-2716
▁exec	-2717
▁enter	-2718
▁north	-2719
▁trois	-2720
▁Chapter	-2721
,--	-2722
▁ago	-2723
ounced	-2724
▁voyage	-2725
ouis	-2726
▁Let	-2727
▁fois	-2728
fessor	-2729
▁beast	-2730
▁paper	-2731
▁queen	-2732
▁talked	-2733
▁absol	-2734
▁descri	-2735
rawn	-2736
acked	-2737
▁late	-2738
ob	-2739
oi	-2740
etr	-2741
▁Ly	-2742
cent	-2743
▁puis	-2744
▁steam	-2745
▁teeth	-2746
Is	-2747
oe	-2748
pic	-2749
▁En	-2750
▁var	-2751
▁dont	-2752
▁spent	-2753
▁immense	-2754
▁offer	-2755
▁commun	-2756
▁counten	-2757
▁opening	-2758
wise	-2759
▁fart	-2760
▁gest	-2761
▁frequ	-2762
▁knees	-2763
ishment	-2764
▁bright	-2765
▁dressed	-2766
▁entirely	-2767
known	-2768
▁sand	-2769
▁jeune	-2770
▁speed	-2771
▁offered	-2772
▁walking	-2773
ili	-2774
old	-2775
ases	-2776
hood	-2777
llig	-2778
▁bear	-2779
▁concl	-2780
▁noble	-2781
▁wrong	-2782
▁Camille	-2783
▁advantage	-2784
oles	-2785
▁dom	-2786
▁abbe	-2787
▁cell	-2788
▁donn	-2789
▁infl	-2790
▁vast	-2791
▁utter	-2792
▁narrow	-2793
▁stranger	-2794
Not	-2795
auv	-2796
▁Ah	-2797
aste	-2798
▁même	-2799
▁oppos	-2800
▁peace	-2801
▁third	-2802
▁fallen	-2803
▁latter	-2804
▁Marquis	-2805
▁pleased	-2806
▁weather	-2807
▁discovered	-2808
ph	-2809
She	-2810
éral	-2811
▁pun	-2812
▁obst	-2813
▁purp	-2814
ically	-2815
▁bound	-2816
▁honour	-2817
lin	-2818
semb	-2819
▁beat	-2820
▁blow	-2821
▁deser	-2822
▁den	-2823
▁med	-2824
itten	-2825
▁fais	-2826
▁enorm	-2827
▁guard	-2828
▁marriage	-2829
odo	-2830
ives	-2831
▁sin	-2832
while	-2833
▁roof	-2834
▁chest	-2835
▁fashion	-2836
sed	-2837
atre	-2838
▁ble	-2839
▁wit	-2840
▁outside	-2841
anqu	-2842
happ	-2843
▁apart	-2844
▁field	-2845
▁toute	-2846
▁stream	-2847
▁charming	-2848
▁er	-2849
▁od	-2850
iday	-2851
avait	-2852
ories	-2853
▁spect	-2854
▁write	-2855
▁degrees	-2856
arer	-2857
▁nom	-2858
antic	-2859
itated	-2860
▁mes	-2861
ality	-2862
▁proc	-2863
theless	-2864
▁pieces	-2865
▁shoulder	-2866
tis	-2867
▁self	-2868
▁suis	-2869
▁impat	-2870
▁petit	-2871
▁treat	-2872
▁settle	-2873
▁movement	-2874
▁Pl	-2875
▁hall	-2876
▁Parme	-2877
cellent	-2878
▁honest	-2879
▁learned	-2880
▁colonists	-2881
pse	-2882
zen	-2883
▁ev	-2884
lesh	-2885
▁ign	-2886
ouses	-2887
▁shook	-2888
▁south	-2889
▁storm	-2890
▁double	-2891
▁forced	-2892
▁horizon	-2893
ez	-2894
▁ears	-2895
▁tall	-2896
▁class	-2897
▁drink	-2898
atitude	-2899
▁madame	-2900
▁regret	-2901
▁thrown	-2902
▁farther	-2903
▁Rue	-2904
alous	-2905
▁vict	-2906
erhaps	-2907
gar	-2908
fied	-2909
ested	-2910
▁stro	-2911
▁ocean	-2912
▁justice	-2913
▁intellig	-2914
▁breakfast	-2915
angu	-2916
under	-2917
▁Well	-2918
▁build	-2919
▁plate	-2920
▁although	-2921
ey	-2922
acy	-2923
aked	-2924
ified	-2925
osing	-2926
▁Rass	-2927
▁enem	-2928
▁pist	-2929
▁stir	-2930
▁tour	-2931
▁après	-2932
▁crime	-2933
▁pocket	-2934
▁temper	-2935
▁coal	-2936
▁path	-2937
▁pride	-2938
▁orders	-2939
▁tender	-2940
▁knowing	-2941
▁ner	-2942
ising	-2943
▁countenance	-2944
uli	-2945
▁impr	-2946
▁loud	-2947
▁nine	-2948
▁wide	-2949
▁agree	-2950
▁delic	-2951
ina	-2952
▁Et	-2953
heur	-2954
▁band	-2955
▁pity	-2956
▁aband	-2957
▁becom	-2958
▁early	-2959
▁relie	-2960
▁listen	-2961
▁purpose	-2962
▁enormous	-2963
▁companion	-2964
000	-2965
asim	-2966
vere	-2967
▁coun	-2968
▁empty	-2969
▁minute	-2970
▁spirit	-2971
▁square	-2972
come	-2973
▁Fix	-2974
▁Maj	-2975
▁Ver	-2976
▁dés	-2977
▁entr	-2978
▁pray	-2979
idence	-2980
▁Canad	-2981
▁colle	-2982
▁forty	-2983
▁instead	-2984
▁officer	-2985
▁started	-2986
▁existence	-2987
▁approached	-2988
iety	-2989
uous	-2990
▁Ind	-2991
▁mor	-2992
▁duty	-2993
▁priv	-2994
▁gloom	-2995
▁train	-2996
ression	-2997
▁toutes	-2998
▁Professor	-2999
▁forgotten	-3000
oman	-3001
▁avo	-3002
bered	-3003
▁amid	-3004
▁cler	-3005
▁horri	-3006
▁sharp	-3007
asimodo	-3008
▁settled	-3009
▁opportun	-3010
▁coup	-3011
▁drawn	-3012
▁beauty	-3013
▁convict	-3014
with	-3015
▁sor	-3016
▁Just	-3017
▁died	-3018
▁flesh	-3019
▁repro	-3020
▁rushed	-3021
▁sitting	-3022
▁Br	-3023
ator	-3024
▁lac	-3025
▁song	-3026
▁summ	-3027
racted	-3028
▁aussi	-3029
▁threat	-3030
▁support	-3031
▁written	-3032
iant	-3033
mbre	-3034
▁dim	-3035
▁mut	-3036
▁Some	-3037
▁legs	-3038
▁voir	-3039
venture	-3040
▁Pierre	-3041
▁preser	-3042
▁disting	-3043
▁Quasimodo	-3044
sc	-3045
oln	-3046
ption	-3047
▁agre	-3048
▁sous	-3049
incoln	-3050
▁violent	-3051
▁ourselves	-3052
fer	-3053
onne	-3054
ooks	-3055
▁bent	-3056
▁faut	-3057
▁wine	-3058
▁fever	-3059
▁liked	-3060
▁scene	-3061
▁vague	-3062
▁général	-3063
ork	-3064
oses	-3065
▁dry	-3066
heure	-3067
incip	-3068
▁bill	-3069
▁flow	-3070
▁lose	-3071
▁shot	-3072
▁anxious	-3073
▁noticed	-3074
▁Canadian	-3075
▁aim	-3076
ences	-3077
meric	-3078
▁yield	-3079
▁murmured	-3080
▁coll	-3081
itions	-3082
ushing	-3083
▁lying	-3084
▁tranqu	-3085
▁Lincoln	-3086
▁contrary	-3087
éd	-3088
▁Com	-3089
igneur	-3090
▁faces	-3091
▁plant	-3092
▁unknown	-3093
▁uttered	-3094
▁Mademoiselle	-3095
jo	-3096
my	-3097
uf	-3098
leep	-3099
▁fly	-3100
▁flat	-3101
▁meas	-3102
▁moon	-3103
▁paid	-3104
▁ideas	-3105
▁simply	-3106
▁increased	-3107
.,	-3108
ics	-3109
psy	-3110
Good	-3111
▁lod	-3112
idered	-3113
▁Americ	-3114
▁memory	-3115
▁falling	-3116
▁Ra	-3117
▁gy	-3118
▁parl	-3119
▁affair	-3120
▁changed	-3121
kes	-3122
ral	-3123
▁smo	-3124
iture	-3125
ledge	-3126
▁favour	-3127
Now	-3128
▁cho	-3129
▁fet	-3130
▁som	-3131
▁grow	-3132
▁lamp	-3133
▁mill	-3134
▁pill	-3135
▁girls	-3136
▁party	-3137
▁troub	-3138
▁spring	-3139
▁escaped	-3140
▁satisfied	-3141
hern	-3142
field	-3143
▁ende	-3144
▁pract	-3145
▁address	-3146
▁pointed	-3147
▁excellent	-3148
isc	-3149
oor	-3150
ians	-3151
cious	-3152
▁fond	-3153
▁game	-3154
▁surr	-3155
▁whatever	-3156
AR	-3157
vé	-3158
ald	-3159
▁18	-3160
illy	-3161
▁cous	-3162
▁Maheu	-3163
ference	-3164
▁shadow	-3165
▁winter	-3166
▁shouted	-3167
▁magnific	-3168
▁opportunity	-3169
▁Ab	-3170
itty	-3171
▁ban	-3172
▁city	-3173
▁dare	-3174
▁lock	-3175
▁mont	-3176
itable	-3177
vering	-3178
▁shock	-3179
▁affect	-3180
▁determ	-3181
▁animals	-3182
▁inhabit	-3183
▁occurred	-3184
▁pleasant	-3185
cul	-3186
▁lit	-3187
▁chee	-3188
▁huge	-3189
▁soir	-3190
▁trop	-3191
▁eager	-3192
▁extra	-3193
▁femme	-3194
▁makes	-3195
▁votre	-3196
▁notice	-3197
▁yellow	-3198
▁completely	-3199
osp	-3200
unk	-3201
agues	-3202
jours	-3203
▁bran	-3204
▁leur	-3205
▁moor	-3206
▁endeav	-3207
▁distingu	-3208
▁feelings	-3209
▁laughing	-3210
▁profound	-3211
▁motionless	-3212
So	-3213
live	-3214
▁Bov	-3215
▁cart	-3216
▁host	-3217
▁knock	-3218
▁uneas	-3219
▁Bovary	-3220
▁police	-3221
ital	-3222
▁tra	-3223
▁jours	-3224
▁discuss	-3225
▁princip	-3226
▁promised	-3227
êt	-3228
▁lif	-3229
▁rend	-3230
hileas	-3231
▁avoir	-3232
▁cheval	-3233
▁pardon	-3234
▁recall	-3235
▁result	-3236
▁burning	-3237
ête	-3238
▁pron	-3239
▁être	-3240
▁blind	-3241
▁smiled	-3242
▁promise	-3243
▁toujours	-3244
▁aud	-3245
▁env	-3246
▁beha	-3247
▁polit	-3248
lanchet	-3249
▁absolute	-3250
▁quelques	-3251
ech	-3252
▁Lyd	-3253
ashed	-3254
ivers	-3255
▁cord	-3256
deacon	-3257
▁prote	-3258
▁doctor	-3259
▁exactly	-3260
▁touched	-3261
▁opposite	-3262
bor	-3263
ids	-3264
▁hist	-3265
▁Louis	-3266
▁forth	-3267
▁proud	-3268
▁beside	-3269
▁succeeded	-3270
RE	-3271
arm	-3272
▁beau	-3273
▁heat	-3274
▁safe	-3275
▁asleep	-3276
▁suspic	-3277
▁crossed	-3278
▁occupied	-3279
▁situation	-3280
,000	-3281
chan	-3282
ghed	-3283
▁voul	-3284
▁Their	-3285
▁relig	-3286
▁breast	-3287
▁pounds	-3288
▁Phileas	-3289
IN	-3290
Let	-3291
ebus	-3292
esse	-3293
nest	-3294
▁Top	-3295
▁sen	-3296
chief	-3297
osity	-3298
hoebus	-3299
▁court	-3300
▁guess	-3301
▁melan	-3302
▁bitter	-3303
▁fifteen	-3304
▁greatly	-3305
▁settlers	-3306
zy	-3307
sez	-3308
▁éc	-3309
oted	-3310
vait	-3311
aming	-3312
owned	-3313
▁langu	-3314
▁saved	-3315
▁Friday	-3316
▁ladder	-3317
▁society	-3318
lop	-3319
choly	-3320
oland	-3321
▁lors	-3322
angers	-3323
iments	-3324
▁During	-3325
▁holding	-3326
▁quietly	-3327
▁advanced	-3328
▁extraord	-3329
amb	-3330
Here	-3331
ding	-3332
mble	-3333
▁Fer	-3334
▁dam	-3335
ision	-3336
icated	-3337
▁anger	-3338
▁ignor	-3339
▁worse	-3340
▁caused	-3341
▁heures	-3342
▁greater	-3343
▁prepared	-3344
▁wretched	-3345
ker	-3346
nel	-3347
rom	-3348
Very	-3349
aiss	-3350
▁gate	-3351
▁stup	-3352
terday	-3353
▁depths	-3354
▁petite	-3355
▁Planchet	-3356
▁stretched	-3357
▁melancholy	-3358
athe	-3359
iner	-3360
▁embr	-3361
▁firm	-3362
▁prés	-3363
▁chose	-3364
▁disait	-3365
▁feared	-3366
▁inform	-3367
▁supper	-3368
▁current	-3369
▁Sc	-3370
▁wa	-3371
▁tow	-3372
▁doors	-3373
▁quand	-3374
▁Master	-3375
▁houses	-3376
▁nobody	-3377
hich	-3378
▁Rod	-3379
▁dir	-3380
▁hig	-3381
▁phy	-3382
▁pow	-3383
▁pier	-3384
▁prev	-3385
▁rise	-3386
▁star	-3387
▁tree	-3388
lished	-3389
▁brill	-3390
▁broad	-3391
▁likely	-3392
▁served	-3393
▁suffer	-3394
▁archdeacon	-3395
how	-3396
▁resp	-3397
▁tong	-3398
▁While	-3399
▁temps	-3400
▁possib	-3401
go	-3402
▁New	-3403
▁fun	-3404
house	-3405
▁miss	-3406
icient	-3407
▁fatig	-3408
▁liber	-3409
▁monde	-3410
▁grande	-3411
▁stones	-3412
▁fingers	-3413
▁wounded	-3414
▁questions	-3415
esp	-3416
ache	-3417
ament	-3418
▁peri	-3419
vation	-3420
▁autre	-3421
▁worthy	-3422
▁finding	-3423
▁leagues	-3424
▁regular	-3425
▁astonished	-3426
ams	-3427
chen	-3428
ests	-3429
▁Two	-3430
▁deb	-3431
▁comb	-3432
▁phil	-3433
▁seas	-3434
pected	-3435
▁lines	-3436
▁sides	-3437
▁assist	-3438
▁attack	-3439
▁attend	-3440
▁corral	-3441
▁donner	-3442
▁strike	-3443
▁unhapp	-3444
▁weight	-3445
rodu	-3446
▁Was	-3447
▁wis	-3448
▁touch	-3449
▁wrote	-3450
▁agreed	-3451
▁meters	-3452
▁sought	-3453
ism	-3454
▁Am	-3455
cing	-3456
iles	-3457
urope	-3458
▁nose	-3459
▁suiv	-3460
ancing	-3461
▁gypsy	-3462
▁places	-3463
▁trying	-3464
ols	-3465
They	-3466
uses	-3467
▁thro	-3468
▁vers	-3469
▁wand	-3470
▁ended	-3471
▁hoped	-3472
▁porte	-3473
▁attent	-3474
now	-3475
rade	-3476
▁Que	-3477
▁faç	-3478
ishop	-3479
quise	-3480
▁grief	-3481
▁station	-3482
▁unfortun	-3483
▁mod	-3484
▁pros	-3485
▁virt	-3486
▁elect	-3487
▁mistaken	-3488
▁interrupted	-3489
icks	-3490
quin	-3491
▁bal	-3492
▁exha	-3493
▁seat	-3494
▁chief	-3495
▁stair	-3496
▁twice	-3497
▁pulled	-3498
▁pressed	-3499
▁greatest	-3500
▁transport	-3501
vi	-3502
hip	-3503
she	-3504
bing	-3505
ises	-3506
uted	-3507
▁cit	-3508
board	-3509
▁Lady	-3510
▁camp	-3511
▁diam	-3512
▁fault	-3513
▁répond	-3514
▁gallery	-3515
▁putting	-3516
▁ur	-3517
atic	-3518
leur	-3519
quet	-3520
▁fac	-3521
▁gle	-3522
▁kit	-3523
▁brid	-3524
▁plat	-3525
▁angry	-3526
▁coach	-3527
▁grass	-3528
▁action	-3529
▁horror	-3530
▁moving	-3531
▁silver	-3532
▁unable	-3533
▁Phoebus	-3534
▁acquaint	-3535
▁horrible	-3536
▁important	-3537
▁da	-3538
▁gar	-3539
igned	-3540
▁Elle	-3541
▁conn	-3542
▁myst	-3543
isters	-3544
▁gazed	-3545
▁sacri	-3546
▁singular	-3547
▁Musketeers	-3548
ître	-3549
▁Mer	-3550
▁arg	-3551
▁civ	-3552
▁ils	-3553
▁inj	-3554
▁suf	-3555
▁March	-3556
▁honor	-3557
▁influ	-3558
▁smoke	-3559
▁thank	-3560
▁speech	-3561
▁explain	-3562
▁accompan	-3563
aff	-3564
vet	-3565
ault	-3566
osop	-3567
▁Nor	-3568
▁betr	-3569
▁curi	-3570
stairs	-3571
▁tired	-3572
▁dining	-3573
▁fortun	-3574
▁introdu	-3575
▁kitchen	-3576
▁étaient	-3577
▁evidently	-3578
▁Our	-3579
▁jus	-3580
▁wha	-3581
▁edge	-3582
▁dying	-3583
▁rough	-3584
▁sorry	-3585
▁mountain	-3586
▁trembling	-3587
▁magnificent	-3588
Who	-3589
over	-3590
▁hide	-3591
▁shud	-3592
▁skin	-3593
ickham	-3594
rieres	-3595
▁destro	-3596
▁embarr	-3597
▁remark	-3598
▁search	-3599
▁arrival	-3600
▁useless	-3601
▁extremely	-3602
▁yesterday	-3603
▁May	-3604
▁mir	-3605
▁rien	-3606
▁Kitty	-3607
▁bless	-3608
▁dared	-3609
▁Europe	-3610
▁chambre	-3611
▁conduct	-3612
▁according	-3613
aur	-3614
uded	-3615
▁eld	-3616
▁wid	-3617
cient	-3618
orous	-3619
▁harm	-3620
▁semb	-3621
tering	-3622
ucking	-3623
▁avoid	-3624
▁battle	-3625
▁growing	-3626
▁reading	-3627
▁receive	-3628
▁streets	-3629
▁supposed	-3630
▁Verrieres	-3631
▁determined	-3632
▁satisfaction	-3633
do	-3634
att	-3635
onel	-3636
▁Yes	-3637
▁imm	-3638
▁pied	-3639
atures	-3640
uments	-3641
▁alive	-3642
▁avant	-3643
▁conne	-3644
▁nouve	-3645
▁leaves	-3646
▁laughed	-3647
▁philosop	-3648
▁sentence	-3649
▁servants	-3650
▁considered	-3651
ié	-3652
▁Z	-3653
loo	-3654
wed	-3655
insi	-3656
▁def	-3657
using	-3658
▁plun	-3659
▁rejo	-3660
▁lover	-3661
▁depuis	-3662
▁period	-3663
▁propos	-3664
▁Wickham	-3665
▁jealous	-3666
▁presented	-3667
▁returning	-3668
fish	-3669
▁Hom	-3670
▁ami	-3671
▁ant	-3672
▁eut	-3673
▁eût	-3674
▁asce	-3675
▁mess	-3676
▁Henry	-3677
▁brave	-3678
▁notre	-3679
▁persu	-3680
▁taste	-3681
▁spoken	-3682
▁imagine	-3683
▁4	-3684
▁hy	-3685
▁Car	-3686
▁vig	-3687
inces	-3688
llins	-3689
▁Comp	-3690
▁cela	-3691
▁fill	-3692
▁penetr	-3693
▁anxiety	-3694
▁powerful	-3695
▁produced	-3696
▁frightful	-3697
▁remembered	-3698
quer	-3699
rier	-3700
▁Had	-3701
aille	-3702
▁youth	-3703
▁custom	-3704
▁degree	-3705
▁resist	-3706
▁triump	-3707
▁Collins	-3708
▁rapidly	-3709
▁refused	-3710
▁suffered	-3711
▁departure	-3712
ON	-3713
case	-3714
inet	-3715
▁gro	-3716
▁pure	-3717
▁tide	-3718
▁clean	-3719
▁fancy	-3720
▁intim	-3721
▁irrit	-3722
▁calcul	-3723
▁pushed	-3724
▁Majesty	-3725
▁bonheur	-3726
▁distant	-3727
▁astonishment	-3728
ma	-3729
▁~	-3730
acc	-3731
▁Che	-3732
resse	-3733
▁brig	-3734
▁chat	-3735
▁jump	-3736
▁peas	-3737
▁prot	-3738
▁sugg	-3739
▁Maheude	-3740
▁conceal	-3741
▁carefully	-3742
▁concealed	-3743
▁particularly	-3744
asp	-3745
ium	-3746
▁neg	-3747
▁brow	-3748
▁fier	-3749
▁sont	-3750
▁moins	-3751
▁advice	-3752
acha	-3753
inced	-3754
water	-3755
▁Thus	-3756
▁aunt	-3757
▁tomb	-3758
▁Where	-3759
▁grace	-3760
▁sembl	-3761
ustomed	-3762
▁couldn	-3763
▁absence	-3764
ES	-3765
▁scr	-3766
ouver	-3767
▁glim	-3768
▁remo	-3769
▁tort	-3770
▁birds	-3771
▁instr	-3772
▁route	-3773
▁wound	-3774
▁asking	-3775
▁thrust	-3776
▁hearing	-3777
▁unhappy	-3778
▁dreadful	-3779
▁required	-3780
▁miserable	-3781
ners	-3782
neys	-3783
prit	-3784
▁rub	-3785
Where	-3786
▁parts	-3787
▁myster	-3788
▁gesture	-3789
▁electric	-3790
▁presently	-3791
▁recognized	-3792
▁sufficient	-3793
zz	-3794
▁ra	-3795
▁cin	-3796
▁pré	-3797
▁rob	-3798
▁chem	-3799
▁defe	-3800
▁ener	-3801
▁shel	-3802
▁snow	-3803
▁temp	-3804
▁wore	-3805
▁cruel	-3806
▁revol	-3807
▁Winter	-3808
▁driven	-3809
▁volcan	-3810
▁embarrass	-3811
▁listening	-3812
**	-3813
aude	-3814
iche	-3815
▁Les	-3816
▁leg	-3817
▁fold	-3818
▁oper	-3819
▁west	-3820
ainted	-3821
▁aftern	-3822
▁thanks	-3823
▁arranged	-3824
▁extraordinary	-3825
▁Si	-3826
held	-3827
▁etc	-3828
▁liv	-3829
aches	-3830
▁duke	-3831
▁ease	-3832
▁heure	-3833
▁judge	-3834
▁trust	-3835
▁weeks	-3836
▁Roland	-3837
▁candle	-3838
▁history	-3839
uckingham	-3840
▁becoming	-3841
▁probably	-3842
▁frightened	-3843
uls	-3844
œur	-3845
▁Nap	-3846
▁déc	-3847
ndeed	-3848
▁bord	-3849
▁chim	-3850
▁sick	-3851
▁appre	-3852
▁books	-3853
adually	-3854
▁cousin	-3855
▁proved	-3856
▁emotion	-3857
▁recolle	-3858
▁ge	-3859
ival	-3860
ring	-3861
▁bow	-3862
▁pan	-3863
ourse	-3864
udent	-3865
▁Mart	-3866
▁coat	-3867
▁ones	-3868
▁author	-3869
▁minist	-3870
▁Nothing	-3871
▁curious	-3872
▁desired	-3873
▁lighted	-3874
At	-3875
set	-3876
▁Ad	-3877
▁ice	-3878
cture	-3879
▁sake	-3880
▁brown	-3881
▁estab	-3882
▁shell	-3883
▁throw	-3884
agement	-3885
▁Raquin	-3886
▁earnest	-3887
▁ordered	-3888
▁influence	-3889
▁cow	-3890
pered	-3891
stand	-3892
èrent	-3893
▁Mary	-3894
▁gover	-3895
▁share	-3896
▁dispos	-3897
▁events	-3898
▁report	-3899
▁curtain	-3900
▁retreat	-3901
▁platform	-3902
▁confidence	-3903
▁considerable	-3904
mn	-3905
ta	-3906
aly	-3907
ener	-3908
▁jet	-3909
▁Will	-3910
▁carp	-3911
▁looks	-3912
▁reser	-3913
▁yours	-3914
anwhile	-3915
ceiving	-3916
▁health	-3917
▁features	-3918
▁Buckingham	-3919
ias	-3920
iny	-3921
pir	-3922
iece	-3923
ading	-3924
▁amaz	-3925
▁sout	-3926
▁wret	-3927
isions	-3928
▁Notre	-3929
▁store	-3930
▁upper	-3931
erville	-3932
▁Christ	-3933
▁Homais	-3934
▁afternoon	-3935
IS	-3936
For	-3937
erc	-3938
las	-3939
this	-3940
▁bold	-3941
▁food	-3942
▁goes	-3943
▁grey	-3944
▁note	-3945
▁lives	-3946
▁reven	-3947
▁slept	-3948
▁stock	-3949
▁charge	-3950
▁palais	-3951
▁hurried	-3952
▁observe	-3953
▁directly	-3954
▁distress	-3955
▁instinct	-3956
▁somewhat	-3957
▁Go	-3958
five	-3959
ongo	-3960
rose	-3961
▁Bel	-3962
▁aur	-3963
▁lun	-3964
▁mag	-3965
never	-3966
▁Vous	-3967
▁Your	-3968
▁pauv	-3969
▁rage	-3970
▁seek	-3971
▁artic	-3972
▁enfin	-3973
▁indif	-3974
▁design	-3975
▁hollow	-3976
▁inside	-3977
▁discover	-3978
▁language	-3979
▁accustomed	-3980
Are	-3981
atur	-3982
long	-3983
▁cas	-3984
▁viv	-3985
▁cool	-3986
▁rare	-3987
▁swear	-3988
▁entend	-3989
▁summer	-3990
▁undert	-3991
▁assured	-3992
▁telling	-3993
▁apartment	-3994
AN	-3995
exp	-3996
sou	-3997
▁Pe	-3998
aily	-3999
urst	-4000
▁bag	-4001
▁pop	-4002
▁rate	-4003
▁Jehan	-4004
▁catch	-4005
▁cloak	-4006
▁Claude	-4007
▁repres	-4008
▁marquis	-4009
▁explained	-4010
On	-4011
umn	-4012
cial	-4013
enth	-4014
more	-4015
▁Val	-4016
▁côt	-4017
▁crew	-4018
▁dism	-4019
▁reck	-4020
▁anyone	-4021
▁assure	-4022
▁marked	-4023
kerchief	-4024
▁meeting	-4025
▁marquise	-4026
▁disturbed	-4027
▁suffering	-4028
▁intelligence	-4029
reek	-4030
▁chez	-4031
ecause	-4032
▁Lydia	-4033
▁Somet	-4034
▁level	-4035
▁stupid	-4036
▁tongue	-4037
▁unless	-4038
▁content	-4039
▁convinced	-4040
▁imagination	-4041
OR	-4042
ré	-4043
anç	-4044
dom	-4045
ghter	-4046
▁dust	-4047
▁fail	-4048
▁ming	-4049
▁sigh	-4050
▁cries	-4051
▁displ	-4052
▁equal	-4053
▁Chaval	-4054
▁employ	-4055
▁explan	-4056
▁merely	-4057
▁resemb	-4058
▁engaged	-4059
▁smiling	-4060
▁laughter	-4061
fl	-4062
acks	-4063
aine	-4064
aise	-4065
beau	-4066
gent	-4067
érie	-4068
▁Ger	-4069
▁Who	-4070
▁Yet	-4071
▁mud	-4072
▁ton	-4073
itary	-4074
ulous	-4075
▁gens	-4076
▁mile	-4077
▁mour	-4078
▁risk	-4079
▁soil	-4080
▁wear	-4081
▁assez	-4082
▁jusqu	-4083
▁shame	-4084
▁withd	-4085
▁disapp	-4086
▁eleven	-4087
▁finger	-4088
▁Perhaps	-4089
▁finally	-4090
▁leaning	-4091
bl	-4092
io	-4093
▁Hans	-4094
▁Span	-4095
▁charm	-4096
▁ridic	-4097
▁ceased	-4098
▁stayed	-4099
▁Company	-4100
▁ancient	-4101
▁liberty	-4102
▁pouvait	-4103
▁accident	-4104
▁examined	-4105
▁violence	-4106
▁Meanwhile	-4107
▁creatures	-4108
ît	-4109
ann	-4110
rem	-4111
▁OF	-4112
Your	-4113
▁Col	-4114
▁bree	-4115
▁cred	-4116
▁lake	-4117
▁sang	-4118
▁wond	-4119
▁guide	-4120
▁hurry	-4121
▁whist	-4122
ruction	-4123
▁compre	-4124
▁misery	-4125
▁Montsou	-4126
▁keeping	-4127
▁sisters	-4128
▁carrying	-4129
▁entrance	-4130
rai	-4131
gund	-4132
▁dép	-4133
▁fal	-4134
▁luck	-4135
formed	-4136
▁buried	-4137
▁supply	-4138
▁species	-4139
▁communic	-4140
▁soldiers	-4141
▁dangerous	-4142
▁unfortunate	-4143
Be	-4144
gin	-4145
ris	-4146
gment	-4147
▁mois	-4148
▁reve	-4149
▁subm	-4150
▁dwell	-4151
▁inquir	-4152
▁calling	-4153
▁experien	-4154
▁remarked	-4155
▁curiosity	-4156
▁execution	-4157
▁acquaintance	-4158
By	-4159
arse	-4160
lend	-4161
▁bou	-4162
▁cav	-4163
▁phr	-4164
▁rés	-4165
agger	-4166
▁donc	-4167
▁east	-4168
▁pend	-4169
▁tant	-4170
▁aloud	-4171
▁arrest	-4172
▁beheld	-4173
▁furious	-4174
▁granite	-4175
▁project	-4176
▁belonged	-4177
▁struggle	-4178
▁accompanied	-4179
ency	-4180
will	-4181
▁due	-4182
▁hom	-4183
▁lin	-4184
▁pot	-4185
acher	-4186
▁deaf	-4187
▁evil	-4188
▁pair	-4189
▁pays	-4190
▁appar	-4191
▁serait	-4192
▁sooner	-4193
▁consent	-4194
▁travers	-4195
▁ventured	-4196
▁handkerchief	-4197
gl	-4198
▁5	-4199
▁z	-4200
pper	-4201
▁hed	-4202
▁maj	-4203
eping	-4204
▁phys	-4205
▁rooms	-4206
▁swift	-4207
▁terms	-4208
minence	-4209
▁interv	-4210
▁prefer	-4211
▁voices	-4212
▁proceed	-4213
▁watching	-4214
▁staircase	-4215
▁frequently	-4216
▁impression	-4217
com	-4218
▁fu	-4219
lier	-4220
▁amb	-4221
▁vit	-4222
▁Fair	-4223
▁Only	-4224
▁block	-4225
▁hopes	-4226
▁infin	-4227
▁shoes	-4228
▁bottle	-4229
▁centre	-4230
▁labour	-4231
▁severe	-4232
▁dropped	-4233
▁hanging	-4234
▁writing	-4235
▁breaking	-4236
▁knowledge	-4237
▁separated	-4238
la	-4239
ffe	-4240
key	-4241
âme	-4242
lies	-4243
lles	-4244
reck	-4245
▁key	-4246
essie	-4247
▁Long	-4248
▁bore	-4249
▁born	-4250
▁fury	-4251
▁beach	-4252
▁favor	-4253
▁fille	-4254
▁space	-4255
▁splend	-4256
▁playing	-4257
▁governess	-4258
ims	-4259
nem	-4260
▁Ex	-4261
atin	-4262
hand	-4263
▁sau	-4264
alais	-4265
arted	-4266
▁damp	-4267
▁enth	-4268
▁goat	-4269
▁scre	-4270
▁blows	-4271
▁innoc	-4272
▁clouds	-4273
▁office	-4274
▁parler	-4275
▁signal	-4276
▁worked	-4277
Monsieur	-4278
▁contain	-4279
▁continu	-4280
▁faisait	-4281
▁Eminence	-4282
▁confused	-4283
▁distinct	-4284
▁agreeable	-4285
bar	-4286
▁Ed	-4287
geon	-4288
rect	-4289
▁cra	-4290
▁tur	-4291
arily	-4292
écria	-4293
▁maid	-4294
▁orig	-4295
▁drive	-4296
▁abrupt	-4297
▁condem	-4298
▁couple	-4299
▁gently	-4300
▁hunger	-4301
▁sprang	-4302
▁picture	-4303
▁trouver	-4304
▁Prudence	-4305
▁intended	-4306
▁possessed	-4307
▁absolutely	-4308
▁constantly	-4309
▁importance	-4310
▁surrounded	-4311
een	-4312
har	-4313
nce	-4314
▁aj	-4315
▁Ice	-4316
▁Pac	-4317
▁ham	-4318
▁isn	-4319
▁ple	-4320
chair	-4321
▁lend	-4322
▁pave	-4323
inking	-4324
▁Henne	-4325
▁names	-4326
▁subst	-4327
▁encour	-4328
▁interior	-4329
▁superior	-4330
oot	-4331
whe	-4332
âte	-4333
phew	-4334
▁Apr	-4335
▁Ber	-4336
▁emer	-4337
▁hole	-4338
acious	-4339
▁ainsi	-4340
▁armed	-4341
▁enemy	-4342
▁laiss	-4343
▁solid	-4344
▁deeply	-4345
▁quatre	-4346
▁spirits	-4347
▁willing	-4348
▁fastened	-4349
▁proceeded	-4350
▁mysterious	-4351
nal	-4352
▁Alt	-4353
▁coo	-4354
iliar	-4355
▁Come	-4356
▁exchan	-4357
▁fields	-4358
▁joined	-4359
▁matters	-4360
▁generally	-4361
▁Nevertheless	-4362
OU	-4363
irst	-4364
astic	-4365
cknow	-4366
▁Duke	-4367
▁Leva	-4368
▁encl	-4369
▁ving	-4370
▁Mercy	-4371
▁Rassi	-4372
▁absor	-4373
▁aside	-4374
▁aware	-4375
▁waist	-4376
▁contem	-4377
▁nearer	-4378
▁nephew	-4379
▁played	-4380
▁powder	-4381
▁diamond	-4382
▁imagined	-4383
▁addressed	-4384
▁adventure	-4385
▁delighted	-4386
▁gradually	-4387
con	-4388
ott	-4389
▁eu	-4390
ites	-4391
ship	-4392
▁deck	-4393
▁rang	-4394
▁sank	-4395
▁ways	-4396
▁Place	-4397
▁impro	-4398
▁stern	-4399
Because	-4400
athered	-4401
fortune	-4402
▁acknow	-4403
▁savage	-4404
▁evident	-4405
▁flowers	-4406
▁declared	-4407
▁ordinary	-4408
▁probable	-4409
▁mentioned	-4410
▁seriously	-4411
▁settlement	-4412
▁Tr	-4413
llen	-4414
▁log	-4415
▁pec	-4416
itive	-4417
izing	-4418
▁West	-4419
▁cœur	-4420
▁gaze	-4421
quette	-4422
ulated	-4423
▁clock	-4424
▁haste	-4425
▁seule	-4426
▁stick	-4427
▁failed	-4428
▁reader	-4429
▁century	-4430
▁thunder	-4431
▁bringing	-4432
▁pressure	-4433
▁fortnight	-4434
▁instantly	-4435
ca	-4436
omb	-4437
ria	-4438
aper	-4439
iens	-4440
road	-4441
tesse	-4442
ugust	-4443
▁dull	-4444
▁shru	-4445
▁stat	-4446
▁await	-4447
▁drove	-4448
▁grown	-4449
▁moder	-4450
▁contre	-4451
▁stairs	-4452
▁fatigue	-4453
▁premier	-4454
▁working	-4455
▁entertain	-4456
▁approaching	-4457
Go	-4458
ius	-4459
iana	-4460
orse	-4461
▁Did	-4462
▁Mou	-4463
place	-4464
▁Leon	-4465
▁cure	-4466
▁eleg	-4467
▁guns	-4468
▁poet	-4469
▁rays	-4470
▁built	-4471
▁swall	-4472
▁Martin	-4473
▁conven	-4474
▁happen	-4475
▁rolled	-4476
▁season	-4477
▁appears	-4478
▁perform	-4479
▁familiar	-4480
▁Hennebeau	-4481
▁possession	-4482
As	-4483
ffee	-4484
▁atm	-4485
ormed	-4486
▁bour	-4487
▁keen	-4488
▁liqu	-4489
▁cheer	-4490
▁crown	-4491
▁fatal	-4492
▁façon	-4493
▁fetch	-4494
▁contri	-4495
▁devant	-4496
▁poison	-4497
▁drowned	-4498
▁branches	-4499
▁doubtless	-4500
▁misfortune	-4501
▁consequence	-4502
bly	-4503
eau	-4504
edy	-4505
fax	-4506
vey	-4507
coup	-4508
fice	-4509
▁Jup	-4510
▁San	-4511
▁unf	-4512
▁Grim	-4513
▁flew	-4514
▁pick	-4515
▁rent	-4516
▁ruin	-4517
▁entre	-4518
▁faint	-4519
▁weary	-4520
▁August	-4521
▁clever	-4522
▁hidden	-4523
▁archite	-4524
▁profess	-4525
▁visible	-4526
▁incident	-4527
▁disappoint	-4528
pel	-4529
rane	-4530
▁bod	-4531
▁elb	-4532
▁esp	-4533
▁rig	-4534
aries	-4535
▁group	-4536
▁learn	-4537
▁works	-4538
▁cheeks	-4539
▁famous	-4540
▁clearly	-4541
▁concern	-4542
▁private	-4543
▁contempt	-4544
▁reflected	-4545
vê	-4546
All	-4547
▁--	-4548
▁Dr	-4549
ouda	-4550
▁mix	-4551
there	-4552
▁disg	-4553
▁fate	-4554
▁stam	-4555
▁annoy	-4556
▁depend	-4557
▁obtain	-4558
▁Fairfax	-4559
▁affairs	-4560
▁avaient	-4561
▁compass	-4562
▁prendre	-4563
▁princes	-4564
▁"'	-4565
With	-4566
keep	-4567
quel	-4568
▁daz	-4569
emain	-4570
olphe	-4571
osure	-4572
▁Aouda	-4573
▁Dongo	-4574
▁plais	-4575
▁shape	-4576
▁vingt	-4577
▁Prince	-4578
▁arrive	-4579
▁virtue	-4580
▁painful	-4581
▁approach	-4582
▁everybody	-4583
▁6	-4584
dele	-4585
ford	-4586
work	-4587
ighed	-4588
uliar	-4589
▁Such	-4590
▁dete	-4591
▁loss	-4592
▁soup	-4593
▁tent	-4594
▁doesn	-4595
▁fears	-4596
▁linen	-4597
▁spend	-4598
▁coffee	-4599
▁whence	-4600
▁gallant	-4601
▁retired	-4602
▁soldier	-4603
▁Sometimes	-4604
▁everywhere	-4605
▁là	-4606
▁ta	-4607
▁tea	-4608
▁wet	-4609
▁daily	-4610
▁etern	-4611
▁knife	-4612
▁peine	-4613
▁excuse	-4614
▁repeat	-4615
▁Levaque	-4616
▁capable	-4617
▁nervous	-4618
▁beaucoup	-4619
▁gathered	-4620
▁ignorant	-4621
▁informed	-4622
▁peculiar	-4623
▁trembled	-4624
▁otherwise	-4625
su	-4626
eur	-4627
sip	-4628
▁mé	-4629
Have	-4630
char	-4631
gain	-4632
resp	-4633
▁org	-4634
acles	-4635
▁Dieu	-4636
▁drop	-4637
▁lest	-4638
▁libr	-4639
geance	-4640
▁bowed	-4641
▁cover	-4642
▁dozen	-4643
▁Guards	-4644
▁consul	-4645
▁credit	-4646
▁hither	-4647
▁excited	-4648
▁lowered	-4649
▁deserted	-4650
▁faithful	-4651
▁experienced	-4652
EN	-4653
aps	-4654
hod	-4655
sha	-4656
was	-4657
agne	-4658
▁Jac	-4659
▁Mos	-4660
iding	-4661
▁Port	-4662
▁boys	-4663
▁join	-4664
▁frame	-4665
▁proof	-4666
▁serve	-4667
▁gained	-4668
▁sevent	-4669
▁plunged	-4670
▁recomme	-4671
▁removed	-4672
▁convicts	-4673
▁delicate	-4674
▁pavement	-4675
▁slightly	-4676
▁gratitude	-4677
hi	-4678
era	-4679
ify	-4680
pre	-4681
même	-4682
rock	-4683
▁Its	-4684
gress	-4685
▁Hall	-4686
▁bull	-4687
▁gend	-4688
▁quit	-4689
▁stif	-4690
▁torn	-4691
▁stiff	-4692
heureux	-4693
itement	-4694
jection	-4695
utation	-4696
▁colour	-4697
▁gloomy	-4698
▁lifted	-4699
▁murder	-4700
▁wishes	-4701
▁appoint	-4702
▁plateau	-4703
▁remains	-4704
▁science	-4705
▁sincere	-4706
▁Harrison	-4707
▁apparent	-4708
▁forehead	-4709
▁portrait	-4710
▁admiration	-4711
_,	-4712
ench	-4713
umin	-4714
▁fen	-4715
ieurs	-4716
▁Gard	-4717
▁Reed	-4718
▁Sund	-4719
▁citad	-4720
▁flood	-4721
▁islet	-4722
▁music	-4723
▁study	-4724
▁passer	-4725
▁refuge	-4726
▁remind	-4727
▁solemn	-4728
▁dragged	-4729
▁intense	-4730
▁mistake	-4731
▁kindness	-4732
▁prisoner	-4733
▁abandoned	-4734
▁recovered	-4735
An	-4736
nds	-4737
▁Rou	-4738
▁lan	-4739
acity	-4740
amour	-4741
asing	-4742
itate	-4743
▁More	-4744
▁côté	-4745
tenant	-4746
▁begun	-4747
▁brain	-4748
▁prove	-4749
▁quant	-4750
▁widow	-4751
▁enthus	-4752
▁exceed	-4753
▁needed	-4754
ertainly	-4755
▁Pacific	-4756
▁persons	-4757
▁succeed	-4758
▁Rodolphe	-4759
▁hastened	-4760
▁proposed	-4761
▁relations	-4762
▁impatience	-4763
hal	-4764
isp	-4765
occ	-4766
When	-4767
oose	-4768
▁gig	-4769
▁wed	-4770
oused	-4771
▁Cape	-4772
▁redu	-4773
▁seam	-4774
▁unex	-4775
▁vale	-4776
▁clerk	-4777
▁exped	-4778
▁leurs	-4779
▁ships	-4780
▁veget	-4781
▁worst	-4782
▁Bessie	-4783
▁gendar	-4784
▁throat	-4785
▁trouva	-4786
▁amongst	-4787
▁plainly	-4788
▁profond	-4789
▁related	-4790
▁various	-4791
▁directed	-4792
▁employed	-4793
▁personne	-4794
▁descended	-4795
▁expressed	-4796
▁vengeance	-4797
▁arrangement	-4798
vol	-4799
....	-4800
Dame	-4801
omin	-4802
otte	-4803
▁hyp	-4804
aging	-4805
asted	-4806
emple	-4807
enced	-4808
ipped	-4809
oring	-4810
which	-4811
▁préc	-4812
▁seul	-4813
▁Adele	-4814
▁arose	-4815
▁method	-4816
▁pauvre	-4817
▁details	-4818
▁monster	-4819
▁constant	-4820
▁sleeping	-4821
▁announced	-4822
▁naturally	-4823
▁sacrifice	-4824
▁violently	-4825
aws	-4826
hil	-4827
ira	-4828
▁Up	-4829
fall	-4830
grap	-4831
rain	-4832
▁fol	-4833
▁lam	-4834
irgin	-4835
▁Stre	-4836
▁sais	-4837
▁shed	-4838
▁size	-4839
engers	-4840
ground	-4841
▁false	-4842
▁fired	-4843
▁fully	-4844
▁landl	-4845
▁limbs	-4846
▁shade	-4847
▁shone	-4848
▁stuff	-4849
unegund	-4850
▁Bishop	-4851
▁lettre	-4852
▁crushed	-4853
▁presque	-4854
▁witness	-4855
▁continue	-4856
▁obtained	-4857
▁troubled	-4858
▁Musketeer	-4859
▁furnished	-4860
▁sentiment	-4861
▁experience	-4862
Tis	-4863
mon	-4864
pes	-4865
urd	-4866
▁15	-4867
ller	-4868
▁auc	-4869
▁cup	-4870
erous	-4871
ource	-4872
sters	-4873
▁Bask	-4874
▁ange	-4875
▁cinq	-4876
▁lava	-4877
▁père	-4878
▁Since	-4879
▁alors	-4880
▁civil	-4881
▁hotel	-4882
▁value	-4883
oration	-4884
▁Father	-4885
▁hearts	-4886
▁ruined	-4887
▁bearing	-4888
▁library	-4889
▁entering	-4890
▁extended	-4891
rez	-4892
fait	-4893
reur	-4894
▁dix	-4895
asons	-4896
asped	-4897
aître	-4898
irard	-4899
mered	-4900
woman	-4901
▁fled	-4902
▁meat	-4903
▁rene	-4904
▁weap	-4905
resses	-4906
▁Mosca	-4907
▁flung	-4908
▁aspect	-4909
▁crying	-4910
▁kissed	-4911
▁livres	-4912
▁picked	-4913
▁America	-4914
▁Jeanlin	-4915
▁capital	-4916
▁cutting	-4917
▁managed	-4918
▁meaning	-4919
▁mystery	-4920
▁setting	-4921
▁officers	-4922
▁sensible	-4923
▁mountains	-4924
▁spectacle	-4925
▁provisions	-4926
ING	-4927
bon	-4928
iam	-4929
iest	-4930
▁hab	-4931
▁sty	-4932
acing	-4933
atson	-4934
▁knee	-4935
▁rail	-4936
▁suit	-4937
▁admit	-4938
▁baron	-4939
▁claim	-4940
▁plans	-4941
▁sorts	-4942
▁yards	-4943
▁compar	-4944
▁hatred	-4945
▁process	-4946
▁présent	-4947
▁necessity	-4948
gé	-4949
ky	-4950
▁#	-4951
Sir	-4952
eds	-4953
ese	-4954
off	-4955
fois	-4956
lope	-4957
▁dét	-4958
▁non	-4959
aires	-4960
geois	-4961
ounce	-4962
▁bird	-4963
▁chas	-4964
▁halt	-4965
▁obsc	-4966
▁delay	-4967
▁tools	-4968
▁woods	-4969
▁reconn	-4970
▁sombre	-4971
▁efforts	-4972
▁foolish	-4973
▁slipped	-4974
▁Cunegund	-4975
▁ministre	-4976
▁prevented	-4977
mand	-4978
pted	-4979
wing	-4980
▁unp	-4981
▁Chim	-4982
▁Cont	-4983
▁blew	-4984
▁cave	-4985
▁task	-4986
inging	-4987
ranean	-4988
▁Latin	-4989
▁gives	-4990
▁match	-4991
▁paces	-4992
▁swell	-4993
▁Watson	-4994
▁encoun	-4995
▁govern	-4996
▁obstin	-4997
standing	-4998
▁fellows	-4999
▁mounted	-5000
▁comtesse	-5001
▁prospect	-5002
▁citadelle	-5003
▁pronounced	-5004
▁explanation	-5005
Mr	-5006
St	-5007
Did	-5008
len	-5009
yre	-5010
hest	-5011
onst	-5012
uary	-5013
umes	-5014
▁Don	-5015
▁déj	-5016
▁rou	-5017
homme	-5018
▁frag	-5019
▁mast	-5020
▁merc	-5021
▁raft	-5022
aution	-5023
cience	-5024
▁cabin	-5025
▁spark	-5026
▁stret	-5027
▁toler	-5028
▁tower	-5029
▁invent	-5030
▁points	-5031
▁purcha	-5032
▁disturb	-5033
▁example	-5034
▁fancied	-5035
▁showing	-5036
▁Chimneys	-5037
▁accepted	-5038
▁building	-5039
▁contempl	-5040
▁formerly	-5041
▁throwing	-5042
▁professor	-5043
▁reflection	-5044
no	-5045
icy	-5046
iet	-5047
liv	-5048
oop	-5049
▁XI	-5050
iere	-5051
▁ard	-5052
▁ess	-5053
▁tum	-5054
iller	-5055
isely	-5056
▁gain	-5057
▁pant	-5058
esprit	-5059
▁amuse	-5060
▁named	-5061
▁timid	-5062
▁trade	-5063
▁domest	-5064
▁flight	-5065
▁anybody	-5066
▁masters	-5067
▁peasant	-5068
▁pursued	-5069
▁remorse	-5070
▁venture	-5071
▁contained	-5072
▁exhausted	-5073
cle	-5074
▁Of	-5075
hens	-5076
nier	-5077
udov	-5078
▁Bes	-5079
▁Tur	-5080
▁hit	-5081
▁ici	-5082
▁ing	-5083
chevê	-5084
▁grim	-5085
▁mari	-5086
▁Ludov	-5087
▁drunk	-5088
▁elder	-5089
▁madam	-5090
▁naked	-5091
▁trace	-5092
▁ville	-5093
looking	-5094
▁consol	-5095
▁desper	-5096
▁excess	-5097
▁gallop	-5098
▁relief	-5099
▁uneasy	-5100
▁wicked	-5101
▁pendant	-5102
▁dressing	-5103
▁intention	-5104
hem	-5105
irm	-5106
reg	-5107
upe	-5108
eyed	-5109
imer	-5110
line	-5111
▁Bet	-5112
▁der	-5113
▁reb	-5114
▁tit	-5115
▁Dans	-5116
▁anch	-5117
▁nort	-5118
▁près	-5119
▁race	-5120
▁worn	-5121
orough	-5122
▁schol	-5123
▁wants	-5124
▁atmosp	-5125
▁miners	-5126
▁Ludovic	-5127
▁attract	-5128
▁comment	-5129
▁devoted	-5130
▁someone	-5131
▁attached	-5132
▁pressing	-5133
lé	-5134
▁..	-5135
▁IN	-5136
cont	-5137
▁Luc	-5138
▁mit	-5139
▁rib	-5140
▁rum	-5141
aping	-5142
cting	-5143
ctive	-5144
udden	-5145
▁Have	-5146
▁Mort	-5147
▁Stap	-5148
▁frig	-5149
▁hurt	-5150
▁unif	-5151
▁Comte	-5152
▁Queen	-5153
▁ajout	-5154
▁exerc	-5155
▁goods	-5156
▁parce	-5157
▁spare	-5158
attered	-5159
▁procur	-5160
▁summit	-5161
▁victim	-5162
▁wealth	-5163
▁advance	-5164
▁chemist	-5165
▁descend	-5166
▁usually	-5167
▁inquired	-5168
▁terrified	-5169
ef	-5170
hum	-5171
istr	-5172
▁ado	-5173
ainte	-5174
armed	-5175
▁dern	-5176
▁mach	-5177
▁tail	-5178
pended	-5179
▁Franc	-5180
▁matin	-5181
▁takes	-5182
▁trait	-5183
▁wreck	-5184
uddenly	-5185
▁begged	-5186
▁indign	-5187
▁knocked	-5188
▁manners	-5189
▁shadows	-5190
▁shaking	-5191
▁possibly	-5192
▁répondit	-5193
▁philosopher	-5194
cut	-5195
▁Li	-5196
ilar	-5197
▁Far	-5198
▁ate	-5199
▁gal	-5200
ounge	-5201
▁Good	-5202
▁Tout	-5203
▁insp	-5204
▁loft	-5205
▁pear	-5206
▁dirty	-5207
▁shaft	-5208
▁circle	-5209
▁lounge	-5210
▁parent	-5211
▁Colonel	-5212
▁deliver	-5213
▁reasons	-5214
▁furniture	-5215
.”	-5216
là	-5217
Don	-5218
▁ep	-5219
Will	-5220
enod	-5221
inte	-5222
rois	-5223
▁doc	-5224
▁tru	-5225
▁wel	-5226
isten	-5227
leton	-5228
venir	-5229
▁Even	-5230
▁brut	-5231
▁flag	-5232
▁hadn	-5233
▁sire	-5234
▁abund	-5235
▁boots	-5236
▁caval	-5237
▁freed	-5238
▁imper	-5239
▁pieds	-5240
▁sheet	-5241
itating	-5242
vidence	-5243
▁absurd	-5244
▁corpse	-5245
▁flying	-5246
▁higher	-5247
▁milieu	-5248
▁Grimaud	-5249
▁mingled	-5250
▁wanting	-5251
▁Suddenly	-5252
▁recalled	-5253
▁concerned	-5254
▁reflections	-5255
ata	-5256
dig	-5257
iqu	-5258
ram	-5259
bles	-5260
four	-5261
keys	-5262
▁nav	-5263
autre	-5264
eneur	-5265
▁harp	-5266
▁pack	-5267
▁sera	-5268
ashing	-5269
▁mates	-5270
acharie	-5271
▁beasts	-5272
▁finish	-5273
▁wholly	-5274
▁cleared	-5275
▁climbed	-5276
▁leading	-5277
▁absorbed	-5278
▁perceive	-5279
▁rendered	-5280
▁shouting	-5281
▁splendid	-5282
▁whenever	-5283
▁brilliant	-5284
▁lendemain	-5285
▁preserved	-5286
▁princesse	-5287
▁excitement	-5288
▁Baskerville	-5289
IT	-5290
_.	-5291
mir	-5292
▁Eh	-5293
▁hé	-5294
▁ni	-5295
aker	-5296
reux	-5297
▁vap	-5298
ursed	-5299
▁Bour	-5300
▁farm	-5301
▁mark	-5302
▁meme	-5303
▁Cette	-5304
▁mercy	-5305
▁monse	-5306
▁Pirard	-5307
▁bridge	-5308
▁estate	-5309
▁stared	-5310
▁useful	-5311
▁Valenod	-5312
▁steamer	-5313
▁composed	-5314
▁dwelling	-5315
▁meantime	-5316
▁overcome	-5317
▁pictures	-5318
▁whispered	-5319
▁wonderful	-5320
▁conscience	-5321
▁information	-5322
LE	-5323
ât	-5324
▁Au	-5325
▁Fl	-5326
ules	-5327
▁fou	-5328
ulate	-5329
▁Comm	-5330
▁grou	-5331
▁brand	-5332
▁fruit	-5333
▁barely	-5334
▁coward	-5335
▁mechan	-5336
▁repent	-5337
▁Iceland	-5338
▁forgive	-5339
▁Zacharie	-5340
▁pointing	-5341
▁thorough	-5342
▁bourgeois	-5343
▁passengers	-5344
▁monseigneur	-5345
▁7	-5346
!--	-5347
esc	-5348
gged	-5349
pent	-5350
▁Jan	-5351
▁cop	-5352
▁iss	-5353
▁rav	-5354
▁sed	-5355
▁vér	-5356
guish	-5357
illes	-5358
▁tend	-5359
▁vois	-5360
▁Would	-5361
▁bored	-5362
▁flame	-5363
▁globe	-5364
▁wheel	-5365
ulation	-5366
▁Armand	-5367
▁choses	-5368
▁guests	-5369
▁hommes	-5370
▁porter	-5371
▁secure	-5372
▁wouldn	-5373
▁lantern	-5374
▁comprehe	-5375
▁daylight	-5376
▁likewise	-5377
▁southern	-5378
▁unexpected	-5379
rol	-5380
illa	-5381
ints	-5382
omen	-5383
urse	-5384
▁Med	-5385
▁aid	-5386
▁fis	-5387
loped	-5388
▁pace	-5389
▁rasc	-5390
▁hedge	-5391
▁steep	-5392
▁Before	-5393
▁assass	-5394
▁extrem	-5395
▁liquid	-5396
▁refuse	-5397
▁sorrow	-5398
▁request	-5399
▁devoured	-5400
▁patience	-5401
▁Rasseneur	-5402
▁household	-5403
▁occasions	-5404
▁resolution	-5405
▁understanding	-5406
uv	-5407
▁Es	-5408
ilty	-5409
iste	-5410
whel	-5411
▁Red	-5412
▁tot	-5413
▁vex	-5414
oncer	-5415
rades	-5416
▁hero	-5417
▁mute	-5418
▁shown	-5419
▁skill	-5420
respond	-5421
iciently	-5422
▁invited	-5423
▁triumph	-5424
▁overwhel	-5425
▁prudence	-5426
▁conscious	-5427
▁indicated	-5428
▁pretended	-5429
▁acquainted	-5430
▁conditions	-5431
▁underwater	-5432
,”	-5433
AS	-5434
law	-5435
tic	-5436
yer	-5437
▁17	-5438
▁»,	-5439
▁ép	-5440
izzy	-5441
ture	-5442
▁loc	-5443
▁aven	-5444
▁educ	-5445
▁tear	-5446
▁tête	-5447
ursday	-5448
▁stupe	-5449
▁eating	-5450
▁gazing	-5451
▁nation	-5452
▁yonder	-5453
▁divided	-5454
▁enemies	-5455
▁savages	-5456
▁thither	-5457
▁discovery	-5458
▁Everything	-5459
AT	-5460
One	-5461
oms	-5462
▁16	-5463
eter	-5464
teem	-5465
uten	-5466
▁enf	-5467
▁jou	-5468
▁row	-5469
▁vic	-5470
▁Aust	-5471
▁lord	-5472
▁prit	-5473
keeper	-5474
▁Milan	-5475
▁bonne	-5476
▁celui	-5477
▁invol	-5478
▁attach	-5479
▁energy	-5480
▁guilty	-5481
▁hanged	-5482
▁highly	-5483
▁towers	-5484
▁anguish	-5485
▁charged	-5486
▁lorsque	-5487
▁younger	-5488
▁Thursday	-5489
▁affected	-5490
▁innocent	-5491
▁provided	-5492
▁religion	-5493
▁breathing	-5494
▁concluded	-5495
▁disappear	-5496
▁correspond	-5497
▁permission	-5498
▁consequently	-5499
▁nevertheless	-5500
ares	-5501
ores	-5502
elles	-5503
▁Sore	-5504
▁yard	-5505
▁stead	-5506
▁style	-5507
▁treas	-5508
▁Heaven	-5509
▁Sunday	-5510
▁bodies	-5511
▁instru	-5512
▁render	-5513
▁surely	-5514
▁Francis	-5515
▁counter	-5516
▁raising	-5517
▁seeking	-5518
▁tranquil	-5519
▁suspicion	-5520
▁atmosphere	-5521
▁difference	-5522
▁distinguish	-5523
Ex	-5524
IC	-5525
▁Or	-5526
loss	-5527
▁Jes	-5528
▁ecc	-5529
▁ine	-5530
▁kil	-5531
▁orn	-5532
▁por	-5533
▁pup	-5534
oning	-5535
▁qual	-5536
lessly	-5537
▁belle	-5538
▁organ	-5539
▁German	-5540
▁Street	-5541
▁consid	-5542
▁loaded	-5543
▁mercer	-5544
▁preced	-5545
▁wooden	-5546
▁assumed	-5547
▁prudent	-5548
▁uniform	-5549
▁everyone	-5550
▁inclined	-5551
▁progress	-5552
▁solitude	-5553
▁somewhere	-5554
▁stammered	-5555
▁sufficiently	-5556
Of	-5557
bye	-5558
his	-5559
▁vu	-5560
they	-5561
▁bay	-5562
▁rad	-5563
ember	-5564
▁Pang	-5565
▁avez	-5566
▁cage	-5567
▁dign	-5568
▁lieu	-5569
▁rust	-5570
iction	-5571
inally	-5572
▁Votre	-5573
▁alarm	-5574
▁purse	-5575
Nothing	-5576
▁breeze	-5577
▁humble	-5578
▁plants	-5579
▁dancing	-5580
▁prolong	-5581
▁stirred	-5582
ification	-5583
▁betrayed	-5584
▁infinite	-5585
▁neighbor	-5586
▁trouvait	-5587
▁delivered	-5588
▁supported	-5589
▁architecture	-5590
▁circumstance	-5591
sm	-5592
bec	-5593
ipp	-5594
hall	-5595
▁gai	-5596
orted	-5597
viour	-5598
wenty	-5599
▁dish	-5600
▁hate	-5601
▁lack	-5602
▁repl	-5603
▁rope	-5604
▁surt	-5605
licity	-5606
▁Sorel	-5607
▁angle	-5608
▁passe	-5609
▁signs	-5610
▁terre	-5611
▁column	-5612
▁murmur	-5613
▁wretch	-5614
▁harpoon	-5615
▁shudder	-5616
▁suspect	-5617
▁jealousy	-5618
▁latitude	-5619
▁hesitated	-5620
amm	-5621
iel	-5622
▁ty	-5623
▁va	-5624
cast	-5625
when	-5626
▁Est	-5627
▁pou	-5628
▁ray	-5629
abbit	-5630
ancon	-5631
oreux	-5632
ufact	-5633
▁nuit	-5634
▁pris	-5635
umbled	-5636
▁First	-5637
▁cliff	-5638
▁crack	-5639
▁marve	-5640
▁mieux	-5641
▁troop	-5642
▁Voreux	-5643
▁extent	-5644
▁jumped	-5645
ornfield	-5646
▁ceiling	-5647
▁torrent	-5648
▁gigantic	-5649
▁upstairs	-5650
▁behaviour	-5651
▁condemned	-5652
▁sensation	-5653
▁maintenant	-5654
né	-5655
▁’	-5656
emp	-5657
jet	-5658
net	-5659
oux	-5660
qua	-5661
uce	-5662
abor	-5663
oral	-5664
rers	-5665
time	-5666
▁buy	-5667
▁gri	-5668
cript	-5669
▁croy	-5670
▁dazz	-5671
▁laqu	-5672
▁check	-5673
▁cloth	-5674
▁mater	-5675
▁miner	-5676
▁swept	-5677
▁Galais	-5678
▁corrid	-5679
▁dreams	-5680
▁maison	-5681
chevêque	-5682
▁convent	-5683
▁hastily	-5684
▁portion	-5685
▁Besancon	-5686
▁demanded	-5687
▁manufact	-5688
▁expecting	-5689
▁distinguished	-5690
iè	-5691
ded	-5692
ray	-5693
rog	-5694
ève	-5695
équ	-5696
▁14	-5697
ancy	-5698
cade	-5699
ivid	-5700
then	-5701
▁Are	-5702
▁Gri	-5703
▁Son	-5704
▁egg	-5705
▁sem	-5706
▁tel	-5707
eding	-5708
indre	-5709
lotte	-5710
âteau	-5711
▁Each	-5712
▁folk	-5713
▁meal	-5714
▁quoi	-5715
▁assur	-5716
▁eaten	-5717
▁forms	-5718
▁loose	-5719
▁rever	-5720
▁sixty	-5721
▁valet	-5722
ability	-5723
▁bought	-5724
▁gather	-5725
▁utmost	-5726
▁eagerly	-5727
▁entreat	-5728
▁glimpse	-5729
▁shining	-5730
▁stories	-5731
▁suggest	-5732
▁voiture	-5733
▁deceived	-5734
▁floating	-5735
▁numerous	-5736
▁pistoles	-5737
▁confusion	-5738
▁movements	-5739
▁principal	-5740
▁temperature	-5741
III	-5742
gly	-5743
qué	-5744
rat	-5745
coat	-5746
past	-5747
usse	-5748
▁Ing	-5749
▁lab	-5750
▁reç	-5751
ators	-5752
avoir	-5753
kward	-5754
▁Sher	-5755
▁cann	-5756
▁gray	-5757
▁hers	-5758
▁offe	-5759
icking	-5760
ientôt	-5761
▁frank	-5762
▁grant	-5763
▁inexp	-5764
▁price	-5765
Perhaps	-5766
▁fierce	-5767
▁golden	-5768
▁papers	-5769
▁vision	-5770
▁Pierron	-5771
▁hunting	-5772
▁rolling	-5773
▁surtout	-5774
▁treated	-5775
▁volcano	-5776
▁abruptly	-5777
▁quarters	-5778
▁weakness	-5779
▁daughters	-5780
▁discourse	-5781
▁repeating	-5782
▁procurator	-5783
▁threatened	-5784
▁inhabitants	-5785
na	-5786
lis	-5787
▁AN	-5788
acam	-5789
ilst	-5790
yard	-5791
▁bid	-5792
▁saf	-5793
▁vag	-5794
olate	-5795
urity	-5796
▁fils	-5797
▁noon	-5798
▁sell	-5799
▁subl	-5800
▁banks	-5801
▁benef	-5802
▁cerem	-5803
▁lofty	-5804
▁mille	-5805
▁straw	-5806
▁Indian	-5807
▁advent	-5808
▁devour	-5809
▁disord	-5810
▁marble	-5811
▁timber	-5812
▁disgust	-5813
▁produce	-5814
▁proport	-5815
▁sounded	-5816
adventure	-5817
▁fighting	-5818
▁judgment	-5819
▁reputation	-5820
withstanding	-5821
▁interesting	-5822
dess	-5823
▁bew	-5824
▁fil	-5825
▁lot	-5826
▁rag	-5827
eless	-5828
ights	-5829
▁Eyre	-5830
▁chin	-5831
▁dawn	-5832
▁hell	-5833
▁loin	-5834
▁scru	-5835
espoir	-5836
▁badly	-5837
▁coral	-5838
▁demon	-5839
▁folly	-5840
▁roads	-5841
▁stars	-5842
▁eighty	-5843
▁lasted	-5844
▁polite	-5845
▁prodig	-5846
▁retour	-5847
▁termin	-5848
together	-5849
▁awkward	-5850
▁beating	-5851
▁chimney	-5852
▁highest	-5853
▁parfait	-5854
▁Gardiner	-5855
▁Pangloss	-5856
▁comrades	-5857
▁stopping	-5858
▁Charlotte	-5859
▁desperate	-5860
▁scattered	-5861
▁Thornfield	-5862
▁recognised	-5863
';	-5864
—"	-5865
bid	-5866
ear	-5867
onc	-5868
▁Pi	-5869
▁Vo	-5870
icha	-5871
osen	-5872
oser	-5873
ulse	-5874
▁owe	-5875
▁pin	-5876
▁vel	-5877
arest	-5878
▁crim	-5879
▁deve	-5880
▁extr	-5881
▁grav	-5882
▁jack	-5883
▁nice	-5884
▁rank	-5885
▁silk	-5886
▁vall	-5887
▁smell	-5888
▁Virgin	-5889
▁allait	-5890
▁helped	-5891
▁smooth	-5892
▁expense	-5893
▁relieved	-5894
▁vanished	-5895
▁wondered	-5896
▁inhabited	-5897
▁operation	-5898
ads	-5899
cto	-5900
iez	-5901
ses	-5902
▁gay	-5903
▁lou	-5904
▁pil	-5905
▁win	-5906
ander	-5907
sever	-5908
umber	-5909
▁Once	-5910
▁mult	-5911
▁pole	-5912
▁vais	-5913
▁wise	-5914
Indeed	-5915
iently	-5916
▁Mount	-5917
▁birth	-5918
▁brief	-5919
▁distr	-5920
▁final	-5921
▁hence	-5922
▁indic	-5923
▁insol	-5924
▁today	-5925
▁truly	-5926
▁afford	-5927
▁chaque	-5928
▁crater	-5929
▁larmes	-5930
▁manage	-5931
▁softly	-5932
▁taught	-5933
▁venait	-5934
▁careful	-5935
▁equally	-5936
▁eternal	-5937
▁exposed	-5938
▁fishing	-5939
▁quarrel	-5940
▁American	-5941
▁describe	-5942
▁quantity	-5943
▁committed	-5944
▁prisonnier	-5945
▁uneasiness	-5946
▁accomplished	-5947
▁neighbourhood	-5948
abs	-5949
wor	-5950
âce	-5951
Look	-5952
agon	-5953
anks	-5954
arde	-5955
bber	-5956
gypt	-5957
iard	-5958
lets	-5959
rais	-5960
▁Atl	-5961
▁bos	-5962
▁spl	-5963
▁tap	-5964
bbing	-5965
inted	-5966
▁busy	-5967
▁hull	-5968
▁trif	-5969
▁unus	-5970
▁vert	-5971
▁wept	-5972
ensity	-5973
▁nurse	-5974
▁whale	-5975
▁wings	-5976
itution	-5977
▁abomin	-5978
▁amused	-5979
▁behold	-5980
▁desert	-5981
▁groups	-5982
▁lorsqu	-5983
▁sounds	-5984
▁Altesse	-5985
▁guessed	-5986
▁pretend	-5987
▁reduced	-5988
▁addition	-5989
▁attitude	-5990
▁muttered	-5991
▁striking	-5992
▁tomorrow	-5993
▁Stapleton	-5994
▁lightning	-5995
▁plusieurs	-5996
▁prisoners	-5997
ça	-5998
Bon	-5999
ché	-6000
rim	-6001
iasm	-6002
orne	-6003
uits	-6004
voir	-6005
▁Mon	-6006
Never	-6007
temps	-6008
uable	-6009
veyed	-6010
▁Mare	-6011
▁rush	-6012
▁soit	-6013
angled	-6014
tement	-6015
▁Egypt	-6016
▁Still	-6017
▁hills	-6018
▁quart	-6019
▁risen	-6020
▁stage	-6021
fulness	-6022
▁assemb	-6023
▁cavern	-6024
▁choice	-6025
▁choose	-6026
▁kisses	-6027
▁rested	-6028
▁safety	-6029
▁whilst	-6030
▁closely	-6031
▁convuls	-6032
▁islands	-6033
▁parents	-6034
▁voulait	-6035
▁agitated	-6036
▁precious	-6037
▁acknowled	-6038
▁altogether	-6039
▁assistance	-6040
▁remarkable	-6041
▁inclination	-6042
yl	-6043
Can	-6044
ôte	-6045
atch	-6046
êtes	-6047
▁Bou	-6048
▁Rob	-6049
▁pir	-6050
▁vac	-6051
omach	-6052
otted	-6053
ément	-6054
▁Cour	-6055
▁Grég	-6056
▁army	-6057
▁fant	-6058
▁laun	-6059
▁thou	-6060
▁April	-6061
▁Baron	-6062
▁celle	-6063
▁dance	-6064
▁parti	-6065
▁raise	-6066
▁rival	-6067
▁sport	-6068
▁abroad	-6069
▁butter	-6070
▁chosen	-6071
▁landed	-6072
▁mettre	-6073
▁specim	-6074
▁traces	-6075
▁tumult	-6076
▁vanity	-6077
▁reality	-6078
▁singing	-6079
▁actually	-6080
▁arrested	-6081
▁drinking	-6082
▁feverish	-6083
▁regarded	-6084
▁situated	-6085
▁receiving	-6086
▁hesitation	-6087
▁sentiments	-6088
▁instruments	-6089
xel	-6090
jour	-6091
rels	-6092
udes	-6093
▁asc	-6094
▁fus	-6095
▁net	-6096
▁vou	-6097
hamed	-6098
▁answ	-6099
▁voix	-6100
cember	-6101
idents	-6102
teenth	-6103
▁Conti	-6104
▁Henri	-6105
▁boats	-6106
▁drank	-6107
▁overt	-6108
▁reste	-6109
▁sheep	-6110
▁trick	-6111
▁Ingram	-6112
▁admire	-6113
▁carpet	-6114
▁habits	-6115
▁lovely	-6116
▁permit	-6117
▁reappe	-6118
▁stroke	-6119
▁balloon	-6120
▁candles	-6121
▁figures	-6122
▁resting	-6123
▁seconds	-6124
▁similar	-6125
▁wedding	-6126
▁Mortimer	-6127
▁semblait	-6128
onseigneur	-6129
▁described	-6130
▁fortunate	-6131
▁expedition	-6132
▁friendship	-6133
▁instrument	-6134
Bonadventure	-6135
ém	-6136
év	-6137
:--	-6138
abb	-6139
hic	-6140
itié	-6141
just	-6142
peak	-6143
tres	-6144
west	-6145
▁Gre	-6146
▁Hot	-6147
▁cri	-6148
▁lux	-6149
▁wra	-6150
arine	-6151
eries	-6152
▁Soon	-6153
▁haut	-6154
▁isol	-6155
▁perd	-6156
▁recl	-6157
▁tied	-6158
argent	-6159
ctober	-6160
pelled	-6161
▁blame	-6162
▁corps	-6163
▁fires	-6164
▁navig	-6165
▁scand	-6166
▁stamp	-6167
▁thres	-6168
▁track	-6169
▁turns	-6170
ception	-6171
ounding	-6172
raction	-6173
▁coarse	-6174
▁excurs	-6175
▁fought	-6176
▁uncons	-6177
▁Belcher	-6178
▁exagger	-6179
▁individ	-6180
▁kingdom	-6181
▁whisper	-6182
▁attacked	-6183
▁frequent	-6184
▁increase	-6185
▁laquelle	-6186
▁reaching	-6187
▁apprehens	-6188
▁intervals	-6189
▁preferred	-6190
▁suspected	-6191
▁commission	-6192
ny	-6193
cks	-6194
ode	-6195
▁moy	-6196
ician	-6197
iques	-6198
ouvre	-6199
▁base	-6200
▁bras	-6201
▁demi	-6202
▁joie	-6203
▁symp	-6204
acambo	-6205
hedral	-6206
pendant	-6207
▁anchor	-6208
▁explos	-6209
▁folded	-6210
▁incess	-6211
▁longed	-6212
▁Cacambo	-6213
▁October	-6214
▁Spanish	-6215
▁ashamed	-6216
▁blowing	-6217
▁elegant	-6218
▁December	-6219
▁admitted	-6220
▁generous	-6221
▁admirable	-6222
▁contented	-6223
▁religious	-6224
▁threshold	-6225
▁discussion	-6226
▁introduced	-6227
▁resistance	-6228
▁tenderness	-6229
▁destruction	-6230
▁observation	-6231
fr	-6232
aks	-6233
vée	-6234
yal	-6235
▁.'	-6236
Alas	-6237
neur	-6238
wood	-6239
▁ech	-6240
▁mou	-6241
bourn	-6242
iring	-6243
onnax	-6244
▁gown	-6245
▁huit	-6246
▁whit	-6247
ferent	-6248
▁loves	-6249
▁rappe	-6250
▁slope	-6251
▁autres	-6252
▁masses	-6253
▁nerves	-6254
▁obeyed	-6255
▁parted	-6256
▁shores	-6257
entlemen	-6258
▁Aronnax	-6259
▁Without	-6260
▁accused	-6261
▁forests	-6262
▁freedom	-6263
▁letting	-6264
▁mission	-6265
▁pouvoir	-6266
▁staring	-6267
▁stomach	-6268
▁crossing	-6269
▁midnight	-6270
ortunately	-6271
▁Longbourn	-6272
▁ascertain	-6273
▁belonging	-6274
▁destroyed	-6275
▁gendarmes	-6276
▁delightful	-6277
▁communication	-6278
***	-6279
ino	-6280
vis	-6281
▁fi	-6282
ales	-6283
stem	-6284
▁Acc	-6285
▁Ces	-6286
▁nod	-6287
iance	-6288
ulgar	-6289
▁----	-6290
▁Upon	-6291
▁boot	-6292
▁gent	-6293
▁grat	-6294
▁spur	-6295
▁wake	-6296
akened	-6297
▁Frank	-6298
▁awoke	-6299
▁cheek	-6300
▁heels	-6301
▁merry	-6302
▁negle	-6303
umbling	-6304
▁Having	-6305
▁accent	-6306
▁leaned	-6307
▁shells	-6308
▁thread	-6309
▁velvet	-6310
▁voyait	-6311
aissance	-6312
▁Finally	-6313
▁Jacques	-6314
▁Marecha	-6315
▁bedroom	-6316
▁counted	-6317
▁feather	-6318
▁frigate	-6319
▁hideous	-6320
▁torture	-6321
▁welcome	-6322
▁wishing	-6323
Certainly	-6324
▁longtemps	-6325
▁slightest	-6326
▁Providence	-6327
▁increasing	-6328
iot	-6329
rid	-6330
rir	-6331
see	-6332
seen	-6333
unes	-6334
▁feu	-6335
▁gau	-6336
ilson	-6337
uding	-6338
▁hosp	-6339
▁idée	-6340
▁melt	-6341
▁nois	-6342
▁oath	-6343
▁peur	-6344
▁écri	-6345
atural	-6346
strous	-6347
▁Grand	-6348
▁Lizzy	-6349
▁disgr	-6350
▁doute	-6351
▁grate	-6352
▁frozen	-6353
▁gouver	-6354
▁lovers	-6355
▁paying	-6356
▁bottles	-6357
▁examine	-6358
▁fearful	-6359
▁measure	-6360
▁yielded	-6361
▁Sherlock	-6362
▁substance	-6363
bac	-6364
col	-6365
gue	-6366
iew	-6367
▁XX	-6368
▁ju	-6369
outs	-6370
▁Fou	-6371
▁fût	-6372
▁shr	-6373
asion	-6374
ifice	-6375
inent	-6376
▁gros	-6377
▁lies	-6378
▁mant	-6379
▁prey	-6380
▁puzz	-6381
▁slee	-6382
livier	-6383
▁Crois	-6384
▁Hotel	-6385
▁Micha	-6386
▁cases	-6387
▁explo	-6388
▁haven	-6389
▁murde	-6390
▁suite	-6391
▁tight	-6392
▁urged	-6393
▁Wilson	-6394
▁ajouta	-6395
▁exting	-6396
▁freely	-6397
▁incred	-6398
▁insult	-6399
▁metres	-6400
▁January	-6401
▁dreamed	-6402
▁tremble	-6403
▁Moreover	-6404
▁ascended	-6405
▁document	-6406
▁passions	-6407
▁extremity	-6408
▁shuddered	-6409
▁conclusion	-6410
▁enthusiasm	-6411
▁profession	-6412
▁comfortable	-6413
▁exceedingly	-6414
▁indifference	-6415
▁consideration	-6416
▁notwithstanding	-6417
vit	-6418
éri	-6419
arch	-6420
hire	-6421
▁Nég	-6422
▁dru	-6423
mbers	-6424
stead	-6425
uries	-6426
▁Scot	-6427
▁abys	-6428
▁fain	-6429
▁mots	-6430
▁roll	-6431
atched	-6432
idable	-6433
iletti	-6434
rained	-6435
▁bones	-6436
▁diver	-6437
▁flash	-6438
▁lamps	-6439
▁refus	-6440
rospect	-6441
▁Govern	-6442
▁Négrel	-6443
▁Sainte	-6444
▁Temple	-6445
▁amount	-6446
▁esteem	-6447
▁prepar	-6448
▁sacred	-6449
▁tables	-6450
▁Giletti	-6451
▁dischar	-6452
▁driving	-6453
▁rencont	-6454
▁shelter	-6455
▁corridor	-6456
▁heartily	-6457
▁millions	-6458
▁practice	-6459
▁withdrew	-6460
▁establish	-6461
▁examining	-6462
▁monstrous	-6463
▁connection	-6464
▁downstairs	-6465
▁thoroughly	-6466
▁continually	-6467
▁disposition	-6468
▁established	-6469
▁indifferent	-6470
AL	-6471
Qu	-6472
alt	-6473
jud	-6474
six	-6475
zed	-6476
▁10	-6477
back	-6478
isis	-6479
pers	-6480
step	-6481
▁cig	-6482
▁dig	-6483
▁dug	-6484
▁fee	-6485
abond	-6486
▁Phil	-6487
▁chev	-6488
▁dogs	-6489
▁lace	-6490
▁pipe	-6491
▁ugly	-6492
ometer	-6493
▁Three	-6494
▁beard	-6495
▁belly	-6496
▁casta	-6497
▁donné	-6498
▁minds	-6499
▁moral	-6500
▁pages	-6501
▁Indeed	-6502
▁daring	-6503
▁hammer	-6504
▁kindly	-6505
▁notion	-6506
▁palace	-6507
▁plenty	-6508
▁remove	-6509
▁system	-6510
▁Olivier	-6511
▁channel	-6512
▁complex	-6513
▁tempest	-6514
▁unusual	-6515
▁ambition	-6516
▁audience	-6517
▁moreover	-6518
▁reproach	-6519
▁ridicule	-6520
▁separate	-6521
▁somebody	-6522
▁Christian	-6523
▁endeavour	-6524
▁impatient	-6525
▁performed	-6526
▁preparing	-6527
▁swallowed	-6528
▁reasonable	-6529
ye	-6530
gen	-6531
kin	-6532
lem	-6533
mar	-6534
née	-6535
ums	-6536
who	-6537
▁ec	-6538
kers	-6539
ught	-6540
▁Sur	-6541
▁err	-6542
▁uns	-6543
aired	-6544
aying	-6545
enois	-6546
miral	-6547
▁atro	-6548
▁blaz	-6549
▁ends	-6550
▁ment	-6551
▁stol	-6552
finite	-6553
rymore	-6554
▁Diana	-6555
▁color	-6556
▁facts	-6557
▁greet	-6558
▁pause	-6559
▁skiff	-6560
▁Fouque	-6561
▁Louvre	-6562
▁defend	-6563
▁losing	-6564
▁senses	-6565
▁enjoyed	-6566
▁existed	-6567
▁leather	-6568
▁priests	-6569
▁regions	-6570
▁require	-6571
▁sublime	-6572
▁upright	-6573
▁wearing	-6574
▁curtains	-6575
▁embraced	-6576
▁instance	-6577
▁vagabond	-6578
▁persuaded	-6579
▁represent	-6580
▁tellement	-6581
▁tranquill	-6582
▁Croisenois	-6583
▁interested	-6584
▁embarrassed	-6585
ED	-6586
▁8	-6587
imp	-6588
olt	-6589
two	-6590
Than	-6591
roll	-6592
▁Feb	-6593
▁Sea	-6594
▁Sem	-6595
▁dil	-6596
▁eru	-6597
▁âme	-6598
abord	-6599
eling	-6600
enger	-6601
piece	-6602
reuse	-6603
▁Gasc	-6604
▁Ital	-6605
▁Look	-6606
▁Tour	-6607
▁bars	-6608
▁bund	-6609
▁dine	-6610
▁enve	-6611
▁grie	-6612
▁rese	-6613
▁slip	-6614
▁sunk	-6615
▁swim	-6616
▁India	-6617
▁bosom	-6618
▁héros	-6619
▁indul	-6620
▁prize	-6621
▁reass	-6622
▁shirt	-6623
▁shoot	-6624
▁stout	-6625
▁vault	-6626
▁divers	-6627
▁observ	-6628
▁warmth	-6629
ailleurs	-6630
severina	-6631
▁breathe	-6632
▁central	-6633
▁consult	-6634
▁corners	-6635
▁correct	-6636
▁effects	-6637
▁extingu	-6638
▁glasses	-6639
▁phrases	-6640
▁protest	-6641
▁sixteen	-6642
▁stepped	-6643
▁swiftly	-6644
▁displeas	-6645
▁friendly	-6646
▁première	-6647
▁supplied	-6648
▁objection	-6649
▁abominable	-6650
▁apparently	-6651
▁compliment	-6652
▁formidable	-6653
▁proportion	-6654
▁Sanseverina	-6655
▁overwhelmed	-6656
▁threatening	-6657
▁disappointment	-6658
ok	-6659
ete	-6660
lph	-6661
ders	-6662
fell	-6663
text	-6664
umps	-6665
urel	-6666
▁Old	-6667
▁Thr	-6668
▁Tow	-6669
▁rue	-6670
▁vos	-6671
asper	-6672
astro	-6673
bacco	-6674
ruary	-6675
▁Chan	-6676
▁Edie	-6677
▁Loth	-6678
▁disd	-6679
▁gulf	-6680
▁heap	-6681
▁phen	-6682
issait	-6683
merald	-6684
▁Roman	-6685
▁domin	-6686
▁haute	-6687
▁march	-6688
▁mixed	-6689
▁odour	-6690
▁castle	-6691
▁lights	-6692
▁lively	-6693
▁retire	-6694
▁superb	-6695
▁wounds	-6696
▁Lothian	-6697
▁abandon	-6698
▁comprom	-6699
▁landing	-6700
▁provost	-6701
▁special	-6702
▁vessels	-6703
▁February	-6704
▁landlord	-6705
▁solitary	-6706
▁valuable	-6707
▁Barrymore	-6708
▁completed	-6709
▁education	-6710
▁irritated	-6711
▁addressing	-6712
rs	-6713
?--	-6714
oin	-6715
thy	-6716
resc	-6717
▁hut	-6718
▁odd	-6719
avais	-6720
heart	-6721
ossip	-6722
urely	-6723
▁Both	-6724
▁beds	-6725
▁canv	-6726
▁etre	-6727
▁glit	-6728
▁mead	-6729
▁salt	-6730
▁subs	-6731
▁Among	-6732
▁Those	-6733
▁acted	-6734
▁drift	-6735
▁metal	-6736
▁sails	-6737
meralda	-6738
ovember	-6739
▁active	-6740
▁advers	-6741
▁basket	-6742
▁chairs	-6743
▁fourth	-6744
▁resign	-6745
▁shaken	-6746
▁Heights	-6747
▁actions	-6748
▁alarmed	-6749
▁chevaux	-6750
▁compagn	-6751
▁descent	-6752
▁inquire	-6753
▁secured	-6754
▁whither	-6755
▁disaster	-6756
▁disposed	-6757
▁humanity	-6758
▁northern	-6759
▁restored	-6760
▁silently	-6761
▁starting	-6762
▁detective	-6763
▁seulement	-6764
▁strangers	-6765
▁comprehend	-6766
▁neighbours	-6767
car	-6768
cts	-6769
enz	-6770
gré	-6771
lez	-6772
olé	-6773
ula	-6774
▁fan	-6775
▁ouv	-6776
▁tos	-6777
preme	-6778
▁Axel	-6779
▁Nous	-6780
▁Pres	-6781
▁bois	-6782
▁maît	-6783
▁mild	-6784
▁pall	-6785
▁pred	-6786
asping	-6787
orious	-6788
▁Cross	-6789
▁Mayor	-6790
▁scorn	-6791
▁steel	-6792
▁upset	-6793
étaient	-6794
▁beaten	-6795
▁burned	-6796
▁handed	-6797
▁larger	-6798
▁constru	-6799
▁nouveau	-6800
▁satisfy	-6801
▁sharply	-6802
▁souvent	-6803
▁supreme	-6804
▁tobacco	-6805
▁weighed	-6806
▁November	-6807
▁Prospect	-6808
▁breathed	-6809
▁hitherto	-6810
▁obstacle	-6811
▁personal	-6812
▁regiment	-6813
.)	-6814
ET	-6815
rep	-6816
▁cu	-6817
elly	-6818
ived	-6819
ldom	-6820
llis	-6821
udge	-6822
▁Hon	-6823
▁Mal	-6824
▁Une	-6825
▁fow	-6826
▁haz	-6827
▁hel	-6828
▁obv	-6829
▁vue	-6830
alled	-6831
antes	-6832
atory	-6833
verse	-6834
▁dict	-6835
▁diss	-6836
▁fare	-6837
▁joke	-6838
▁lone	-6839
▁mère	-6840
▁resc	-6841
▁sink	-6842
omfort	-6843
▁Tabor	-6844
▁angel	-6845
▁backs	-6846
▁bruit	-6847
▁craft	-6848
▁depri	-6849
▁effet	-6850
▁flock	-6851
▁hypoc	-6852
▁incon	-6853
▁trous	-6854
▁weigh	-6855
▁winds	-6856
utenant	-6857
▁hungry	-6858
▁nights	-6859
▁volume	-6860
▁amiable	-6861
▁lackeys	-6862
▁lettres	-6863
▁scholar	-6864
▁Atlantic	-6865
▁confined	-6866
▁exercise	-6867
▁phenomen	-6868
▁preserve	-6869
▁reserved	-6870
▁agitation	-6871
▁adventures	-6872
▁Fortunately	-6873
▁represented	-6874
▁respectable	-6875
▁9	-6876
oll	-6877
wel	-6878
▁Wh	-6879
▁ax	-6880
bers	-6881
ials	-6882
inst	-6883
kind	-6884
sing	-6885
your	-6886
▁Dom	-6887
▁dur	-6888
▁icy	-6889
▁oil	-6890
▁ram	-6891
llers	-6892
occup	-6893
▁Lest	-6894
▁York	-6895
▁date	-6896
▁genu	-6897
▁push	-6898
▁scen	-6899
▁wasn	-6900
nemort	-6901
▁Seine	-6902
▁burnt	-6903
▁dimin	-6904
▁elbow	-6905
▁feast	-6906
▁harsh	-6907
▁holes	-6908
▁infam	-6909
▁irres	-6910
▁notes	-6911
▁shake	-6912
▁sugar	-6913
▁teach	-6914
▁trunk	-6915
▁views	-6916
osition	-6917
▁amidst	-6918
▁feeble	-6919
▁genius	-6920
▁haught	-6921
▁impert	-6922
▁phrase	-6923
▁promen	-6924
▁seldom	-6925
▁shiver	-6926
ulations	-6927
▁becomes	-6928
▁bending	-6929
▁bientôt	-6930
▁exasper	-6931
▁fenêtre	-6932
▁readily	-6933
▁seventy	-6934
▁stifled	-6935
▁studied	-6936
▁sympath	-6937
▁theatre	-6938
▁Seminary	-6939
▁reminded	-6940
▁Bonnemort	-6941
▁Esmeralda	-6942
▁accompany	-6943
▁complaint	-6944
▁recommend	-6945
▁remaining	-6946
▁thousands	-6947
▁wandering	-6948
▁accordingly	-6949
▁description	-6950
eu	-6951
tr	-6952
▁Av	-6953
▁Bl	-6954
Take	-6955
alls	-6956
aret	-6957
rant	-6958
▁Low	-6959
▁Roy	-6960
angle	-6961
appro	-6962
chait	-6963
ggist	-6964
ograp	-6965
ustri	-6966
▁belt	-6967
▁conc	-6968
▁cook	-6969
▁crou	-6970
▁fins	-6971
▁impl	-6972
father	-6973
iennes	-6974
▁disag	-6975
▁embro	-6976
ational	-6977
▁Excell	-6978
▁colony	-6979
▁commen	-6980
▁forbid	-6981
▁lackey	-6982
▁missed	-6983
▁prompt	-6984
▁redoub	-6985
▁thirst	-6986
▁Admiral	-6987
▁château	-6988
▁machine	-6989
▁objects	-6990
▁passait	-6991
▁singuli	-6992
▁wrapped	-6993
▁ceremony	-6994
▁disorder	-6995
▁imprison	-6996
▁insisted	-6997
▁passages	-6998
▁amazement	-6999
▁suggested	-7000
▁procession	-7001
▁attentively	-7002
ilà	-7003
▁Fa	-7004
▁ai	-7005
itor	-7006
▁Any	-7007
▁Bay	-7008
▁Tom	-7009
▁anc	-7010
▁blo	-7011
▁ere	-7012
▁rud	-7013
anche	-7014
ether	-7015
rooms	-7016
▁Poor	-7017
▁horn	-7018
▁lane	-7019
▁rule	-7020
▁tiny	-7021
▁veil	-7022
eneral	-7023
ensive	-7024
everal	-7025
▁Again	-7026
▁awake	-7027
▁balls	-7028
▁estim	-7029
▁gates	-7030
▁tempt	-7031
▁trial	-7032
▁venir	-7033
▁adress	-7034
▁aurait	-7035
▁branch	-7036
▁cellar	-7037
▁fairly	-7038
▁femmes	-7039
▁hearth	-7040
▁origin	-7041
▁scient	-7042
▁wheels	-7043
▁Another	-7044
▁William	-7045
▁contact	-7046
▁destroy	-7047
▁edifice	-7048
▁forever	-7049
▁harness	-7050
▁heavens	-7051
▁lodging	-7052
▁painted	-7053
▁plaisir	-7054
▁pretext	-7055
▁torment	-7056
▁armchair	-7057
▁catastro	-7058
▁complain	-7059
▁druggist	-7060
▁eighteen	-7061
▁vigorous	-7062
▁wandered	-7063
▁attempted	-7064
▁continent	-7065
▁passeport	-7066
▁passionate	-7067
▁gentlewoman	-7068
).	-7069
Se	-7070
--'	-7071
enb	-7072
▁"_	-7073
enzi	-7074
irts	-7075
vert	-7076
▁Dre	-7077
aning	-7078
hibit	-7079
ilies	-7080
écile	-7081
▁Hope	-7082
▁June	-7083
▁Next	-7084
▁Pour	-7085
▁Rose	-7086
▁appl	-7087
▁debt	-7088
▁deny	-7089
▁déjà	-7090
▁fasc	-7091
▁pits	-7092
▁sche	-7093
▁tale	-7094
Listen	-7095
ilight	-7096
leness	-7097
▁Cresc	-7098
▁Great	-7099
▁James	-7100
▁crust	-7101
▁genus	-7102
▁silly	-7103
ulating	-7104
▁bundle	-7105
▁humour	-7106
▁income	-7107
▁patron	-7108
▁paused	-7109
▁raison	-7110
▁travel	-7111
▁costume	-7112
▁counsel	-7113
▁embrace	-7114
▁genuine	-7115
▁magistr	-7116
▁remembr	-7117
▁sinking	-7118
▁soldats	-7119
▁cheerful	-7120
▁intimate	-7121
▁uttering	-7122
iterranean	-7123
▁Crescenzi	-7124
▁personage	-7125
▁stupefied	-7126
▁Englishman	-7127
▁distinctly	-7128
▁precaution	-7129
▁considering	-7130
ere	-7131
▁Af	-7132
grat	-7133
ibly	-7134
pool	-7135
▁fog	-7136
▁sie	-7137
buted	-7138
irent	-7139
▁Pont	-7140
▁eggs	-7141
▁lust	-7142
▁mans	-7143
▁pian	-7144
▁sees	-7145
▁tard	-7146
▁veux	-7147
▁vrai	-7148
▁warn	-7149
usions	-7150
▁Rouen	-7151
▁canoe	-7152
▁carri	-7153
▁ingen	-7154
▁salon	-7155
▁serge	-7156
▁stuck	-7157
onville	-7158
▁Accord	-7159
▁Nether	-7160
▁decide	-7161
▁firmly	-7162
▁Michaud	-7163
▁Towards	-7164
▁comrade	-7165
▁inquiry	-7166
▁pockets	-7167
▁quitted	-7168
▁respond	-7169
▁workers	-7170
▁commence	-7171
▁gestures	-7172
▁original	-7173
▁proposal	-7174
▁attracted	-7175
▁commander	-7176
▁confessed	-7177
▁désespoir	-7178
▁meanwhile	-7179
▁precisely	-7180
▁recognize	-7181
▁forgetting	-7182
▁invitation	-7183
▁succession	-7184
▁Netherfield	-7185
▁possibility	-7186
▁Mediterranean	-7187
ama	-7188
ipe	-7189
met	-7190
▁13	-7191
▁Cr	-7192
apan	-7193
ords	-7194
ashes	-7195
enses	-7196
honne	-7197
inder	-7198
ology	-7199
shire	-7200
unted	-7201
▁Tell	-7202
▁leis	-7203
▁milk	-7204
▁page	-7205
▁prim	-7206
▁tore	-7207
atured	-7208
isting	-7209
utions	-7210
▁North	-7211
▁capit	-7212
▁cared	-7213
▁grâce	-7214
▁infer	-7215
▁marks	-7216
▁maréc	-7217
▁nails	-7218
▁niece	-7219
▁queer	-7220
▁steal	-7221
▁stove	-7222
▁absent	-7223
▁canvas	-7224
▁fisher	-7225
▁laying	-7226
▁lequel	-7227
▁lonely	-7228
▁series	-7229
▁signed	-7230
▁source	-7231
▁souver	-7232
▁thence	-7233
▁admired	-7234
▁flowing	-7235
▁glanced	-7236
▁assassin	-7237
▁attended	-7238
▁awakened	-7239
▁evidence	-7240
▁exchange	-7241
▁strongly	-7242
▁twilight	-7243
▁conducted	-7244
▁ignorance	-7245
▁prolonged	-7246
▁traversed	-7247
▁beforehand	-7248
▁politeness	-7249
▁intelligent	-7250
cr	-7251
moi	-7252
▁Im	-7253
▁Su	-7254
etre	-7255
hill	-7256
çait	-7257
épar	-7258
▁Bra	-7259
▁Cal	-7260
▁Ros	-7261
▁tin	-7262
▁tut	-7263
▁étr	-7264
iving	-7265
▁Brit	-7266
▁Ferr	-7267
▁Lied	-7268
▁aper	-7269
▁bail	-7270
▁onto	-7271
▁rude	-7272
atives	-7273
headed	-7274
▁Grant	-7275
▁Helen	-7276
▁Lucas	-7277
▁brist	-7278
▁climb	-7279
▁dense	-7280
▁drops	-7281
▁incap	-7282
▁rigid	-7283
▁shrie	-7284
ardinal	-7285
aturday	-7286
honneur	-7287
▁amazed	-7288
▁chemin	-7289
▁collar	-7290
▁deeper	-7291
▁detail	-7292
▁devait	-7293
▁imagin	-7294
▁parish	-7295
▁quelle	-7296
▁warned	-7297
▁Drebber	-7298
▁Ferrier	-7299
▁Neither	-7300
▁Several	-7301
▁dismiss	-7302
▁reflect	-7303
▁rushing	-7304
▁anywhere	-7305
▁fourteen	-7306
▁pourrait	-7307
▁wretches	-7308
▁appointed	-7309
▁enclosure	-7310
▁immediate	-7311
▁throughout	-7312
.—	-7313
OM	-7314
apt	-7315
asy	-7316
itz	-7317
ras	-7318
hour	-7319
isse	-7320
ndez	-7321
▁Con	-7322
▁Cor	-7323
▁Ven	-7324
▁alt	-7325
▁enl	-7326
▁ink	-7327
▁oak	-7328
▁tun	-7329
lopin	-7330
▁Jack	-7331
▁boil	-7332
▁eyel	-7333
▁obey	-7334
▁owed	-7335
▁rode	-7336
▁sobs	-7337
▁test	-7338
▁vive	-7339
dessus	-7340
▁South	-7341
▁abyss	-7342
▁avons	-7343
▁bench	-7344
▁deven	-7345
▁hound	-7346
▁manif	-7347
▁pains	-7348
▁roofs	-7349
enbrock	-7350
natural	-7351
▁Clopin	-7352
▁Seurel	-7353
▁ardent	-7354
▁artist	-7355
▁exclam	-7356
▁extend	-7357
▁grands	-7358
▁humili	-7359
▁nombre	-7360
▁paraly	-7361
▁poured	-7362
▁reprit	-7363
▁sentin	-7364
▁sheets	-7365
▁stable	-7366
▁stolen	-7367
▁endless	-7368
▁gravity	-7369
▁heavily	-7370
▁malheur	-7371
▁revenge	-7372
▁sending	-7373
▁Franklin	-7374
▁Yonville	-7375
▁backward	-7376
▁dreaming	-7377
▁goodness	-7378
▁inspired	-7379
▁military	-7380
▁peaceful	-7381
▁observing	-7382
▁travelling	-7383
▁Liedenbrock	-7384
▁embarrassment	-7385
God	-7386
agg	-7387
ari	-7388
awn	-7389
box	-7390
ncy	-7391
uns	-7392
van	-7393
▁Lu	-7394
Just	-7395
Only	-7396
aved	-7397
azin	-7398
bear	-7399
iron	-7400
iven	-7401
tant	-7402
upon	-7403
utch	-7404
ôtel	-7405
▁gor	-7406
▁jur	-7407
apped	-7408
ouche	-7409
rente	-7410
▁...'	-7411
▁Near	-7412
▁bout	-7413
▁capt	-7414
▁doct	-7415
▁doit	-7416
▁huss	-7417
▁perf	-7418
▁roar	-7419
▁rows	-7420
▁vint	-7421
ançais	-7422
gellis	-7423
ologne	-7424
▁Could	-7425
▁Fleur	-7426
▁Grace	-7427
▁Quand	-7428
▁agony	-7429
▁basin	-7430
▁borne	-7431
▁intox	-7432
▁mains	-7433
▁ruins	-7434
▁skull	-7435
▁Naples	-7436
▁crimes	-7437
▁jacket	-7438
▁longue	-7439
▁loving	-7440
▁toilet	-7441
ceptible	-7442
▁congrat	-7443
▁dangers	-7444
▁disdain	-7445
▁illness	-7446
▁pirates	-7447
▁pushing	-7448
▁recover	-7449
▁sadness	-7450
▁scandal	-7451
▁Lheureux	-7452
▁articles	-7453
▁devotion	-7454
▁disagree	-7455
▁maréchal	-7456
▁memories	-7457
▁properly	-7458
▁trousers	-7459
▁Tregellis	-7460
▁cathedral	-7461
▁resembled	-7462
▁struggled	-7463
▁engagement	-7464
▁gouverneur	-7465
▁punishment	-7466
bes	-7467
hab	-7468
gues	-7469
inth	-7470
oard	-7471
ouss	-7472
unks	-7473
▁dip	-7474
▁rom	-7475
▁réc	-7476
agers	-7477
ancer	-7478
ivity	-7479
raham	-7480
▁Mill	-7481
▁echo	-7482
▁jaws	-7483
▁oars	-7484
▁redd	-7485
▁reef	-7486
▁trot	-7487
▁très	-7488
ailing	-7489
inaire	-7490
▁Bazin	-7491
▁Hence	-7492
▁gleam	-7493
▁moist	-7494
▁perse	-7495
▁shill	-7496
▁smith	-7497
▁swore	-7498
▁série	-7499
▁étonn	-7500
licable	-7501
orously	-7502
▁distri	-7503
▁eldest	-7504
▁hiding	-7505
▁loudly	-7506
▁mouths	-7507
▁resume	-7508
▁whales	-7509
▁Islands	-7510
▁article	-7511
▁concent	-7512
▁crowded	-7513
▁despite	-7514
▁discour	-7515
▁follows	-7516
▁reserve	-7517
▁workmen	-7518
▁brothers	-7519
▁chercher	-7520
▁présence	-7521
▁suitable	-7522
▁appearing	-7523
▁certainty	-7524
▁incapable	-7525
▁specimens	-7526
▁conviction	-7527
▁malheureux	-7528
▁plantation	-7529
▁extinguished	-7530
May	-7531
eux	-7532
ige	-7533
▁20	-7534
▁ox	-7535
atus	-7536
gate	-7537
nant	-7538
▁Del	-7539
▁cad	-7540
▁enr	-7541
▁god	-7542
▁ont	-7543
▁unl	-7544
antin	-7545
iated	-7546
irmed	-7547
oleon	-7548
ombay	-7549
table	-7550
ulars	-7551
▁club	-7552
▁coff	-7553
▁diff	-7554
▁flut	-7555
▁haul	-7556
▁jury	-7557
▁mate	-7558
▁mode	-7559
▁slop	-7560
ristan	-7561
▁About	-7562
▁Berks	-7563
▁Faust	-7564
▁Robin	-7565
▁aller	-7566
▁canal	-7567
▁envoy	-7568
▁fists	-7569
▁merit	-7570
▁moyen	-7571
▁newsp	-7572
▁piled	-7573
autions	-7574
nothing	-7575
ousquet	-7576
▁Guilla	-7577
▁aucune	-7578
▁batter	-7579
▁coldly	-7580
▁divine	-7581
▁intend	-7582
▁libert	-7583
▁parole	-7584
▁petits	-7585
▁reward	-7586
▁savait	-7587
▁vérité	-7588
▁weapon	-7589
▁awaited	-7590
▁gardens	-7591
▁gravely	-7592
▁journal	-7593
▁panting	-7594
▁patient	-7595
▁placing	-7596
▁prepare	-7597
▁respons	-7598
▁smoking	-7599
▁twisted	-7600
▁univers	-7601
▁utterly	-7602
▁victory	-7603
▁visited	-7604
▁warning	-7605
▁Saturday	-7606
▁covering	-7607
▁criminal	-7608
▁irresist	-7609
▁measured	-7610
▁nouvelle	-7611
▁stronger	-7612
▁afterward	-7613
▁cependant	-7614
▁excursion	-7615
▁suspended	-7616
▁directions	-7617
▁acknowledged	-7618
▁difficulties	-7619
Re	-7620
Lys	-7621
gne	-7622
▁12	-7623
▁Bé	-7624
acre	-7625
ands	-7626
host	-7627
icip	-7628
otes	-7629
rily	-7630
roit	-7631
▁Dep	-7632
▁Non	-7633
▁dès	-7634
▁déf	-7635
▁nap	-7636
allel	-7637
bourg	-7638
lease	-7639
stone	-7640
▁Four	-7641
▁Gulf	-7642
▁Kong	-7643
▁afar	-7644
▁inex	-7645
▁shaw	-7646
▁simp	-7647
▁thee	-7648
▁vest	-7649
ifying	-7650
▁Japan	-7651
▁appet	-7652
▁cargo	-7653
▁glory	-7654
▁oblig	-7655
▁sorte	-7656
▁vient	-7657
regular	-7658
▁Bombay	-7659
▁Grivet	-7660
▁Little	-7661
▁invest	-7662
▁mortal	-7663
▁savoir	-7664
▁stands	-7665
▁throng	-7666
▁conject	-7667
▁desires	-7668
▁doubted	-7669
▁parlour	-7670
▁pierced	-7671
▁planted	-7672
ousqueton	-7673
▁animated	-7674
▁previous	-7675
▁rejoined	-7676
▁collected	-7677
▁earnestly	-7678
▁furiously	-7679
▁obstinate	-7680
▁prevailed	-7681
▁souverain	-7682
▁complexion	-7683
▁prodigious	-7684
▁reappeared	-7685
▁transports	-7686
▁examination	-7687
Or	-7688
tu	-7689
enf	-7690
had	-7691
mol	-7692
nor	-7693
apes	-7694
arri	-7695
idée	-7696
▁sco	-7697
▁wax	-7698
assed	-7699
othes	-7700
ussit	-7701
▁Hong	-7702
▁caut	-7703
▁dess	-7704
▁gets	-7705
▁sway	-7706
▁tres	-7707
estern	-7708
inkled	-7709
▁adorn	-7710
▁aucun	-7711
▁chain	-7712
▁champ	-7713
▁donne	-7714
▁faded	-7715
▁giant	-7716
▁piano	-7717
▁seize	-7718
▁Fausta	-7719
▁aboard	-7720
▁barbar	-7721
▁bishop	-7722
▁carved	-7723
▁commit	-7724
▁copper	-7725
▁halted	-7726
▁mighty	-7727
▁native	-7728
▁partly	-7729
▁precip	-7730
▁relate	-7731
▁thinks	-7732
lication	-7733
▁Abraham	-7734
▁Austria	-7735
▁Through	-7736
▁altered	-7737
▁annoyed	-7738
▁created	-7739
▁emerged	-7740
▁foreign	-7741
▁haughty	-7742
▁mariage	-7743
▁pulling	-7744
▁slender	-7745
▁unpleas	-7746
▁Napoleon	-7747
▁decision	-7748
▁material	-7749
▁physical	-7750
▁revealed	-7751
▁searched	-7752
▁yielding	-7753
▁arguments	-7754
▁authority	-7755
▁believing	-7756
▁irregular	-7757
▁maîtresse	-7758
▁qualities	-7759
▁uncertain	-7760
▁calculated	-7761
▁penetrated	-7762
▁executioner	-7763
▁particulars	-7764
▁unconscious	-7765
asm	-7766
och	-7767
oci	-7768
rée	-7769
yes	-7770
▁Bo	-7771
▁IV	-7772
▁Sh	-7773
riar	-7774
urer	-7775
▁AND	-7776
▁Him	-7777
▁Out	-7778
▁Sep	-7779
▁eux	-7780
▁tub	-7781
milly	-7782
uming	-7783
verty	-7784
▁Avon	-7785
▁acid	-7786
▁bust	-7787
▁hunt	-7788
▁intr	-7789
▁ling	-7790
▁mart	-7791
▁neat	-7792
▁nest	-7793
▁outl	-7794
▁retr	-7795
▁sons	-7796
▁tram	-7797
▁trav	-7798
▁weep	-7799
icular	-7800
nation	-7801
orable	-7802
ouille	-7803
▁fiery	-7804
▁pitch	-7805
ressing	-7806
uminous	-7807
▁Chelan	-7808
▁Cécile	-7809
▁beings	-7810
▁border	-7811
▁compte	-7812
▁convey	-7813
▁female	-7814
▁gaiety	-7815
▁modern	-7816
▁modest	-7817
▁planks	-7818
▁repose	-7819
▁robber	-7820
▁roused	-7821
▁strict	-7822
▁valley	-7823
▁blushed	-7824
▁forming	-7825
▁glances	-7826
▁madness	-7827
▁manager	-7828
▁poverty	-7829
▁prayers	-7830
▁weapons	-7831
▁Although	-7832
▁Cardinal	-7833
▁arriving	-7834
▁catching	-7835
▁coolness	-7836
▁marrying	-7837
▁reckoned	-7838
▁Mouquette	-7839
▁Rosemilly	-7840
▁assurance	-7841
▁buildings	-7842
▁connected	-7843
▁interests	-7844
▁Excellence	-7845
▁Mousqueton	-7846
▁maintained	-7847
▁questioned	-7848
▁struggling	-7849
▁recollection	-7850
IL	-7851
eys	-7852
lex	-7853
urg	-7854
▁11	-7855
▁TO	-7856
gram	-7857
lebr	-7858
quen	-7859
▁Cel	-7860
▁bab	-7861
▁geô	-7862
▁lat	-7863
▁nay	-7864
▁oub	-7865
▁ros	-7866
abled	-7867
giana	-7868
hered	-7869
étais	-7870
▁Bank	-7871
▁Sand	-7872
▁beer	-7873
▁bone	-7874
▁cass	-7875
▁cott	-7876
▁ecst	-7877
▁holy	-7878
▁leaf	-7879
▁lift	-7880
▁tele	-7881
▁wave	-7882
apping	-7883
issary	-7884
ivered	-7885
▁Afric	-7886
▁Comme	-7887
▁Court	-7888
▁Mason	-7889
▁Other	-7890
▁cable	-7891
▁chase	-7892
▁dried	-7893
▁ennem	-7894
▁image	-7895
▁poign	-7896
▁poult	-7897
▁sadly	-7898
onsense	-7899
▁Duches	-7900
▁acting	-7901
▁bewild	-7902
▁bloody	-7903
▁brutal	-7904
▁caract	-7905
▁cetace	-7906
▁chasse	-7907
▁colère	-7908
▁hoping	-7909
▁lament	-7910
▁locked	-7911
▁overfl	-7912
▁spared	-7913
▁transp	-7914
▁washed	-7915
▁flatter	-7916
▁inspect	-7917
▁puzzled	-7918
▁serpent	-7919
▁acquired	-7920
▁diamonds	-7921
▁eruption	-7922
▁hesitate	-7923
▁offering	-7924
▁property	-7925
▁shrugged	-7926
▁shutters	-7927
▁touching	-7928
▁volcanic	-7929
archevêque	-7930
▁consisted	-7931
▁favourite	-7932
▁pleasures	-7933
▁suspicions	-7934
▁incessantly	-7935
▁disagreeable	-7936
▁preparations	-7937
.−−	-7938
▁ay	-7939
▁iv	-7940
Jane	-7941
Poor	-7942
cles	-7943
lait	-7944
llus	-7945
ères	-7946
▁Cat	-7947
▁Man	-7948
▁hol	-7949
▁san	-7950
▁sne	-7951
asses	-7952
avant	-7953
break	-7954
hurst	-7955
icing	-7956
▁Puis	-7957
▁Very	-7958
▁lent	-7959
▁mauv	-7960
▁nour	-7961
▁wire	-7962
attend	-7963
▁Brock	-7964
▁calls	-7965
▁cards	-7966
▁coups	-7967
▁creek	-7968
▁entra	-7969
▁flour	-7970
▁fusil	-7971
▁guine	-7972
▁noted	-7973
▁novel	-7974
▁siege	-7975
Captain	-7976
quenard	-7977
▁Church	-7978
▁Gascon	-7979
▁People	-7980
▁associ	-7981
▁brings	-7982
▁damned	-7983
▁easier	-7984
▁finest	-7985
▁intent	-7986
▁marine	-7987
▁plates	-7988
▁praise	-7989
▁rendez	-7990
▁visits	-7991
ellement	-7992
▁affaire	-7993
▁applied	-7994
▁arriver	-7995
▁control	-7996
▁earlier	-7997
▁exhaust	-7998
▁happily	-7999
▁lightly	-8000
▁nearest	-8001
▁obscure	-8002
▁pistols	-8003
▁seizing	-8004
▁contrast	-8005
▁maintain	-8006
▁minister	-8007
▁piercing	-8008
▁Coquenard	-8009
▁Marechale	-8010
▁anxiously	-8011
▁carriages	-8012
▁centuries	-8013
▁commenced	-8014
▁constable	-8015
▁displayed	-8016
▁explosion	-8017
▁inquiries	-8018
▁interview	-8019
▁sheltered	-8020
▁advantages	-8021
▁convenient	-8022
▁distracted	-8023
▁protection	-8024
▁sweetheart	-8025
▁catastrophe	-8026
▁deliverance	-8027
;"	-8028
fa	-8029
sp	-8030
omy	-8031
pen	-8032
▁"~	-8033
▁30	-8034
▁ga	-8035
▁gn	-8036
▁pâ	-8037
▁ze	-8038
From	-8039
arms	-8040
berg	-8041
bres	-8042
dled	-8043
enny	-8044
ften	-8045
maid	-8046
mond	-8047
olet	-8048
reet	-8049
rene	-8050
vest	-8051
▁Jew	-8052
▁pig	-8053
▁ric	-8054
▁spy	-8055
▁tip	-8056
▁unb	-8057
▁écl	-8058
erson	-8059
lique	-8060
▁Flem	-8061
▁Fril	-8062
▁Quel	-8063
▁butt	-8064
▁crit	-8065
▁puff	-8066
▁quad	-8067
▁rear	-8068
▁robe	-8069
▁tast	-8070
▁voud	-8071
Master	-8072
enched	-8073
ilence	-8074
issant	-8075
ources	-8076
unning	-8077
▁Après	-8078
▁Under	-8079
▁bells	-8080
▁brick	-8081
▁chape	-8082
▁disgu	-8083
▁inher	-8084
▁issue	-8085
▁labor	-8086
▁mouve	-8087
▁waste	-8088
hearted	-8089
lehurst	-8090
▁Nature	-8091
▁Robert	-8092
▁celebr	-8093
▁enchan	-8094
▁glided	-8095
▁pursue	-8096
▁statue	-8097
▁strata	-8098
▁unique	-8099
ological	-8100
▁Comment	-8101
▁Tristan	-8102
▁aroused	-8103
▁arrange	-8104
▁carpent	-8105
▁colonel	-8106
▁heureux	-8107
▁impress	-8108
▁kilomet	-8109
▁renewed	-8110
▁sailors	-8111
▁Lestrade	-8112
▁accounts	-8113
▁coachman	-8114
▁definite	-8115
▁disgrace	-8116
▁executed	-8117
▁families	-8118
▁footstep	-8119
▁independ	-8120
▁involunt	-8121
▁merchant	-8122
▁persuade	-8123
▁relation	-8124
▁replaced	-8125
▁steadily	-8126
▁Georgiana	-8127
▁enjoyment	-8128
▁longitude	-8129
▁penetrate	-8130
▁attentions	-8131
▁surprising	-8132
▁unpleasant	-8133
▁consolation	-8134
▁expectation	-8135
▁remembrance	-8136
▁inexplicable	-8137
▁neighbouring	-8138
IE	-8139
Un	-8140
él	-8141
aid	-8142
ani	-8143
gre	-8144
▁WH	-8145
boat	-8146
ctic	-8147
idge	-8148
vice	-8149
▁mas	-8150
▁nos	-8151
▁tig	-8152
bable	-8153
eight	-8154
rated	-8155
rollo	-8156
▁Anne	-8157
▁batt	-8158
▁caps	-8159
▁cock	-8160
▁duel	-8161
▁rive	-8162
hemian	-8163
icious	-8164
illart	-8165
▁Lydie	-8166
▁apply	-8167
▁bride	-8168
▁equip	-8169
▁erect	-8170
▁falls	-8171
▁fools	-8172
▁ghost	-8173
▁ident	-8174
▁idiot	-8175
▁intol	-8176
▁invis	-8177
▁monot	-8178
▁ninet	-8179
▁royal	-8180
▁slipp	-8181
▁souri	-8182
itively	-8183
natured	-8184
usement	-8185
▁Frollo	-8186
▁Jesuit	-8187
▁Turtle	-8188
▁actual	-8189
▁clergy	-8190
▁endure	-8191
▁impass	-8192
▁indisp	-8193
▁inward	-8194
▁market	-8195
▁packed	-8196
▁prayer	-8197
▁profit	-8198
▁provin	-8199
▁saving	-8200
▁steady	-8201
▁trente	-8202
▁united	-8203
▁Bologne	-8204
▁avoided	-8205
▁dignity	-8206
▁emptied	-8207
▁exhibit	-8208
▁eyelids	-8209
▁grounds	-8210
▁persist	-8211
▁quality	-8212
▁regards	-8213
▁weeping	-8214
▁compared	-8215
▁dazzling	-8216
▁departed	-8217
▁luminous	-8218
▁parallel	-8219
▁repaired	-8220
▁Commander	-8221
▁attentive	-8222
▁encounter	-8223
▁strangely	-8224
▁compassion	-8225
▁confession	-8226
▁ridiculous	-8227
▁travellers	-8228
▁Brocklehurst	-8229
▁consequences	-8230
▁instructions	-8231
.’	-8232
▁â	-8233
boy	-8234
don	-8235
flo	-8236
got	-8237
leg	-8238
nut	-8239
why	-8240
èse	-8241
▁XV	-8242
have	-8243
oine	-8244
only	-8245
ront	-8246
▁Ant	-8247
▁map	-8248
▁rif	-8249
▁rot	-8250
▁tar	-8251
ardes	-8252
ermin	-8253
ettre	-8254
liers	-8255
oison	-8256
ordre	-8257
▁Réqu	-8258
▁amis	-8259
▁desk	-8260
▁dumb	-8261
▁fors	-8262
▁nurs	-8263
▁obed	-8264
▁quin	-8265
▁rece	-8266
▁shoe	-8267
▁sust	-8268
▁tand	-8269
▁terr	-8270
▁tire	-8271
▁type	-8272
▁wick	-8273
ackson	-8274
aments	-8275
▁Major	-8276
▁desir	-8277
▁fleet	-8278
▁galop	-8279
▁moust	-8280
▁pupil	-8281
▁thief	-8282
▁écrit	-8283
▁Hatter	-8284
▁Rivers	-8285
▁advise	-8286
▁cannon	-8287
▁chaise	-8288
▁crowns	-8289
▁cursed	-8290
▁duties	-8291
▁flames	-8292
▁flowed	-8293
▁insist	-8294
▁malgré	-8295
▁mollus	-8296
▁musket	-8297
▁nobles	-8298
▁propri	-8299
▁saddle	-8300
▁sommes	-8301
▁trains	-8302
ouvarine	-8303
▁Frilair	-8304
▁anticip	-8305
▁clasped	-8306
▁impulse	-8307
▁marvell	-8308
▁popular	-8309
▁privile	-8310
▁prosper	-8311
▁railway	-8312
▁rounded	-8313
▁visitor	-8314
▁bestowed	-8315
▁climbing	-8316
▁disposal	-8317
▁domestic	-8318
▁evenings	-8319
▁graceful	-8320
▁grateful	-8321
▁measures	-8322
▁moderate	-8323
▁offended	-8324
▁smallest	-8325
▁visitors	-8326
▁apparatus	-8327
▁elsewhere	-8328
▁exchanged	-8329
▁reckoning	-8330
▁Réquillart	-8331
▁accomplish	-8332
▁contracted	-8333
▁phenomenon	-8334
▁observations	-8335
EL	-8336
Le	-8337
eût	-8338
oom	-8339
anco	-8340
anim	-8341
oked	-8342
plex	-8343
tery	-8344
▁dun	-8345
▁voc	-8346
Would	-8347
floor	-8348
oseph	-8349
▁Alas	-8350
▁City	-8351
▁Down	-8352
▁bark	-8353
▁bast	-8354
▁beam	-8355
▁bend	-8356
▁clay	-8357
▁flee	-8358
▁glow	-8359
▁penc	-8360
▁trip	-8361
▁whip	-8362
▁êtes	-8363
ancois	-8364
arrant	-8365
▁Dutch	-8366
▁Enfin	-8367
▁Greek	-8368
▁Liver	-8369
▁Royal	-8370
▁ahead	-8371
▁ashes	-8372
▁clust	-8373
▁enlar	-8374
▁folds	-8375
▁lunch	-8376
▁needs	-8377
▁parut	-8378
▁rempl	-8379
▁ropes	-8380
▁sweat	-8381
▁sworn	-8382
▁tones	-8383
▁tramp	-8384
▁veins	-8385
▁wager	-8386
▁Wardes	-8387
▁appare	-8388
▁hoarse	-8389
▁lawyer	-8390
▁morrow	-8391
▁purple	-8392
▁semble	-8393
▁string	-8394
▁swords	-8395
▁croyait	-8396
▁enterpr	-8397
▁fearing	-8398
▁furnish	-8399
▁ladders	-8400
▁majesty	-8401
▁miracle	-8402
▁parting	-8403
▁perplex	-8404
▁poultry	-8405
▁regarda	-8406
▁results	-8407
▁surgeon	-8408
▁thanked	-8409
▁torches	-8410
▁vaguely	-8411
▁winding	-8412
▁careless	-8413
▁learning	-8414
▁services	-8415
▁withdraw	-8416
▁Souvarine	-8417
▁fragments	-8418
▁practical	-8419
▁quivering	-8420
▁imprudence	-8421
▁individual	-8422
▁sensations	-8423
▁entertained	-8424
▁resignation	-8425
▁mechanically	-8426
RO	-8427
UR	-8428
~,	-8429
ana	-8430
rec	-8431
sis	-8432
uer	-8433
œil	-8434
▁Ac	-8435
aned	-8436
avag	-8437
bank	-8438
quoi	-8439
▁cot	-8440
▁lib	-8441
▁shy	-8442
aston	-8443
heard	-8444
itute	-8445
molue	-8446
versi	-8447
▁Braz	-8448
▁Many	-8449
▁Mery	-8450
▁Mock	-8451
▁Take	-8452
▁bows	-8453
▁chef	-8454
▁elep	-8455
▁ensu	-8456
▁foli	-8457
▁heed	-8458
▁pont	-8459
▁ruff	-8460
▁runs	-8461
▁soot	-8462
▁sque	-8463
▁wash	-8464
otions	-8465
oureux	-8466
vaques	-8467
▁alter	-8468
▁cease	-8469
▁donna	-8470
▁garde	-8471
▁insul	-8472
▁magic	-8473
▁physi	-8474
▁popul	-8475
▁résol	-8476
▁saint	-8477
▁scrup	-8478
▁title	-8479
▁voici	-8480
ouncing	-8481
▁Lowood	-8482
▁Pember	-8483
▁Though	-8484
▁affirm	-8485
▁chapel	-8486
▁choked	-8487
▁closer	-8488
▁drawer	-8489
▁elbows	-8490
▁formal	-8491
▁guards	-8492
▁maître	-8493
▁motive	-8494
▁reconc	-8495
▁sighed	-8496
▁triste	-8497
piration	-8498
sibility	-8499
▁Raversi	-8500
▁bailiff	-8501
▁caporal	-8502
▁element	-8503
▁guarded	-8504
▁killing	-8505
▁leisure	-8506
▁secrets	-8507
▁spotted	-8508
▁teacher	-8509
▁warrant	-8510
▁argument	-8511
▁enclosed	-8512
▁garments	-8513
▁governor	-8514
▁inferior	-8515
▁monsters	-8516
▁purchase	-8517
▁sinister	-8518
▁Charmolue	-8519
▁Fervaques	-8520
▁Liverpool	-8521
▁Pemberley	-8522
▁Therefore	-8523
▁consented	-8524
▁consulted	-8525
▁fantastic	-8526
▁incidents	-8527
▁perceiving	-8528
▁scientific	-8529
▁acknowledge	-8530
Ar	-8531
Ay	-8532
His	-8533
ali	-8534
ara	-8535
ocr	-8536
ops	-8537
été	-8538
▁os	-8539
Miss	-8540
aill	-8541
hist	-8542
omed	-8543
onge	-8544
rons	-8545
êter	-8546
▁Gry	-8547
▁Har	-8548
▁fid	-8549
▁gas	-8550
asmin	-8551
chant	-8552
onies	-8553
peror	-8554
unken	-8555
urned	-8556
ushes	-8557
▁XIII	-8558
▁bris	-8559
▁gagn	-8560
▁grin	-8561
▁gust	-8562
▁sale	-8563
▁sedu	-8564
▁sele	-8565
▁thie	-8566
▁ward	-8567
▁wool	-8568
entric	-8569
ermain	-8570
inence	-8571
lement	-8572
rolled	-8573
▁Riche	-8574
▁chill	-8575
▁clung	-8576
▁exter	-8577
▁insen	-8578
▁seals	-8579
▁souls	-8580
▁spots	-8581
quisite	-8582
ussitôt	-8583
▁Gaston	-8584
▁Joseph	-8585
▁boldly	-8586
▁bonnet	-8587
▁burden	-8588
▁darted	-8589
▁discip	-8590
▁forces	-8591
▁leader	-8592
▁midday	-8593
▁plains	-8594
▁rabbit	-8595
▁remote	-8596
▁shrill	-8597
fortunes	-8598
▁Meryton	-8599
▁baronet	-8600
▁cabinet	-8601
▁flushed	-8602
▁grasped	-8603
▁harbour	-8604
▁improve	-8605
▁prétend	-8606
▁shocked	-8607
▁vieille	-8608
▁Derville	-8609
▁bursting	-8610
▁civility	-8611
▁dragging	-8612
▁extravag	-8613
▁glorious	-8614
▁peasants	-8615
▁realized	-8616
▁restless	-8617
▁sacrific	-8618
▁Guillaume	-8619
▁delicious	-8620
▁eccentric	-8621
▁invisible	-8622
▁messenger	-8623
▁narrative	-8624
▁responded	-8625
▁descending	-8626
▁triumphant	-8627
▁exploration	-8628
▁arrangements	-8629
▁tranquillity	-8630
?”	-8631
Je	-8632
ae	-8633
næ	-8634
lls	-8635
veu	-8636
▁1,	-8637
▁DE	-8638
▁Em	-8639
▁oy	-8640
gest	-8641
lieu	-8642
ulin	-8643
▁Mid	-8644
▁sob	-8645
▁toi	-8646
Thank	-8647
heast	-8648
lance	-8649
onday	-8650
othic	-8651
peedy	-8652
sibly	-8653
▁Bast	-8654
▁Dene	-8655
▁Five	-8656
▁cult	-8657
▁ferm	-8658
▁jest	-8659
▁mars	-8660
▁mood	-8661
▁pool	-8662
▁ride	-8663
▁sofa	-8664
▁suck	-8665
▁vice	-8666
astern	-8667
érieur	-8668
▁Eliza	-8669
▁Fabio	-8670
▁Often	-8671
▁brush	-8672
▁cough	-8673
▁error	-8674
▁leads	-8675
▁shawl	-8676
▁solic	-8677
▁souff	-8678
ateroom	-8679
instant	-8680
morency	-8681
▁Bébert	-8682
▁altern	-8683
▁arches	-8684
▁bricks	-8685
▁bullet	-8686
▁calmly	-8687
▁enfant	-8688
▁hurled	-8689
▁lodged	-8690
▁pistol	-8691
▁rascal	-8692
▁rebell	-8693
▁reject	-8694
▁reveal	-8695
▁shared	-8696
▁trouvé	-8697
▁trunks	-8698
▁vulgar	-8699
▁Duchess	-8700
▁aimable	-8701
▁belongs	-8702
▁closing	-8703
▁develop	-8704
▁dresses	-8705
▁drunken	-8706
▁explore	-8707
▁filling	-8708
▁footman	-8709
▁harvest	-8710
▁lessons	-8711
▁parties	-8712
▁provide	-8713
▁recluse	-8714
▁remarks	-8715
▁smaller	-8716
▁wonders	-8717
▁Deneulin	-8718
▁Grégoire	-8719
▁desolate	-8720
▁inconven	-8721
▁interval	-8722
▁pleasing	-8723
▁profonde	-8724
▁thirteen	-8725
▁troubles	-8726
▁wherever	-8727
▁discussed	-8728
▁residence	-8729
▁stateroom	-8730
▁stockings	-8731
▁supposing	-8732
▁tolerably	-8733
▁willingly	-8734
▁collection	-8735
▁concerning	-8736
▁distressed	-8737
▁government	-8738
▁marvellous	-8739
▁repentance	-8740
▁sufferings	-8741
▁Accordingly	-8742
▁Montmorency	-8743
▁compliments	-8744
▁misfortunes	-8745
▁picturesque	-8746
▁irresistible	-8747
ew	-8748
fo	-8749
uy	-8750
Pro	-8751
agu	-8752
alf	-8753
cin	-8754
ext	-8755
him	-8756
hom	-8757
roy	-8758
ugn	-8759
▁oh	-8760
Tell	-8761
avre	-8762
hors	-8763
ourd	-8764
phon	-8765
▁Pat	-8766
▁Pre	-8767
▁See	-8768
▁max	-8769
▁rég	-8770
Shall	-8771
These	-8772
icken	-8773
llect	-8774
loved	-8775
oléon	-8776
▁Mahi	-8777
▁Pope	-8778
▁Rich	-8779
▁bite	-8780
▁buck	-8781
▁clam	-8782
▁clut	-8783
▁craw	-8784
▁econ	-8785
▁gild	-8786
▁heir	-8787
▁peup	-8788
▁vibr	-8789
▁whir	-8790
▁wing	-8791
iality	-8792
insula	-8793
quered	-8794
tember	-8795
▁Count	-8796
▁Grève	-8797
▁abuse	-8798
▁accus	-8799
▁admin	-8800
▁adopt	-8801
▁feels	-8802
▁frock	-8803
▁goats	-8804
▁grain	-8805
▁inner	-8806
▁logis	-8807
▁neveu	-8808
▁pearl	-8809
▁posts	-8810
▁prope	-8811
▁recei	-8812
▁seats	-8813
▁spurs	-8814
▁sulph	-8815
covered	-8816
ensions	-8817
▁alight	-8818
▁causes	-8819
▁combat	-8820
▁croire	-8821
▁handle	-8822
▁indisc	-8823
▁learnt	-8824
▁louder	-8825
▁magnif	-8826
▁prejud	-8827
▁repair	-8828
▁seamen	-8829
▁strain	-8830
▁suffoc	-8831
▁tandis	-8832
▁warmly	-8833
▁Between	-8834
▁Forster	-8835
▁Gryphon	-8836
▁amusing	-8837
▁boiling	-8838
▁display	-8839
▁donnait	-8840
▁drawers	-8841
▁mansion	-8842
▁message	-8843
▁partner	-8844
▁perpend	-8845
terranean	-8846
▁Rochelle	-8847
▁investig	-8848
▁ladyship	-8849
▁populace	-8850
▁startled	-8851
▁Richelieu	-8852
▁September	-8853
▁galleries	-8854
▁intensity	-8855
▁protected	-8856
▁sentences	-8857
▁sincerely	-8858
▁sweetness	-8859
▁undertake	-8860
▁employment	-8861
▁proceeding	-8862
▁vigorously	-8863
▁Monseigneur	-8864
▁endeavoured	-8865
▁fortunately	-8866
▁impatiently	-8867
▁penetrating	-8868
▁parfaitement	-8869
▁perpendicular	-8870
Tr	-8871
US	-8872
ns	-8873
ICH	-8874
ION	-8875
ado	-8876
arl	-8877
ifs	-8878
uez	-8879
▁Sm	-8880
▁Tu	-8881
▁ah	-8882
▁az	-8883
Hold	-8884
amar	-8885
erie	-8886
ipes	-8887
mend	-8888
onté	-8889
otic	-8890
some	-8891
zing	-8892
▁Per	-8893
▁ben	-8894
▁bol	-8895
▁hem	-8896
▁swo	-8897
▁thy	-8898
After	-8899
ients	-8900
ommod	-8901
êtres	-8902
▁Blan	-8903
▁fame	-8904
▁laws	-8905
▁mock	-8906
▁nail	-8907
▁outr	-8908
▁quay	-8909
▁veut	-8910
autres	-8911
icable	-8912
oubted	-8913
ounted	-8914
ptuous	-8915
rences	-8916
shaped	-8917
▁Liber	-8918
▁River	-8919
▁finds	-8920
▁hated	-8921
▁manor	-8922
▁peril	-8923
▁potat	-8924
▁reign	-8925
▁slave	-8926
▁songe	-8927
▁stole	-8928
▁stool	-8929
▁vieux	-8930
ibility	-8931
▁Cheval	-8932
▁arrivé	-8933
▁besoin	-8934
▁brandy	-8935
▁breach	-8936
▁confid	-8937
▁courty	-8938
▁crisis	-8939
▁dashed	-8940
▁denied	-8941
▁devoir	-8942
▁hasard	-8943
▁hunter	-8944
▁incomp	-8945
▁inscri	-8946
▁interp	-8947
▁occupy	-8948
▁ordres	-8949
▁region	-8950
▁resent	-8951
▁revolt	-8952
▁rubbed	-8953
▁sortir	-8954
▁undone	-8955
▁waving	-8956
ustrious	-8957
▁Rosings	-8958
▁adorned	-8959
▁bargain	-8960
▁casting	-8961
▁détails	-8962
▁furnace	-8963
▁streams	-8964
▁thieves	-8965
▁washing	-8966
▁western	-8967
▁whereas	-8968
Gentlemen	-8969
▁Bastille	-8970
▁announce	-8971
▁appetite	-8972
▁clenched	-8973
▁crushing	-8974
▁intimacy	-8975
▁politics	-8976
▁rapidity	-8977
▁resigned	-8978
▁sympathy	-8979
▁exception	-8980
▁reassured	-8981
▁bitterness	-8982
▁hesitating	-8983
▁astonishing	-8984
▁exasperated	-8985
▁expressions	-8986
▁communicated	-8987
GE	-8988
▁&	-8989
ART	-8990
cur	-8991
eut	-8992
ini	-8993
ird	-8994
lus	-8995
pet	-8996
pri	-8997
ste	-8998
uct	-8999
uve	-9000
▁eh	-9001
adem	-9002
antz	-9003
arre	-9004
gson	-9005
loqu	-9006
pris	-9007
wind	-9008
zire	-9009
▁Dan	-9010
▁Oud	-9011
▁bul	-9012
▁dév	-9013
▁jer	-9014
▁sup	-9015
▁tam	-9016
Which	-9017
anter	-9018
quest	-9019
éraux	-9020
▁High	-9021
▁July	-9022
▁Rome	-9023
▁Than	-9024
▁aver	-9025
▁cake	-9026
▁fulf	-9027
▁mend	-9028
▁pike	-9029
▁pile	-9030
▁pink	-9031
▁scul	-9032
▁seal	-9033
alling	-9034
emment	-9035
itudes	-9036
▁Const	-9037
▁Creek	-9038
▁Pietr	-9039
▁agent	-9040
▁arrêt	-9041
▁bears	-9042
▁blown	-9043
▁citiz	-9044
▁delir	-9045
▁dined	-9046
▁fores	-9047
▁fuite	-9048
▁lands	-9049
▁liter	-9050
▁older	-9051
▁panes	-9052
▁punct	-9053
▁renew	-9054
▁riche	-9055
▁rings	-9056
▁score	-9057
▁tails	-9058
▁tutor	-9059
aissait	-9060
entered	-9061
inction	-9062
▁Frantz	-9063
▁Gothic	-9064
▁Jasmin	-9065
▁barrel	-9066
▁bathed	-9067
▁beggar	-9068
▁billet	-9069
▁cables	-9070
▁faites	-9071
▁guided	-9072
▁partir	-9073
▁pillow	-9074
▁recent	-9075
▁recomm	-9076
▁retain	-9077
▁sauver	-9078
▁scenes	-9079
▁soldat	-9080
▁suivre	-9081
▁unlike	-9082
▁visage	-9083
▁British	-9084
▁Instead	-9085
▁Jackson	-9086
▁blessed	-9087
▁contrad	-9088
▁cracked	-9089
▁cunning	-9090
▁deceive	-9091
▁granted	-9092
▁handful	-9093
▁hoisted	-9094
▁illumin	-9095
▁personn	-9096
▁propose	-9097
▁protect	-9098
▁pursuit	-9099
▁swollen	-9100
▁villain	-9101
▁workman	-9102
mediately	-9103
▁European	-9104
▁Ferrante	-9105
▁awaiting	-9106
▁bleeding	-9107
▁caresses	-9108
▁contains	-9109
▁fortunes	-9110
▁hardened	-9111
▁hundreds	-9112
▁replying	-9113
▁surveyed	-9114
▁adversary	-9115
▁amusement	-9116
▁ascending	-9117
▁bristling	-9118
▁caractère	-9119
▁confident	-9120
▁excessive	-9121
▁footsteps	-9122
▁imprudent	-9123
▁moonlight	-9124
▁permitted	-9125
▁propeller	-9126
▁regardait	-9127
▁searching	-9128
▁containing	-9129
▁previously	-9130
▁restrained	-9131
▁precautions	-9132
▁disappointed	-9133
CE	-9134
IV	-9135
aj	-9136
did	-9137
rop	-9138
ugu	-9139
voy	-9140
çut	-9141
ôme	-9142
▁19	-9143
▁sû	-9144
arts	-9145
ième	-9146
lice	-9147
nait	-9148
près	-9149
ware	-9150
▁Amb	-9151
▁ens	-9152
▁fed	-9153
▁pla	-9154
▁pén	-9155
▁sex	-9156
▁sho	-9157
▁ske	-9158
▁wip	-9159
▁éle	-9160
after	-9161
anera	-9162
icine	-9163
idian	-9164
ierre	-9165
inity	-9166
liest	-9167
riers	-9168
▁Arri	-9169
▁Pend	-9170
▁abst	-9171
▁bade	-9172
▁bald	-9173
▁ceux	-9174
▁ciel	-9175
▁cria	-9176
▁fath	-9177
▁foss	-9178
▁fund	-9179
▁hats	-9180
▁limp	-9181
▁load	-9182
▁ours	-9183
▁tons	-9184
▁woke	-9185
entend	-9186
▁Spain	-9187
▁WHICH	-9188
▁boxes	-9189
▁brass	-9190
▁cents	-9191
▁coats	-9192
▁creep	-9193
▁crims	-9194
▁dames	-9195
▁exert	-9196
▁inval	-9197
▁lucky	-9198
▁print	-9199
▁studs	-9200
▁sujet	-9201
▁sweep	-9202
▁thigh	-9203
▁Alzire	-9204
▁appeal	-9205
▁ascend	-9206
▁assume	-9207
▁danced	-9208
▁doubts	-9209
▁fascin	-9210
▁fitted	-9211
▁flower	-9212
▁hazard	-9213
▁injust	-9214
▁lately	-9215
▁league	-9216
▁lesson	-9217
▁monter	-9218
▁proble	-9219
▁quinze	-9220
▁savant	-9221
▁serene	-9222
▁shouts	-9223
▁tavern	-9224
angerson	-9225
▁Norbert	-9226
▁Oudarde	-9227
▁advised	-9228
▁angrily	-9229
▁bounded	-9230
▁complic	-9231
▁demanda	-9232
▁energet	-9233
▁happens	-9234
▁hunters	-9235
▁laisser	-9236
▁longing	-9237
▁members	-9238
▁petites	-9239
▁shortly	-9240
▁stamped	-9241
▁stretch	-9242
▁tremend	-9243
▁Delouche	-9244
▁allowing	-9245
▁changing	-9246
▁contents	-9247
▁daybreak	-9248
▁farewell	-9249
▁infamous	-9250
▁landlady	-9251
▁obliging	-9252
▁official	-9253
▁preoccup	-9254
▁resisted	-9255
▁security	-9256
▁summoned	-9257
▁answering	-9258
▁assembled	-9259
▁castaways	-9260
▁compelled	-9261
▁continual	-9262
▁impressed	-9263
▁introduce	-9264
▁regretted	-9265
▁whistling	-9266
▁Pietranera	-9267
▁Stangerson	-9268
▁provincial	-9269
▁revolution	-9270
▁Marchiennes	-9271
▁exaggerated	-9272
▁recommended	-9273
▁subterranean	-9274
ARD	-9275
ura	-9276
▁25	-9277
▁Sw	-9278
alog	-9279
anch	-9280
emet	-9281
esce	-9282
kins	-9283
mons	-9284
oham	-9285
open	-9286
▁Boy	-9287
▁abb	-9288
▁pag	-9289
▁quo	-9290
▁thé	-9291
anged	-9292
annah	-9293
ateur	-9294
attle	-9295
forth	-9296
ishes	-9297
ousin	-9298
quait	-9299
shine	-9300
three	-9301
▁Belg	-9302
▁Happ	-9303
▁Hipp	-9304
▁Hume	-9305
▁Suez	-9306
▁barr	-9307
▁cone	-9308
▁conj	-9309
▁fave	-9310
▁fist	-9311
▁muff	-9312
▁musk	-9313
▁noir	-9314
▁outb	-9315
▁prow	-9316
▁sait	-9317
▁surv	-9318
▁syll	-9319
▁tete	-9320
▁tick	-9321
nement	-9322
twenty	-9323
▁Russi	-9324
▁awful	-9325
▁beaux	-9326
▁cinqu	-9327
▁depos	-9328
▁elles	-9329
▁envir	-9330
▁eyebr	-9331
▁frapp	-9332
▁grasp	-9333
▁keeps	-9334
▁louis	-9335
▁paint	-9336
▁ridge	-9337
▁scold	-9338
▁walks	-9339
emetery	-9340
landers	-9341
▁Africa	-9342
▁adding	-9343
▁ascent	-9344
▁belief	-9345
▁betray	-9346
▁calmer	-9347
▁chains	-9348
▁coolly	-9349
▁cultiv	-9350
▁facile	-9351
▁judges	-9352
▁majest	-9353
▁multip	-9354
▁papier	-9355
▁partie	-9356
▁pearls	-9357
▁provid	-9358
▁refres	-9359
▁repast	-9360
inations	-9361
▁Already	-9362
▁Pendant	-9363
▁appreci	-9364
▁beloved	-9365
▁cottage	-9366
▁declare	-9367
▁dernier	-9368
▁enabled	-9369
▁fainted	-9370
▁foliage	-9371
▁parlait	-9372
▁pension	-9373
▁pillars	-9374
▁staying	-9375
▁whistle	-9376
▁Governor	-9377
▁Mahiette	-9378
▁currents	-9379
▁demander	-9380
▁determin	-9381
▁entendre	-9382
▁isolated	-9383
▁presents	-9384
▁regained	-9385
▁resolute	-9386
▁treasure	-9387
▁Frenchman	-9388
▁intellect	-9389
▁persisted	-9390
▁habitation	-9391
▁lieutenant	-9392
▁magistrate	-9393
▁rendezvous	-9394
▁simplicity	-9395
▁stretching	-9396
▁thoughtful	-9397
▁encountered	-9398
▁indignation	-9399
▁intolerable	-9400
AD	-9401
IR	-9402
_"	-9403
mpe	-9404
ora	-9405
çon	-9406
Wait	-9407
chie	-9408
hast	-9409
ppen	-9410
▁Min	-9411
▁ash	-9412
▁réf	-9413
adise	-9414
apsed	-9415
arson	-9416
glass	-9417
olves	-9418
outer	-9419
raire	-9420
▁aura	-9421
▁clad	-9422
▁dorm	-9423
▁déja	-9424
▁fest	-9425
▁male	-9426
▁palm	-9427
▁prel	-9428
▁subd	-9429
▁surm	-9430
▁trib	-9431
▁verd	-9432
cerity	-9433
itious	-9434
master	-9435
▁Hôtel	-9436
▁bills	-9437
▁decor	-9438
▁kings	-9439
▁major	-9440
▁nostr	-9441
▁passé	-9442
▁pious	-9443
▁rouge	-9444
▁scull	-9445
▁serai	-9446
▁tanks	-9447
▁total	-9448
▁towns	-9449
▁voulu	-9450
ilities	-9451
ossible	-9452
ppenole	-9453
▁Bright	-9454
▁Mariet	-9455
▁Monday	-9456
▁Rabbit	-9457
▁auprès	-9458
▁autumn	-9459
▁capric	-9460
▁commis	-9461
▁gauche	-9462
▁gloves	-9463
▁inches	-9464
▁intrig	-9465
▁issued	-9466
▁powers	-9467
▁pupils	-9468
▁regain	-9469
▁rendre	-9470
▁rescue	-9471
▁smiles	-9472
▁social	-9473
▁traced	-9474
▁unjust	-9475
▁vacant	-9476
▁Gregson	-9477
▁adopted	-9478
▁audible	-9479
▁barking	-9480
▁changes	-9481
▁cousins	-9482
▁dislike	-9483
▁exclaim	-9484
▁modesty	-9485
▁roaring	-9486
▁studies	-9487
▁tempted	-9488
▁variety	-9489
▁counting	-9490
▁cupboard	-9491
▁destined	-9492
▁district	-9493
▁elegance	-9494
▁gracious	-9495
▁imposing	-9496
▁nonsense	-9497
▁polished	-9498
▁positive	-9499
▁relative	-9500
▁remarqua	-9501
▁restrain	-9502
▁sunshine	-9503
▁Coppenole	-9504
▁abundance	-9505
▁advancing	-9506
▁atrocious	-9507
▁courtyard	-9508
▁crouching	-9509
▁devouring	-9510
▁harpooner	-9511
▁horseback	-9512
▁obstacles	-9513
▁recognise	-9514
▁attachment	-9515
▁occupation	-9516
▁separation	-9517
▁suspicious	-9518
▁apprehensions	-9519
~!	-9520
Bah	-9521
Mar	-9522
akn	-9523
elf	-9524
ita	-9525
mem	-9526
pan	-9527
▁21	-9528
▁na	-9529
▁rô	-9530
born	-9531
ente	-9532
iast	-9533
oise	-9534
ouer	-9535
érén	-9536
▁exh	-9537
▁gut	-9538
▁mob	-9539
▁pad	-9540
▁unm	-9541
chers	-9542
icite	-9543
olyte	-9544
would	-9545
▁Fitz	-9546
▁Morm	-9547
▁Sakn	-9548
▁Were	-9549
▁beef	-9550
▁bure	-9551
▁cats	-9552
▁coin	-9553
▁fits	-9554
▁hier	-9555
▁moss	-9556
▁rash	-9557
▁ratt	-9558
▁trag	-9559
▁unre	-9560
▁évid	-9561
Madame	-9562
ential	-9563
liness	-9564
næfell	-9565
ussemm	-9566
worthy	-9567
▁Betty	-9568
▁Bible	-9569
▁Champ	-9570
▁amour	-9571
▁cryst	-9572
▁hired	-9573
▁likes	-9574
▁mourn	-9575
▁owing	-9576
▁sanct	-9577
▁satin	-9578
▁shows	-9579
▁songs	-9580
▁vehic	-9581
▁balust	-9582
▁bushes	-9583
▁cantin	-9584
▁career	-9585
▁cheese	-9586
▁dishes	-9587
▁dishon	-9588
▁escort	-9589
▁gossip	-9590
▁leaped	-9591
▁meadow	-9592
▁placid	-9593
▁riding	-9594
▁robbed	-9595
▁speaks	-9596
▁suited	-9597
▁talent	-9598
▁temple	-9599
▁tomber	-9600
▁unfold	-9601
▁voulut	-9602
▁breadth	-9603
▁caution	-9604
▁courtis	-9605
▁crimson	-9606
▁crowned	-9607
▁extinct	-9608
▁grandes	-9609
▁nations	-9610
▁rascals	-9611
▁saluted	-9612
▁scarlet	-9613
▁sentait	-9614
▁Flanders	-9615
▁Marietta	-9616
▁assisted	-9617
▁coldness	-9618
▁deserved	-9619
▁expenses	-9620
▁horizont	-9621
▁meridian	-9622
▁mourning	-9623
▁souvenir	-9624
▁Chevalier	-9625
▁childhood	-9626
▁discharge	-9627
▁eagerness	-9628
▁preceding	-9629
▁regularly	-9630
▁remainder	-9631
▁Saknussemm	-9632
▁cantinière	-9633
▁characters	-9634
▁encouraged	-9635
▁positively	-9636
▁probability	-9637
▁resemblance	-9638
▁transformed	-9639
▁consciousness	-9640
ENT	-9641
Mad	-9642
▁#1	-9643
▁El	-9644
▁Te	-9645
bone	-9646
gone	-9647
irds	-9648
lant	-9649
nels	-9650
uing	-9651
▁Cet	-9652
▁Ten	-9653
▁lur	-9654
▁nut	-9655
▁pér	-9656
anded	-9657
ooped	-9658
tford	-9659
▁Carn	-9660
▁Deux	-9661
▁Gaut	-9662
▁Jeff	-9663
▁Jock	-9664
▁brav	-9665
▁bron	-9666
▁cess	-9667
▁crav	-9668
▁jeta	-9669
▁lugg	-9670
▁lull	-9671
▁rosy	-9672
▁swam	-9673
ension	-9674
iastic	-9675
uesday	-9676
▁Gates	-9677
▁Ocean	-9678
▁Union	-9679
▁besie	-9680
▁blank	-9681
▁couch	-9682
▁crois	-9683
▁frère	-9684
▁ideal	-9685
▁intri	-9686
▁livid	-9687
▁noisy	-9688
▁pilot	-9689
▁polic	-9690
▁range	-9691
▁roots	-9692
▁suits	-9693
▁tells	-9694
because	-9695
quently	-9696
▁Cousin	-9697
▁Strait	-9698
▁arcade	-9699
▁beauté	-9700
▁faveur	-9701
▁hasten	-9702
▁hurric	-9703
▁marvel	-9704
▁mutual	-9705
▁needle	-9706
▁scheme	-9707
▁sculpt	-9708
▁submit	-9709
▁subtle	-9710
▁unwill	-9711
▁Italian	-9712
▁applaud	-9713
▁benefit	-9714
▁boredom	-9715
▁columns	-9716
▁deliber	-9717
▁ensuite	-9718
▁gallows	-9719
▁journée	-9720
▁million	-9721
▁missing	-9722
▁muscles	-9723
▁numbers	-9724
▁paroles	-9725
▁pensive	-9726
▁refrain	-9727
▁ringing	-9728
▁sobbing	-9729
▁Augustin	-9730
▁Brighton	-9731
▁Hertford	-9732
▁Napoléon	-9733
▁amoureux	-9734
▁calmness	-9735
▁cloister	-9736
▁foreseen	-9737
▁launched	-9738
▁lowering	-9739
▁punished	-9740
▁regarder	-9741
▁studying	-9742
▁Gateshead	-9743
▁Rochefort	-9744
▁conquered	-9745
▁countries	-9746
▁exquisite	-9747
▁mouvement	-9748
▁murderers	-9749
▁sincerity	-9750
▁apparition	-9751
▁commissary	-9752
▁endeavored	-9753
▁incredible	-9754
▁principles	-9755
▁reproaches	-9756
▁spectators	-9757
▁vegetation	-9758
▁distraction	-9759
▁electricity	-9760
▁performance	-9761
▁quelquefois	-9762
▁affectionate	-9763
▁construction	-9764
▁occasionally	-9765
▁wretchedness	-9766
AM	-9767
yn	-9768
zo	-9769
Has	-9770
cun	-9771
ett	-9772
mpt	-9773
pow	-9774
rah	-9775
ène	-9776
éch	-9777
▁II	-9778
▁om	-9779
▁ém	-9780
ITRE	-9781
aign	-9782
avez	-9783
mind	-9784
rine	-9785
shot	-9786
tico	-9787
▁Bob	-9788
▁fab	-9789
▁job	-9790
▁oxy	-9791
gings	-9792
illon	-9793
lière	-9794
loign	-9795
ublic	-9796
uncan	-9797
urred	-9798
▁Lake	-9799
▁ante	-9800
▁bind	-9801
▁bisc	-9802
▁bits	-9803
▁cach	-9804
▁dame	-9805
▁fête	-9806
▁inse	-9807
▁insu	-9808
▁piqu	-9809
▁rags	-9810
▁rapp	-9811
▁trap	-9812
actory	-9813
affold	-9814
import	-9815
ringer	-9816
ussent	-9817
▁Above	-9818
▁Binet	-9819
▁Friar	-9820
▁abode	-9821
▁attri	-9822
▁bands	-9823
▁compr	-9824
▁cured	-9825
▁faite	-9826
▁locom	-9827
▁model	-9828
▁mould	-9829
▁pensa	-9830
▁phant	-9831
▁quitt	-9832
▁unacc	-9833
▁union	-9834
▁vexed	-9835
▁vivid	-9836
▁wages	-9837
▁worry	-9838
atively	-9839
▁Mother	-9840
▁awaken	-9841
▁dearly	-9842
▁demain	-9843
▁destin	-9844
▁départ	-9845
▁enable	-9846
▁joyous	-9847
▁martyr	-9848
▁mépris	-9849
▁punish	-9850
▁quelqu	-9851
▁remedy	-9852
▁rivers	-9853
▁sharks	-9854
▁tapest	-9855
▁tasted	-9856
▁theory	-9857
▁unluck	-9858
▁voyant	-9859
▁wildly	-9860
coloured	-9861
ountable	-9862
umerable	-9863
▁General	-9864
▁Snæfell	-9865
▁balance	-9866
▁bridges	-9867
▁consist	-9868
▁destiny	-9869
▁entendu	-9870
▁fallait	-9871
▁fetched	-9872
▁flashed	-9873
▁floated	-9874
▁heading	-9875
▁kissing	-9876
▁muskets	-9877
▁pillory	-9878
▁revived	-9879
▁selfish	-9880
▁slumber	-9881
▁sulphur	-9882
▁CHAPITRE	-9883
▁Spaniard	-9884
▁activity	-9885
▁childish	-9886
▁circular	-9887
▁clearing	-9888
▁conveyed	-9889
▁deprived	-9890
▁escaping	-9891
▁feathers	-9892
▁interrog	-9893
▁mischief	-9894
▁outburst	-9895
▁retained	-9896
▁scaffold	-9897
▁severely	-9898
▁thankful	-9899
▁Certainly	-9900
▁Jefferson	-9901
▁annoyance	-9902
▁compagnon	-9903
▁composure	-9904
▁contrived	-9905
▁finishing	-9906
▁including	-9907
▁neglected	-9908
▁principle	-9909
▁purchased	-9910
▁traveller	-9911
▁universal	-9912
▁waistcoat	-9913
▁foundation	-9914
▁irritation	-9915
▁temptation	-9916
▁yourselves	-9917
▁appointment	-9918
▁constructed	-9919
▁neighborhood	-9920
.--	-9921
eff	-9922
erv	-9923
ila	-9924
mps	-9925
rot	-9926
▁ON	-9927
▁ST	-9928
adle	-9929
arks	-9930
foot	-9931
lose	-9932
oons	-9933
▁100	-9934
▁Abb	-9935
▁Bur	-9936
▁Duc	-9937
▁Oak	-9938
▁Yok	-9939
▁flu	-9940
▁haw	-9941
▁lav	-9942
▁nar	-9943
▁pyr	-9944
ainty	-9945
alier	-9946
anine	-9947
ardin	-9948
igrat	-9949
illar	-9950
ohama	-9951
raven	-9952
round	-9953
▁Ball	-9954
▁Last	-9955
▁Like	-9956
▁ages	-9957
▁alas	-9958
▁alla	-9959
▁balc	-9960
▁beck	-9961
▁curs	-9962
▁dise	-9963
▁feed	-9964
▁gibb	-9965
▁idle	-9966
▁lang	-9967
▁remp	-9968
▁shat	-9969
▁slid	-9970
asting	-9971
bation	-9972
iences	-9973
licted	-9974
mering	-9975
raient	-9976
retion	-9977
rified	-9978
uously	-9979
▁Flore	-9980
▁Night	-9981
▁abhor	-9982
▁chagr	-9983
▁debts	-9984
▁eloqu	-9985
▁frost	-9986
▁knelt	-9987
▁limit	-9988
▁local	-9989
▁manus	-9990
▁morte	-9991
▁ordre	-9992
▁owner	-9993
▁refer	-9994
▁semin	-9995
▁sober	-9996
ificant	-9997
llement	-9998
▁access	-9999
▁années	-10000
▁apolog	-10001
▁begins	-10002
▁dainty	-10003
▁damage	-10004
▁defect	-10005
▁dismal	-10006
▁faster	-10007
▁gilded	-10008
▁landsc	-10009
▁obligé	-10010
▁passes	-10011
▁perish	-10012
▁perpet	-10013
▁repugn	-10014
▁roared	-10015
▁sticks	-10016
▁stroll	-10017
▁tossed	-10018
▁troops	-10019
bearable	-10020
interest	-10021
▁Rouault	-10022
▁Tuesday	-10023
▁answers	-10024
▁caprice	-10025
▁chances	-10026
▁delayed	-10027
▁deserve	-10028
▁doubled	-10029
▁doublet	-10030
▁faisant	-10031
▁grimace	-10032
▁mauvais	-10033
▁quoique	-10034
▁reigned	-10035
▁rubbing	-10036
▁volumes	-10037
▁Yokohama	-10038
▁abundant	-10039
▁breeches	-10040
▁campaign	-10041
▁cemetery	-10042
▁clinging	-10043
▁eyebrows	-10044
▁fearsome	-10045
▁lighting	-10046
▁murdered	-10047
▁preceded	-10048
▁realised	-10049
▁softened	-10050
▁subjects	-10051
▁sufficed	-10052
▁swimming	-10053
▁vertical	-10054
▁conceived	-10055
▁confirmed	-10056
▁enveloped	-10057
▁physician	-10058
▁political	-10059
▁reasoning	-10060
▁redoubled	-10061
▁sparkling	-10062
▁travelled	-10063
▁vegetable	-10064
▁weariness	-10065
▁comparison	-10066
▁imaginable	-10067
▁objections	-10068
▁personages	-10069
▁preference	-10070
▁tremendous	-10071
▁innumerable	-10072
▁transported	-10073
▁undertaking	-10074
▁constitution	-10075
▁Hertfordshire	-10076
Ad	-10077
Eh	-10078
500	-10079
Was	-10080
eté	-10081
lla	-10082
por	-10083
rés	-10084
ulé	-10085
zes	-10086
éne	-10087
▁"’	-10088
▁Sa	-10089
▁TH	-10090
▁Tw	-10091
Give	-10092
adis	-10093
alie	-10094
aten	-10095
cope	-10096
from	-10097
hole	-10098
nèse	-10099
once	-10100
otto	-10101
uish	-10102
were	-10103
érer	-10104
▁Sam	-10105
▁Whe	-10106
▁asp	-10107
▁brû	-10108
▁fox	-10109
▁vin	-10110
actly	-10111
agnes	-10112
arrag	-10113
human	-10114
icted	-10115
isive	-10116
istic	-10117
oires	-10118
since	-10119
ulsed	-10120
usive	-10121
▁Côme	-10122
▁Elis	-10123
▁buzz	-10124
▁cush	-10125
▁foul	-10126
▁gift	-10127
▁lect	-10128
▁mare	-10129
▁park	-10130
▁poly	-10131
▁spit	-10132
▁ther	-10133
▁trah	-10134
▁upro	-10135
▁vile	-10136
Duncan	-10137
ements	-10138
mother	-10139
urches	-10140
▁Stone	-10141
▁apres	-10142
▁beams	-10143
▁counc	-10144
▁crest	-10145
▁droop	-10146
▁immob	-10147
▁leant	-10148
▁passa	-10149
▁skins	-10150
▁stake	-10151
▁stoop	-10152
▁tante	-10153
▁voilà	-10154
Silence	-10155
▁Craven	-10156
▁adored	-10157
▁autour	-10158
▁blocks	-10159
▁boards	-10160
▁brains	-10161
▁droite	-10162
▁expose	-10163
▁mantel	-10164
▁openly	-10165
▁oxygen	-10166
▁peuple	-10167
▁shower	-10168
▁soirée	-10169
▁storms	-10170
▁strang	-10171
▁submer	-10172
▁trades	-10173
▁traged	-10174
▁trifle	-10175
▁wolves	-10176
Nautilus	-10177
▁Farnèse	-10178
▁Jupiter	-10179
▁Maigrat	-10180
▁augment	-10181
▁balcony	-10182
▁clothed	-10183
▁courant	-10184
▁courtes	-10185
▁dispute	-10186
▁dreaded	-10187
▁exemple	-10188
▁gleamed	-10189
▁liberté	-10190
▁lifting	-10191
▁monoton	-10192
▁outline	-10193
▁procure	-10194
▁sleeves	-10195
▁springs	-10196
▁stables	-10197
▁strokes	-10198
▁swelled	-10199
▁Felicite	-10200
▁contract	-10201
▁delicacy	-10202
▁depended	-10203
▁découver	-10204
▁felicity	-10205
▁insolent	-10206
▁instants	-10207
▁nostrils	-10208
▁retorted	-10209
▁Hippolyte	-10210
▁carpenter	-10211
▁reception	-10212
▁respected	-10213
▁shivering	-10214
▁spreading	-10215
▁springing	-10216
▁tolerable	-10217
▁vagabonds	-10218
▁experiment	-10219
▁imprisoned	-10220
▁playground	-10221
▁commonplace	-10222
▁distinction	-10223
▁disturbance	-10224
▁exclamation	-10225
▁illustrious	-10226
▁recollections	-10227
▁unfortunately	-10228
OL	-10229
OS	-10230
za	-10231
~.	-10232
Ant	-10233
avy	-10234
ico	-10235
lev	-10236
lom	-10237
lon	-10238
mas	-10239
nis	-10240
pit	-10241
pon	-10242
pro	-10243
tur	-10244
▁23	-10245
▁Ob	-10246
▁Po	-10247
▁wo	-10248
Lord	-10249
anta	-10250
bons	-10251
book	-10252
hale	-10253
romp	-10254
rous	-10255
îner	-10256
▁186	-10257
▁Ils	-10258
▁Mir	-10259
▁Oui	-10260
▁Pit	-10261
▁cul	-10262
▁fai	-10263
▁jaw	-10264
apers	-10265
arrêt	-10266
cutta	-10267
ernal	-10268
geons	-10269
iable	-10270
ifted	-10271
iless	-10272
lices	-10273
orial	-10274
smith	-10275
▁!...	-10276
▁Half	-10277
▁Vand	-10278
▁affl	-10279
▁copy	-10280
▁crut	-10281
▁dart	-10282
▁dial	-10283
▁doll	-10284
▁décl	-10285
▁gang	-10286
▁hood	-10287
▁reçu	-10288
▁saut	-10289
▁scor	-10290
▁trad	-10291
▁volu	-10292
Pardon	-10293
houses	-10294
ictier	-10295
ifices	-10296
ignant	-10297
urning	-10298
verend	-10299
▁Ainsi	-10300
▁Elisa	-10301
▁ayant	-10302
▁blade	-10303
▁deuce	-10304
▁douze	-10305
▁fairy	-10306
▁flush	-10307
▁funny	-10308
▁hasty	-10309
▁kinds	-10310
▁lodge	-10311
▁mines	-10312
▁palis	-10313
▁ranks	-10314
▁riant	-10315
▁répli	-10316
▁scrut	-10317
▁shrew	-10318
▁wench	-10319
chamber	-10320
eration	-10321
▁Academ	-10322
▁Bourgh	-10323
▁Honour	-10324
▁assert	-10325
▁befall	-10326
▁bellow	-10327
▁bureau	-10328
▁clerks	-10329
▁diplom	-10330
▁driver	-10331
▁injury	-10332
▁melted	-10333
▁mental	-10334
▁perdre	-10335
▁sermon	-10336
▁shades	-10337
▁trouve	-10338
▁tunnel	-10339
▁varied	-10340
oubtedly	-10341
▁Flemish	-10342
▁Gautier	-10343
▁charmed	-10344
▁clapped	-10345
▁demande	-10346
▁ecstasy	-10347
▁greeted	-10348
▁natives	-10349
▁presume	-10350
▁restore	-10351
▁stained	-10352
▁steward	-10353
▁Calcutta	-10354
▁Coictier	-10355
▁blushing	-10356
▁cavalier	-10357
▁clasping	-10358
▁detained	-10359
▁discours	-10360
▁elephant	-10361
▁emotions	-10362
▁enjoying	-10363
▁entendit	-10364
▁potatoes	-10365
▁Pierronne	-10366
▁chevalier	-10367
▁decidedly	-10368
▁dismissed	-10369
▁enchanted	-10370
▁nightfall	-10371
▁protested	-10372
▁provinces	-10373
▁recollect	-10374
▁archevêque	-10375
▁favourable	-10376
▁intentions	-10377
▁manuscript	-10378
▁rapidement	-10379
▁recovering	-10380
▁unbearable	-10381
▁Immediately	-10382
▁application	-10383
▁embroidered	-10384
▁housekeeper	-10385
▁manufacture	-10386
▁considerably	-10387
IG	-10388
OW	-10389
oa	-10390
ua	-10391
ym	-10392
!−−	-10393
aus	-10394
low	-10395
ogn	-10396
usk	-10397
▁ég	-10398
Some	-10399
aert	-10400
aime	-10401
arte	-10402
door	-10403
jali	-10404
onym	-10405
onzo	-10406
tree	-10407
uben	-10408
xter	-10409
▁Cay	-10410
▁bun	-10411
▁cli	-10412
▁foi	-10413
▁gid	-10414
▁méc	-10415
▁nob	-10416
▁pav	-10417
▁pel	-10418
▁vra	-10419
Speak	-10420
amira	-10421
class	-10422
eters	-10423
iards	-10424
ieuse	-10425
ières	-10426
neath	-10427
othed	-10428
ucked	-10429
unned	-10430
▁Dorm	-10431
▁East	-10432
▁Fort	-10433
▁Glen	-10434
▁Lucy	-10435
▁Mess	-10436
▁Neuf	-10437
▁airs	-10438
▁cert	-10439
▁choc	-10440
▁géné	-10441
▁hasn	-10442
▁hint	-10443
▁loaf	-10444
▁pump	-10445
▁roug	-10446
▁sack	-10447
▁seed	-10448
▁symb	-10449
▁tack	-10450
▁trim	-10451
▁vine	-10452
Italie	-10453
abouts	-10454
ifully	-10455
minded	-10456
ration	-10457
▁Gonzo	-10458
▁accur	-10459
▁arriv	-10460
▁brisk	-10461
▁brute	-10462
▁epoch	-10463
▁frail	-10464
▁games	-10465
▁masts	-10466
▁obten	-10467
▁outer	-10468
▁rises	-10469
▁rules	-10470
▁scent	-10471
▁sympt	-10472
▁tales	-10473
▁telle	-10474
▁therm	-10475
▁using	-10476
▁vivre	-10477
▁whirl	-10478
▁wiped	-10479
▁wrath	-10480
Besides	-10481
arragut	-10482
aternal	-10483
liament	-10484
unition	-10485
vantage	-10486
vitably	-10487
▁Behind	-10488
▁Hannah	-10489
▁Philip	-10490
▁appart	-10491
▁attain	-10492
▁chests	-10493
▁dexter	-10494
▁eccles	-10495
▁faults	-10496
▁framed	-10497
▁hearty	-10498
▁hedges	-10499
▁jeunes	-10500
▁lieues	-10501
▁luxury	-10502
▁nodded	-10503
▁poetry	-10504
▁précip	-10505
▁slopes	-10506
▁tastes	-10507
hensible	-10508
▁Estelle	-10509
▁ballast	-10510
▁bastion	-10511
▁behaved	-10512
▁corrupt	-10513
▁cruelly	-10514
▁draught	-10515
▁extract	-10516
▁heights	-10517
▁jumping	-10518
▁obvious	-10519
▁pettico	-10520
▁profile	-10521
▁shutter	-10522
▁stuffed	-10523
▁tambour	-10524
▁temples	-10525
▁Dansaert	-10526
▁Farragut	-10527
▁Virginia	-10528
▁approved	-10529
▁combined	-10530
▁conclude	-10531
▁elements	-10532
▁hypocris	-10533
▁importun	-10534
▁seafloor	-10535
▁swelling	-10536
▁tenderly	-10537
▁terribly	-10538
▁Presently	-10539
▁backwards	-10540
▁determine	-10541
▁energetic	-10542
▁favorable	-10543
▁fireplace	-10544
▁inexpress	-10545
▁paralysed	-10546
▁relatives	-10547
▁sergeants	-10548
▁treatment	-10549
▁uncomfort	-10550
▁wondering	-10551
▁bellringer	-10552
▁bewildered	-10553
▁encouraging	-10554
▁surrounding	-10555
▁satisfactory	-10556
▁determination	-10557
Am	-10558
De	-10559
TH	-10560
.'"	-10561
aze	-10562
ero	-10563
tez	-10564
vil	-10565
èle	-10566
▁Gl	-10567
▁mu	-10568
▁ti	-10569
azed	-10570
etta	-10571
iend	-10572
ieth	-10573
ills	-10574
lder	-10575
quar	-10576
sels	-10577
such	-10578
weed	-10579
wick	-10580
▁Day	-10581
▁Des	-10582
▁Ire	-10583
▁Lap	-10584
▁Pal	-10585
▁Pen	-10586
▁Tor	-10587
▁amm	-10588
▁aug	-10589
▁mér	-10590
▁néc	-10591
▁piè	-10592
▁rac	-10593
▁tax	-10594
▁ted	-10595
▁tid	-10596
▁tyr	-10597
Leave	-10598
aines	-10599
atisf	-10600
gging	-10601
ially	-10602
oméne	-10603
raint	-10604
ulent	-10605
useum	-10606
äuben	-10607
▁Abbe	-10608
▁Hare	-10609
▁Holy	-10610
▁Hors	-10611
▁Sans	-10612
▁Wood	-10613
▁earn	-10614
▁elev	-10615
▁fert	-10616
▁init	-10617
▁loge	-10618
▁pots	-10619
▁ribs	-10620
▁sket	-10621
arante	-10622
aurais	-10623
itaire	-10624
▁Alors	-10625
▁Etats	-10626
▁White	-10627
▁alert	-10628
▁allez	-10629
▁altar	-10630
▁brows	-10631
▁chart	-10632
▁crept	-10633
▁feroc	-10634
▁forte	-10635
▁genre	-10636
▁idées	-10637
▁imbec	-10638
▁jewel	-10639
▁maybe	-10640
▁piles	-10641
▁racon	-10642
▁shift	-10643
▁shove	-10644
▁slack	-10645
▁slate	-10646
▁split	-10647
▁trouv	-10648
Exactly	-10649
Without	-10650
ication	-10651
mission	-10652
umption	-10653
▁Reform	-10654
▁agents	-10655
▁bluish	-10656
▁bowing	-10657
▁cattle	-10658
▁courts	-10659
▁dagger	-10660
▁deadly	-10661
▁dispar	-10662
▁diving	-10663
▁engage	-10664
▁esprit	-10665
▁gaping	-10666
▁inquis	-10667
▁mantle	-10668
▁nécess	-10669
▁oblige	-10670
▁panels	-10671
▁pickax	-10672
▁salary	-10673
▁shrewd	-10674
▁smoked	-10675
▁stores	-10676
▁strewn	-10677
▁Indians	-10678
▁Ireland	-10679
▁Univers	-10680
▁amorous	-10681
▁attacks	-10682
▁blazing	-10683
▁chanced	-10684
▁console	-10685
▁despise	-10686
▁dispose	-10687
▁earthqu	-10688
▁glowing	-10689
▁guineas	-10690
▁howling	-10691
▁locomot	-10692
▁notions	-10693
▁quitter	-10694
▁refresh	-10695
▁riveted	-10696
▁stooped	-10697
▁Altamira	-10698
▁accommod	-10699
▁bordered	-10700
▁cetacean	-10701
▁chatting	-10702
▁churches	-10703
▁convince	-10704
▁kneeling	-10705
▁lanterns	-10706
▁lodgings	-10707
▁murderer	-10708
▁nineteen	-10709
▁pourquoi	-10710
▁pourtant	-10711
▁recently	-10712
▁scholars	-10713
▁Grégoires	-10714
▁clergyman	-10715
▁flattered	-10716
▁multitude	-10717
▁philosoph	-10718
▁readiness	-10719
▁shillings	-10720
▁treasures	-10721
fortunately	-10722
▁ammunition	-10723
▁background	-10724
▁breathless	-10725
▁inevitably	-10726
▁monotonous	-10727
▁réellement	-10728
▁effectually	-10729
▁grandfather	-10730
▁transparent	-10731
▁wonderfully	-10732
▁interruption	-10733
";	-10734
50	-10735
EC	-10736
ID	-10737
RIS	-10738
aît	-10739
row	-10740
sen	-10741
ète	-10742
▁Ca	-10743
▁nu	-10744
acit	-10745
anne	-10746
dles	-10747
icar	-10748
illé	-10749
irty	-10750
jets	-10751
olic	-10752
omas	-10753
rial	-10754
uity	-10755
vels	-10756
âche	-10757
▁Lén	-10758
▁Rem	-10759
▁Ser	-10760
▁XIV	-10761
▁axe	-10762
▁bri	-10763
▁bru	-10764
▁lip	-10765
▁ore	-10766
▁ped	-10767
▁pût	-10768
▁sod	-10769
▁viz	-10770
▁woo	-10771
agged	-10772
arvan	-10773
assad	-10774
athed	-10775
croft	-10776
elson	-10777
faced	-10778
ieres	-10779
liver	-10780
llies	-10781
quels	-10782
rical	-10783
seven	-10784
uting	-10785
wreck	-10786
êcher	-10787
▁Bill	-10788
▁Cast	-10789
▁Inch	-10790
▁Over	-10791
▁Tous	-10792
▁ache	-10793
▁alle	-10794
▁amie	-10795
▁aust	-10796
▁curt	-10797
▁lazy	-10798
▁peep	-10799
▁réve	-10800
▁tame	-10801
▁trem	-10802
▁unin	-10803
▁wits	-10804
▁yawn	-10805
▁zeal	-10806
ambled	-10807
ignait	-10808
ignore	-10809
looked	-10810
necess	-10811
▁Brulé	-10812
▁Point	-10813
▁alley	-10814
▁chron	-10815
▁dares	-10816
▁dilig	-10817
▁drown	-10818
▁honey	-10819
▁impet	-10820
▁pense	-10821
▁pouss	-10822
▁somme	-10823
▁umbre	-10824
▁verse	-10825
▁wheat	-10826
▁witch	-10827
aughter	-10828
ization	-10829
perhaps	-10830
william	-10831
▁Edward	-10832
▁Justin	-10833
▁Lénore	-10834
▁Mouque	-10835
▁Venice	-10836
▁auquel	-10837
▁bounds	-10838
▁center	-10839
▁cotton	-10840
▁curios	-10841
▁curled	-10842
▁dissip	-10843
▁firing	-10844
▁insign	-10845
▁insuff	-10846
▁offers	-10847
▁pillar	-10848
▁précis	-10849
▁sovere	-10850
▁sullen	-10851
▁tendre	-10852
▁transl	-10853
▁uproar	-10854
▁volunt	-10855
▁wasted	-10856
▁Justice	-10857
▁aground	-10858
▁bullets	-10859
▁causing	-10860
▁charity	-10861
▁chiefly	-10862
▁commenc	-10863
▁conquer	-10864
▁conspir	-10865
▁cruelty	-10866
▁discern	-10867
▁enraged	-10868
▁grating	-10869
▁inspire	-10870
▁luggage	-10871
▁mankind	-10872
▁moindre	-10873
▁rapport	-10874
▁reddish	-10875
▁reports	-10876
▁roughly	-10877
▁seeming	-10878
mpossible	-10879
▁Dormouse	-10880
▁aussitôt	-10881
▁chimneys	-10882
▁colliers	-10883
▁coloured	-10884
▁cowardly	-10885
▁frighten	-10886
▁habitual	-10887
▁hospital	-10888
▁hypothes	-10889
▁intrigue	-10890
▁malheure	-10891
▁ornament	-10892
▁passport	-10893
▁quitting	-10894
▁resemble	-10895
▁settling	-10896
▁starving	-10897
▁swearing	-10898
▁sweeping	-10899
▁whiskers	-10900
▁Glenarvan	-10901
▁Philoméne	-10902
▁declaring	-10903
▁disgusted	-10904
▁fifteenth	-10905
▁fishermen	-10906
▁gathering	-10907
▁hypocrisy	-10908
▁ingenious	-10909
▁obscurity	-10910
▁obviously	-10911
▁painfully	-10912
▁petrified	-10913
▁provision	-10914
▁unwilling	-10915
▁whiteness	-10916
Monseigneur	-10917
▁attempting	-10918
▁complaints	-10919
▁discomfort	-10920
▁enterprise	-10921
▁kilometres	-10922
▁management	-10923
▁presenting	-10924
▁underneath	-10925
▁vegetables	-10926
▁Fitzwilliam	-10927
▁communicate	-10928
▁complicated	-10929
▁necessarily	-10930
▁mademoiselle	-10931
▁supernatural	-10932
▁contemplation	-10933
SE	-10934
UL	-10935
Her	-10936
IEU	-10937
Yet	-10938
aug	-10939
des	-10940
elp	-10941
elt	-10942
emb	-10943
oos	-10944
son	-10945
vre	-10946
éle	-10947
acca	-10948
idel	-10949
meme	-10950
phan	-10951
rate	-10952
reté	-10953
veux	-10954
▁Ave	-10955
▁Bat	-10956
▁III	-10957
▁Pap	-10958
▁Sav	-10959
▁Six	-10960
▁apt	-10961
▁ber	-10962
▁hal	-10963
▁tém	-10964
Quite	-10965
andom	-10966
chand	-10967
cible	-10968
eches	-10969
eenth	-10970
horse	-10971
ilion	-10972
oophy	-10973
oting	-10974
ousse	-10975
trees	-10976
▁Dame	-10977
▁Gerv	-10978
▁Mlle	-10979
▁Part	-10980
▁Paul	-10981
▁Sout	-10982
▁aren	-10983
▁atte	-10984
▁dece	-10985
▁dram	-10986
▁fera	-10987
▁lege	-10988
▁lion	-10989
▁nets	-10990
▁peak	-10991
▁pond	-10992
▁sore	-10993
▁étab	-10994
amples	-10995
assass	-10996
cerine	-10997
closed	-10998
giving	-10999
velled	-11000
▁Grill	-11001
▁Hurst	-11002
▁Porte	-11003
▁acute	-11004
▁ample	-11005
▁avail	-11006
▁blast	-11007
▁cages	-11008
▁cheap	-11009
▁chois	-11010
▁douce	-11011
▁droit	-11012
▁laden	-11013
▁locks	-11014
▁lungs	-11015
▁maids	-11016
▁mirac	-11017
▁raven	-11018
▁skirt	-11019
affaire	-11020
aration	-11021
ciously	-11022
iveness	-11023
onymous	-11024
renched	-11025
▁Caylus	-11026
▁Maheus	-11027
▁Nanine	-11028
▁Quelle	-11029
▁autant	-11030
▁beacon	-11031
▁coffin	-11032
▁conver	-11033
▁dreary	-11034
▁earned	-11035
▁entrer	-11036
▁fiacre	-11037
▁furent	-11038
▁hospit	-11039
▁impart	-11040
▁invari	-11041
▁perman	-11042
▁putter	-11043
▁rarely	-11044
▁record	-11045
▁riches	-11046
▁rights	-11047
▁sealed	-11048
▁sleeve	-11049
▁survey	-11050
▁terrif	-11051
▁thrill	-11052
▁voulez	-11053
▁zoophy	-11054
▁Austral	-11055
▁Laporte	-11056
▁average	-11057
▁blinded	-11058
▁butcher	-11059
▁cassock	-11060
▁checked	-11061
▁choking	-11062
▁colours	-11063
▁flaming	-11064
▁hauteur	-11065
▁oneself	-11066
▁pleases	-11067
▁promont	-11068
▁radiant	-11069
▁ribbons	-11070
▁superst	-11071
▁Japanese	-11072
▁attempts	-11073
▁bitterly	-11074
▁captains	-11075
▁disguise	-11076
▁edifices	-11077
▁empoison	-11078
▁fainting	-11079
▁gendarme	-11080
▁illusion	-11081
▁manifest	-11082
▁paradise	-11083
▁physiogn	-11084
▁promptly	-11085
▁sonorous	-11086
▁sparkled	-11087
▁stirring	-11088
▁tortured	-11089
▁visiting	-11090
ifications	-11091
▁agreement	-11092
▁developed	-11093
▁indispens	-11094
▁insolence	-11095
▁murmuring	-11096
▁obstinacy	-11097
▁oppressed	-11098
▁primitive	-11099
▁promenade	-11100
▁regardant	-11101
▁resounded	-11102
▁retreated	-11103
▁secretary	-11104
▁shattered	-11105
▁shipwreck	-11106
▁véritable	-11107
▁University	-11108
▁commençait	-11109
▁continuing	-11110
▁continuous	-11111
▁despairing	-11112
▁glittering	-11113
▁suggestion	-11114
▁comfortably	-11115
▁intoxicated	-11116
▁explanations	-11117
▁introduction	-11118
▁establishment	-11119
Ab	-11120
rd	-11121
isé	-11122
kor	-11123
égl	-11124
▁22	-11125
▁Mo	-11126
▁Us	-11127
Does	-11128
anse	-11129
enir	-11130
lest	-11131
lley	-11132
mell	-11133
oric	-11134
rium	-11135
ucha	-11136
urns	-11137
▁Wed	-11138
▁tué	-11139
▁vas	-11140
arded	-11141
coats	-11142
ilful	-11143
iscal	-11144
lands	-11145
mment	-11146
power	-11147
pport	-11148
quins	-11149
uated	-11150
umble	-11151
▁Cath	-11152
▁Lapp	-11153
▁Lefr	-11154
▁Pole	-11155
▁Vern	-11156
▁bond	-11157
▁chap	-11158
▁degr	-11159
▁dois	-11160
▁fiss	-11161
▁herd	-11162
▁lime	-11163
▁plut	-11164
▁spin	-11165
▁term	-11166
▁thri	-11167
▁tuft	-11168
▁vite	-11169
▁writ	-11170
iation	-11171
ifting	-11172
inders	-11173
nesday	-11174
▁Phill	-11175
▁Roddy	-11176
▁Young	-11177
▁accum	-11178
▁clums	-11179
▁crush	-11180
▁embar	-11181
▁jadis	-11182
▁jokes	-11183
▁maneu	-11184
▁parlé	-11185
▁pipes	-11186
▁poste	-11187
▁recru	-11188
▁roses	-11189
▁tenir	-11190
▁twink	-11191
▁whims	-11192
ictions	-11193
▁Grillo	-11194
▁Thanks	-11195
▁Twenty	-11196
▁accuse	-11197
▁allons	-11198
▁arrows	-11199
▁avenge	-11200
▁coloss	-11201
▁compet	-11202
▁fixing	-11203
▁heroic	-11204
▁lowest	-11205
▁mirror	-11206
▁prostr	-11207
▁random	-11208
▁risked	-11209
▁sailed	-11210
▁saloon	-11211
▁senior	-11212
▁soaked	-11213
▁sports	-11214
▁stakes	-11215
▁traits	-11216
▁tricks	-11217
▁turtle	-11218
▁warmed	-11219
▁wisdom	-11220
aneously	-11221
lessness	-11222
onnement	-11223
▁Emperor	-11224
▁Grianta	-11225
▁Gräuben	-11226
▁clatter	-11227
▁dazzled	-11228
▁defence	-11229
▁dungeon	-11230
▁effaced	-11231
▁essence	-11232
▁harmony	-11233
▁haunted	-11234
▁inherit	-11235
▁injured	-11236
▁methods	-11237
▁nowhere	-11238
▁outcast	-11239
▁passers	-11240
▁precise	-11241
▁readers	-11242
▁restait	-11243
▁sailing	-11244
▁scruple	-11245
▁somehow	-11246
▁student	-11247
▁swallow	-11248
▁sérieux	-11249
▁terrest	-11250
▁timidly	-11251
▁trusted	-11252
▁vehicle	-11253
▁Champion	-11254
▁Marquise	-11255
▁afforded	-11256
▁conceive	-11257
▁desirous	-11258
▁despised	-11259
▁enlarged	-11260
▁explored	-11261
▁gardener	-11262
▁horribly	-11263
▁internal	-11264
▁palisade	-11265
▁projects	-11266
▁province	-11267
▁severity	-11268
▁sunlight	-11269
▁unnecess	-11270
▁virtuous	-11271
▁Horscroft	-11272
▁forbidden	-11273
▁hurriedly	-11274
▁installed	-11275
▁overboard	-11276
▁promising	-11277
▁submerged	-11278
▁waterways	-11279
▁witnessed	-11280
▁balustrade	-11281
▁carelessly	-11282
▁confounded	-11283
▁exhaustion	-11284
▁generosity	-11285
▁locomotive	-11286
▁resentment	-11287
▁schoolroom	-11288
▁successful	-11289
▁settlements	-11290
▁correspondence	-11291
);	-11292
AC	-11293
TE	-11294
AND	-11295
Com	-11296
Nay	-11297
gro	-11298
lor	-11299
oda	-11300
oph	-11301
éré	-11302
étr	-11303
▁'_	-11304
▁Pô	-11305
▁ow	-11306
,−−"	-11307
Bart	-11308
Jean	-11309
Sire	-11310
amps	-11311
bute	-11312
cote	-11313
down	-11314
east	-11315
gnes	-11316
llor	-11317
nent	-11318
oubt	-11319
qual	-11320
rite	-11321
âtre	-11322
œurs	-11323
▁End	-11324
▁Fal	-11325
▁lic	-11326
▁raw	-11327
anges	-11328
dened	-11329
erted	-11330
gathe	-11331
gence	-11332
grams	-11333
ieces	-11334
licit	-11335
point	-11336
ppose	-11337
psies	-11338
rnest	-11339
▁Does	-11340
▁Made	-11341
▁Road	-11342
▁Town	-11343
▁Volt	-11344
▁baby	-11345
▁borr	-11346
▁file	-11347
▁firs	-11348
▁gale	-11349
▁hoof	-11350
▁lads	-11351
▁mamm	-11352
▁matt	-11353
▁neuf	-11354
▁oise	-11355
▁oven	-11356
▁prin	-11357
▁rues	-11358
▁rôle	-11359
▁sage	-11360
▁tuer	-11361
arming	-11362
chants	-11363
ecided	-11364
ossess	-11365
église	-11366
▁Duval	-11367
▁boast	-11368
▁chien	-11369
▁côtés	-11370
▁defic	-11371
▁fence	-11372
▁folie	-11373
▁fring	-11374
▁frown	-11375
▁ghast	-11376
▁holds	-11377
▁impot	-11378
▁meals	-11379
▁mists	-11380
▁muddy	-11381
▁oubli	-11382
▁prais	-11383
▁reçut	-11384
▁snare	-11385
▁surre	-11386
▁trail	-11387
alement	-11388
faction	-11389
▁Nelson	-11390
▁Oliver	-11391
▁Palais	-11392
▁Scotch	-11393
▁afresh	-11394
▁ashore	-11395
▁barren	-11396
▁behalf	-11397
▁button	-11398
▁colors	-11399
▁condam	-11400
▁coquet	-11401
▁county	-11402
▁decent	-11403
▁facult	-11404
▁fauteu	-11405
▁fiscal	-11406
▁gibbet	-11407
▁gleams	-11408
▁gravel	-11409
▁limits	-11410
▁portal	-11411
▁releas	-11412
▁rester	-11413
▁scales	-11414
▁shaded	-11415
▁tenait	-11416
▁theirs	-11417
▁tribun	-11418
▁troupe	-11419
▁urgent	-11420
▁wardro	-11421
occasion	-11422
▁Brazils	-11423
▁Newgate	-11424
▁Vandame	-11425
▁collect	-11426
▁concert	-11427
▁conduis	-11428
▁enlight	-11429
▁ennemis	-11430
▁honesty	-11431
▁invaded	-11432
▁nursery	-11433
▁plaster	-11434
▁policem	-11435
▁posture	-11436
▁printed	-11437
▁revenir	-11438
▁réponse	-11439
▁seminar	-11440
▁spectre	-11441
▁squares	-11442
▁statues	-11443
▁superin	-11444
▁tedious	-11445
▁tongues	-11446
▁unlucky	-11447
Professor	-11448
▁Scotland	-11449
▁allusion	-11450
▁capacity	-11451
▁castaway	-11452
▁confided	-11453
▁detached	-11454
▁discreet	-11455
▁français	-11456
▁hurrying	-11457
▁politely	-11458
▁refusing	-11459
▁spending	-11460
▁strained	-11461
▁syllable	-11462
▁treacher	-11463
▁youngest	-11464
rehensible	-11465
▁Wednesday	-11466
▁attending	-11467
▁cinquante	-11468
▁commanded	-11469
▁deafening	-11470
▁directors	-11471
▁exhibited	-11472
▁hurricane	-11473
▁injustice	-11474
▁instincts	-11475
▁landscape	-11476
▁messieurs	-11477
▁newspaper	-11478
▁privilege	-11479
▁resources	-11480
▁screaming	-11481
▁singulier	-11482
▁stationed	-11483
▁Government	-11484
▁Lefrancois	-11485
▁celebrated	-11486
▁henceforth	-11487
▁magnifique	-11488
▁occasional	-11489
▁successive	-11490
▁terminated	-11491
▁calculation	-11492
▁illuminated	-11493
▁impertinent	-11494
▁malheureuse	-11495
▁resolutions	-11496
▁superiority	-11497
▁supposition	-11498
▁commencement	-11499
▁enthusiastic	-11500
▁disappearance	-11501
▁indispensable	-11502
▁responsibility	-11503
,’	-11504
6,	-11505
7,	-11506
La	-11507
bu	-11508
ek	-11509
Two	-11510
ago	-11511
avo	-11512
bur	-11513
hot	-11514
loc	-11515
tte	-11516
uel	-11517
▁Ir	-11518
▁hâ	-11519
▁lé	-11520
***,	-11521
Stop	-11522
cour	-11523
este	-11524
lain	-11525
lais	-11526
look	-11527
obin	-11528
ties	-11529
uced	-11530
▁181	-11531
▁App	-11532
▁Dum	-11533
▁FOR	-11534
▁Hay	-11535
▁Mor	-11536
▁Str	-11537
▁caf	-11538
▁gam	-11539
▁riv	-11540
▁sab	-11541
▁sûr	-11542
Every	-11543
aller	-11544
alted	-11545
chard	-11546
cheon	-11547
escri	-11548
ilité	-11549
inese	-11550
lings	-11551
urnal	-11552
ussac	-11553
▁Bert	-11554
▁Chev	-11555
▁Claw	-11556
▁Club	-11557
▁Vict	-11558
▁abre	-11559
▁bons	-11560
▁bury	-11561
▁crop	-11562
▁deed	-11563
▁defy	-11564
▁dégu	-11565
▁enle	-11566
▁fren	-11567
▁furr	-11568
▁hath	-11569
▁hips	-11570
▁hust	-11571
▁inch	-11572
▁lame	-11573
▁lire	-11574
▁lump	-11575
▁mett	-11576
▁mini	-11577
▁narw	-11578
▁palp	-11579
▁pare	-11580
▁pere	-11581
▁puts	-11582
▁ress	-11583
▁void	-11584
Surely	-11585
arling	-11586
aulted	-11587
enfant	-11588
entine	-11589
semble	-11590
uchart	-11591
▁Black	-11592
▁Vergy	-11593
▁Voici	-11594
▁Which	-11595
▁azure	-11596
▁bliss	-11597
▁brood	-11598
▁cigar	-11599
▁confl	-11600
▁curls	-11601
▁curse	-11602
▁démar	-11603
▁exhib	-11604
▁float	-11605
▁guest	-11606
▁luxur	-11607
▁malad	-11608
▁owned	-11609
▁penit	-11610
▁penny	-11611
▁pours	-11612
▁prend	-11613
▁prett	-11614
▁reefs	-11615
▁revel	-11616
▁sandy	-11617
▁secre	-11618
▁spasm	-11619
▁sépar	-11620
▁utens	-11621
▁waved	-11622
▁Rodney	-11623
▁amitié	-11624
▁arriva	-11625
▁avenue	-11626
▁cacher	-11627
▁charms	-11628
▁closet	-11629
▁courut	-11630
▁dancer	-11631
▁devils	-11632
▁diable	-11633
▁grapes	-11634
▁harder	-11635
▁hauled	-11636
▁launch	-11637
▁malade	-11638
▁meille	-11639
▁member	-11640
▁miscar	-11641
▁parcel	-11642
▁prayed	-11643
▁quarre	-11644
▁revint	-11645
▁revoir	-11646
▁rowing	-11647
▁rudder	-11648
▁solely	-11649
▁symbol	-11650
▁testim	-11651
▁vapour	-11652
▁violet	-11653
▁virgin	-11654
▁waking	-11655
▁wander	-11656
humoured	-11657
▁Chinese	-11658
▁cheveux	-11659
▁condemn	-11660
▁connais	-11661
▁conséqu	-11662
▁expanse	-11663
▁follies	-11664
▁foresaw	-11665
▁founded	-11666
▁gaining	-11667
▁ghastly	-11668
▁imposed	-11669
▁invalid	-11670
▁joining	-11671
▁massive	-11672
▁medical	-11673
▁mixture	-11674
▁neglect	-11675
▁opposed	-11676
▁portait	-11677
▁puisque	-11678
▁seconde	-11679
▁spoiled	-11680
▁tearing	-11681
▁tightly	-11682
onsignore	-11683
▁Français	-11684
▁Phillips	-11685
▁Richmond	-11686
▁affaires	-11687
▁audacity	-11688
▁benefact	-11689
▁cautious	-11690
▁centimes	-11691
▁chambers	-11692
▁declined	-11693
▁demonstr	-11694
▁detected	-11695
▁doubtful	-11696
▁esteemed	-11697
▁furnaces	-11698
▁grandeur	-11699
▁happiest	-11700
▁invented	-11701
▁painting	-11702
▁respects	-11703
▁slipping	-11704
▁stifling	-11705
▁stripped	-11706
▁Chevreuse	-11707
▁Gentlemen	-11708
▁cherchait	-11709
▁descendre	-11710
▁falsehood	-11711
▁frankness	-11712
▁gallantry	-11713
▁happening	-11714
▁justified	-11715
▁measuring	-11716
▁montagnes	-11717
▁moustache	-11718
▁overheard	-11719
▁projected	-11720
▁salvation	-11721
▁schoolboy	-11722
▁sovereign	-11723
▁stupidity	-11724
▁subjected	-11725
▁transform	-11726
▁troubling	-11727
▁absolument	-11728
▁complained	-11729
▁dimensions	-11730
▁discussing	-11731
▁horizontal	-11732
▁reflecting	-11733
▁repugnance	-11734
▁respectful	-11735
▁independent	-11736
▁involuntary	-11737
▁thermometer	-11738
▁unaccountable	-11739
▁uncomfortable	-11740
!”	-11741
30	-11742
AU	-11743
AY	-11744
Ch	-11745
Me	-11746
OT	-11747
ST	-11748
wh	-11749
▁0	-11750
▁[	-11751
Our	-11752
igo	-11753
loy	-11754
ulf	-11755
vie	-11756
ège	-11757
▁Gi	-11758
▁mê	-11759
▁sé	-11760
acht	-11761
ader	-11762
agit	-11763
aver	-11764
cuse	-11765
emed	-11766
iate	-11767
oole	-11768
raft	-11769
rick	-11770
rors	-11771
than	-11772
uals	-11773
urez	-11774
user	-11775
vial	-11776
wels	-11777
wife	-11778
âmes	-11779
▁Gen	-11780
▁Lis	-11781
▁Ste	-11782
▁Stu	-11783
▁aqu	-11784
▁duc	-11785
▁fri	-11786
▁gir	-11787
▁jug	-11788
▁jun	-11789
▁kid	-11790
▁nin	-11791
▁nit	-11792
▁sar	-11793
abble	-11794
aterp	-11795
enait	-11796
ersed	-11797
esque	-11798
found	-11799
irait	-11800
kered	-11801
lored	-11802
orian	-11803
these	-11804
vance	-11805
vonne	-11806
▁Ages	-11807
▁Mand	-11808
▁Mars	-11809
▁abdu	-11810
▁bath	-11811
▁braz	-11812
▁buff	-11813
▁dock	-11814
▁envy	-11815
▁gait	-11816
▁garn	-11817
▁hind	-11818
▁kick	-11819
▁mama	-11820
▁mask	-11821
▁nave	-11822
▁odds	-11823
▁pled	-11824
▁plot	-11825
▁sets	-11826
▁soin	-11827
▁text	-11828
▁tube	-11829
▁urch	-11830
▁voit	-11831
Really	-11832
Speedy	-11833
accord	-11834
fectly	-11835
▁Beauv	-11836
▁Guard	-11837
▁Italy	-11838
▁Poole	-11839
▁Sacca	-11840
▁Smith	-11841
▁Voilà	-11842
▁alike	-11843
▁ambit	-11844
▁analy	-11845
▁apple	-11846
▁attic	-11847
▁cours	-11848
▁dazed	-11849
▁espér	-11850
▁ferme	-11851
▁folle	-11852
▁gross	-11853
▁haine	-11854
▁jolie	-11855
▁jolly	-11856
▁journ	-11857
▁oaths	-11858
▁olive	-11859
▁parle	-11860
▁plein	-11861
▁porch	-11862
▁pyram	-11863
▁relax	-11864
▁savez	-11865
▁screw	-11866
▁signe	-11867
▁tract	-11868
▁vapor	-11869
cession	-11870
servant	-11871
ulously	-11872
▁Bulgar	-11873
▁abbess	-11874
▁barred	-11875
▁bowels	-11876
▁cooked	-11877
▁devenu	-11878
▁errand	-11879
▁heaped	-11880
▁heaved	-11881
▁implac	-11882
▁induce	-11883
▁jewels	-11884
▁madman	-11885
▁novice	-11886
▁oyster	-11887
▁persec	-11888
▁posted	-11889
▁scound	-11890
▁shocks	-11891
▁shroud	-11892
▁snails	-11893
▁tenant	-11894
▁tragic	-11895
▁wicket	-11896
▁étonné	-11897
▁Balloon	-11898
▁Burgund	-11899
▁Mouquet	-11900
▁abreast	-11901
▁conster	-11902
▁cushion	-11903
▁dessert	-11904
▁doorway	-11905
▁duchess	-11906
▁elderly	-11907
▁endowed	-11908
▁endured	-11909
▁exalted	-11910
▁frankly	-11911
▁lacking	-11912
▁orchard	-11913
▁parlant	-11914
▁perched	-11915
▁problem	-11916
▁relieve	-11917
▁smashed	-11918
▁sourire	-11919
▁stature	-11920
▁subdued	-11921
▁tragedy	-11922
▁undergo	-11923
▁wealthy	-11924
▁Whatever	-11925
▁billiard	-11926
▁continua	-11927
▁fatigued	-11928
▁fenêtres	-11929
▁knocking	-11930
▁medicine	-11931
▁monument	-11932
▁noticing	-11933
▁outlined	-11934
▁perished	-11935
▁poignard	-11936
▁premiers	-11937
▁rational	-11938
▁répliqua	-11939
▁tropical	-11940
▁vocation	-11941
▁weighing	-11942
▁Francisco	-11943
▁anonymous	-11944
▁caressing	-11945
▁cherished	-11946
▁classroom	-11947
▁difficile	-11948
▁encourage	-11949
▁indignant	-11950
▁innocence	-11951
▁intrigues	-11952
▁merchants	-11953
▁ministère	-11954
▁nouvelles	-11955
▁obedience	-11956
▁politique	-11957
▁requested	-11958
▁seventeen	-11959
▁thickness	-11960
▁timbering	-11961
▁tormented	-11962
▁undressed	-11963
▁venturing	-11964
▁accomplice	-11965
▁consulting	-11966
▁continents	-11967
▁earthquake	-11968
▁gentleness	-11969
▁profoundly	-11970
▁reproached	-11971
▁resembling	-11972
▁shuddering	-11973
▁singularly	-11974
▁whispering	-11975
▁antechamber	-11976
▁impressions	-11977
▁terrestrial	-11978
▁apprehension	-11979
▁concentrated	-11980
▁contemplated	-11981
▁profondément	-11982
▁inexpressible	-11983
ND	-11984
oh	-11985
ecd	-11986
ems	-11987
eye	-11988
fig	-11989
fou	-11990
lit	-11991
lée	-11992
mat	-11993
viz	-11994
−−"	-11995
▁!'	-11996
▁'"	-11997
▁AT	-11998
▁Ap	-11999
Hall	-12000
anda	-12001
andy	-12002
anth	-12003
bish	-12004
fold	-12005
give	-12006
gown	-12007
igné	-12008
inqu	-12009
mark	-12010
ombe	-12011
oque	-12012
ston	-12013
éter	-12014
▁Ang	-12015
▁Bri	-12016
▁Esh	-12017
▁Has	-12018
▁XXX	-12019
▁lee	-12020
▁nim	-12021
▁sév	-12022
▁tab	-12023
Since	-12024
akers	-12025
aleen	-12026
amped	-12027
aters	-12028
elled	-12029
ichel	-12030
illot	-12031
itors	-12032
offic	-12033
osier	-12034
usage	-12035
▁Desp	-12036
▁Dess	-12037
▁area	-12038
▁bask	-12039
▁begg	-12040
▁cups	-12041
▁dusk	-12042
▁exem	-12043
▁fuel	-12044
▁glac	-12045
▁irre	-12046
▁leap	-12047
▁méde	-12048
▁onze	-12049
▁plum	-12050
▁pâle	-12051
▁rele	-12052
▁rire	-12053
▁tips	-12054
amitié	-12055
gement	-12056
ington	-12057
ouvrir	-12058
▁Maria	-12059
▁Negro	-12060
▁aimed	-12061
▁anecd	-12062
▁chast	-12063
▁choir	-12064
▁claws	-12065
▁curve	-12066
▁dîner	-12067
▁essay	-12068
▁glare	-12069
▁groan	-12070
▁groom	-12071
▁lined	-12072
▁mason	-12073
▁mistr	-12074
▁necks	-12075
▁ouver	-12076
▁parap	-12077
▁parla	-12078
▁placé	-12079
▁prose	-12080
▁seren	-12081
▁smart	-12082
▁soupç	-12083
▁spoon	-12084
▁swung	-12085
▁wives	-12086
colored	-12087
elessly	-12088
iration	-12089
isphere	-12090
▁Middle	-12091
▁Nobody	-12092
▁Parsee	-12093
▁Stuart	-12094
▁Yvonne	-12095
▁behave	-12096
▁boiled	-12097
▁bother	-12098
▁bouche	-12099
▁canoes	-12100
▁cocher	-12101
▁commer	-12102
▁create	-12103
▁device	-12104
▁devint	-12105
▁dipped	-12106
▁dugong	-12107
▁façade	-12108
▁grosse	-12109
▁jardin	-12110
▁jusque	-12111
▁latest	-12112
▁mourir	-12113
▁orphan	-12114
▁pitied	-12115
▁prépar	-12116
▁recess	-12117
▁ribbon	-12118
▁rounds	-12119
▁serais	-12120
▁sparks	-12121
▁swayed	-12122
▁transm	-12123
▁uncomm	-12124
▁vanité	-12125
▁verses	-12126
▁visite	-12127
........	-12128
▁Corinth	-12129
▁Happily	-12130
▁begging	-12131
▁claimed	-12132
▁classes	-12133
▁constit	-12134
▁depends	-12135
▁derived	-12136
▁elapsed	-12137
▁entière	-12138
▁famille	-12139
▁fancies	-12140
▁fertile	-12141
▁frantic	-12142
▁geôlier	-12143
▁happier	-12144
▁knotted	-12145
▁meadows	-12146
▁motives	-12147
▁pensées	-12148
▁replace	-12149
▁resolve	-12150
▁stunned	-12151
▁suffice	-12152
▁tumbled	-12153
▁worried	-12154
▁Carnatic	-12155
▁Voltaire	-12156
▁appropri	-12157
▁assembly	-12158
▁blessing	-12159
▁campagne	-12160
▁chestnut	-12161
▁defended	-12162
▁dernière	-12163
▁distrust	-12164
▁exciting	-12165
▁exterior	-12166
▁fauteuil	-12167
▁honestly	-12168
▁indicate	-12169
▁luncheon	-12170
▁mounting	-12171
▁poisoned	-12172
▁procured	-12173
▁quarrels	-12174
▁relating	-12175
▁requires	-12176
▁sentinel	-12177
▁sergeant	-12178
▁shutting	-12179
▁slippers	-12180
▁steamers	-12181
▁swinging	-12182
▁tapestry	-12183
▁theories	-12184
▁unworthy	-12185
aterpillar	-12186
▁Icelandic	-12187
▁Spaniards	-12188
▁architect	-12189
▁attendant	-12190
▁cowardice	-12191
▁equipment	-12192
▁patiently	-12193
▁sixteenth	-12194
▁stiffened	-12195
▁sustained	-12196
▁depression	-12197
▁exclaiming	-12198
▁forteresse	-12199
▁frequented	-12200
▁gracefully	-12201
▁newspapers	-12202
▁improvement	-12203
▁preoccupied	-12204
▁unnecessary	-12205
▁manufactured	-12206
▁successively	-12207
▁acquaintances	-12208
▁instinctively	-12209
',	-12210
._	-12211
3,	-12212
Al	-12213
Br	-12214
Fr	-12215
cs	-12216
ORE	-12217
See	-12218
arn	-12219
dre	-12220
eep	-12221
erb	-12222
has	-12223
ica	-12224
ike	-12225
irg	-12226
lio	-12227
ndo	-12228
osa	-12229
toi	-12230
~!"	-12231
▁VI	-12232
▁Ze	-12233
abbé	-12234
bbed	-12235
dire	-12236
eled	-12237
eral	-12238
izes	-12239
ogue	-12240
ommé	-12241
orme	-12242
othe	-12243
shop	-12244
tled	-12245
tles	-12246
ugal	-12247
went	-12248
▁300	-12249
▁HAR	-12250
▁HIS	-12251
▁Lie	-12252
▁Pet	-12253
▁Sub	-12254
▁Tuv	-12255
▁hay	-12256
▁jol	-12257
▁mét	-12258
▁orb	-12259
▁pha	-12260
▁ult	-12261
▁vul	-12262
aison	-12263
après	-12264
asser	-12265
avery	-12266
eloup	-12267
enetr	-12268
ettes	-12269
every	-12270
icide	-12271
isait	-12272
lying	-12273
uteur	-12274
▁Arab	-12275
▁Bout	-12276
▁Cons	-12277
▁Crab	-12278
▁Craw	-12279
▁Dent	-12280
▁Give	-12281
▁Main	-12282
▁Time	-12283
▁Xury	-12284
▁adjo	-12285
▁bony	-12286
▁cash	-12287
▁défe	-12288
▁egot	-12289
▁font	-12290
▁fowl	-12291
▁gout	-12292
▁grip	-12293
▁hagg	-12294
▁haun	-12295
▁helm	-12296
▁lawn	-12297
▁leva	-12298
▁rice	-12299
▁ripp	-12300
▁stab	-12301
▁stag	-12302
▁surp	-12303
▁tint	-12304
▁tops	-12305
▁vend	-12306
▁venu	-12307
inions	-12308
issime	-12309
ombard	-12310
érable	-12311
▁Adieu	-12312
▁Being	-12313
▁Djali	-12314
▁Lyons	-12315
▁Mongo	-12316
▁Mouse	-12317
▁adieu	-12318
▁arist	-12319
▁blush	-12320
▁corde	-12321
▁crash	-12322
▁deeds	-12323
▁dites	-12324
▁flatt	-12325
▁forge	-12326
▁grows	-12327
▁maxim	-12328
▁outst	-12329
▁perdu	-12330
▁pitié	-12331
▁pound	-12332
▁puiss	-12333
▁pumps	-12334
▁révol	-12335
▁shine	-12336
▁shots	-12337
▁snuff	-12338
▁spell	-12339
▁tooth	-12340
▁trout	-12341
▁trump	-12342
▁wagon	-12343
▁étage	-12344
amented	-12345
avaient	-12346
fashion	-12347
ustible	-12348
▁Almost	-12349
▁Cesare	-12350
▁Eshton	-12351
▁Inquis	-12352
▁Lisbon	-12353
▁Miller	-12354
▁States	-12355
▁accost	-12356
▁biting	-12357
▁centim	-12358
▁chargé	-12359
▁coasts	-12360
▁comedy	-12361
▁conval	-12362
▁devast	-12363
▁devout	-12364
▁divert	-12365
▁divide	-12366
▁grotes	-12367
▁grotto	-12368
▁hosier	-12369
▁joking	-12370
▁justly	-12371
▁noises	-12372
▁pencil	-12373
▁policy	-12374
▁propre	-12375
▁proves	-12376
▁renvoy	-12377
▁shield	-12378
▁sickly	-12379
▁sprung	-12380
▁supple	-12381
▁veille	-12382
▁vieill	-12383
▁voisin	-12384
,000,000	-12385
▁Crawley	-12386
▁Outside	-12387
▁Tuvache	-12388
▁accents	-12389
▁approve	-12390
▁barrels	-12391
▁barrier	-12392
▁bellies	-12393
▁brigade	-12394
▁bruised	-12395
▁capture	-12396
▁chagrin	-12397
▁challen	-12398
▁cooking	-12399
▁discont	-12400
▁douleur	-12401
▁earthly	-12402
▁eastern	-12403
▁manquer	-12404
▁marched	-12405
▁mineral	-12406
▁oblique	-12407
▁patches	-12408
▁pauvres	-12409
▁pouring	-12410
▁poursui	-12411
▁returns	-12412
▁secrecy	-12413
▁serving	-12414
▁watches	-12415
▁whitish	-12416
▁étrange	-12417
▁Gervaise	-12418
▁Millcote	-12419
▁Mongolia	-12420
▁accursed	-12421
▁admiring	-12422
▁ambassad	-12423
▁circonst	-12424
▁colossal	-12425
▁concerns	-12426
▁crawling	-12427
▁environs	-12428
▁favorite	-12429
▁glancing	-12430
▁impenetr	-12431
▁indescri	-12432
▁insulted	-12433
▁misunder	-12434
▁nobility	-12435
▁patients	-12436
▁resource	-12437
▁répondre	-12438
▁seigneur	-12439
▁shivered	-12440
▁surround	-12441
▁traveled	-12442
▁unfolded	-12443
▁utensils	-12444
▁wardrobe	-12445
▁Bouteloup	-12446
▁Valentine	-12447
▁accepting	-12448
▁animation	-12449
▁charmante	-12450
▁comforted	-12451
▁fisherman	-12452
▁illusions	-12453
▁insupport	-12454
▁invention	-12455
▁travelers	-12456
▁additional	-12457
▁discharged	-12458
▁discretion	-12459
▁faithfully	-12460
▁infinitely	-12461
▁performing	-12462
▁philosophy	-12463
▁population	-12464
▁semblaient	-12465
▁voluptuous	-12466
▁displeasure	-12467
▁mantelpiece	-12468
▁neighboring	-12469
▁superintend	-12470
▁underground	-12471
▁calculations	-12472
▁perspiration	-12473
▁conversations	-12474
LY	-12475
OG	-12476
hs	-12477
ik	-12478
IGH	-12479
Nor	-12480
cap	-12481
hui	-12482
rét	-12483
uil	-12484
war	-12485
élè	-12486
▁24	-12487
▁BO	-12488
▁ri	-12489
Dieu	-12490
Even	-12491
Upon	-12492
aith	-12493
atri	-12494
enez	-12495
erre	-12496
imag	-12497
ithe	-12498
ités	-12499
oler	-12500
oras	-12501
rich	-12502
ruly	-12503
ural	-12504
uvre	-12505
▁Ass	-12506
▁Dor	-12507
▁Men	-12508
▁Rep	-12509
▁biz	-12510
▁dew	-12511
▁dén	-12512
▁gin	-12513
▁rhy	-12514
▁rip	-12515
▁tie	-12516
about	-12517
aurai	-12518
avour	-12519
berge	-12520
chool	-12521
dress	-12522
enser	-12523
icism	-12524
igner	-12525
jourd	-12526
mbres	-12527
oking	-12528
quets	-12529
roken	-12530
uisse	-12531
vened	-12532
▁Moor	-12533
▁chor	-12534
▁dash	-12535
▁deme	-12536
▁eart	-12537
▁exac	-12538
▁gamb	-12539
▁gilt	-12540
▁howl	-12541
▁inev	-12542
▁knot	-12543
▁noct	-12544
▁pang	-12545
▁sept	-12546
▁stal	-12547
▁susp	-12548
▁turb	-12549
▁ware	-12550
Agathe	-12551
anding	-12552
aparte	-12553
chance	-12554
coming	-12555
escope	-12556
essart	-12557
orrows	-12558
uguese	-12559
âtelet	-12560
▁Burns	-12561
▁Carol	-12562
▁Twice	-12563
▁Water	-12564
▁brace	-12565
▁dusty	-12566
▁délic	-12567
▁entit	-12568
▁flint	-12569
▁fount	-12570
▁hunch	-12571
▁layer	-12572
▁morce	-12573
▁mouse	-12574
▁negro	-12575
▁nerve	-12576
▁newly	-12577
▁oppon	-12578
▁paler	-12579
▁petty	-12580
▁plank	-12581
▁prair	-12582
▁rails	-12583
▁reins	-12584
▁rifle	-12585
▁roast	-12586
▁récit	-12587
▁réser	-12588
▁scale	-12589
▁scant	-12590
▁shops	-12591
▁skies	-12592
▁slant	-12593
▁spoil	-12594
▁stare	-12595
▁token	-12596
▁voyez	-12597
inement	-12598
pending	-12599
reation	-12600
royable	-12601
▁Blanès	-12602
▁Depuis	-12603
▁HARRIS	-12604
▁Jussac	-12605
▁Martha	-12606
▁abused	-12607
▁barley	-12608
▁barque	-12609
▁bronze	-12610
▁carbon	-12611
▁chacun	-12612
▁chased	-12613
▁clumsy	-12614
▁garder	-12615
▁genoux	-12616
▁gladly	-12617
▁judged	-12618
▁magnet	-12619
▁medium	-12620
▁menace	-12621
▁naught	-12622
▁outlet	-12623
▁overth	-12624
▁pensée	-12625
▁plunge	-12626
▁plutôt	-12627
▁safely	-12628
▁shirts	-12629
▁skirts	-12630
▁studio	-12631
▁thighs	-12632
▁vainly	-12633
oubtless	-12634
▁affreux	-12635
▁butterf	-12636
▁changer	-12637
▁confide	-12638
▁deviner	-12639
▁earthen	-12640
▁enchant	-12641
▁fixedly	-12642
▁flashes	-12643
▁foresee	-12644
▁grieved	-12645
▁handsom	-12646
▁insults	-12647
▁offence	-12648
▁pigeons	-12649
▁raisonn	-12650
▁release	-12651
▁remarqu	-12652
▁replies	-12653
▁restaur	-12654
▁rubbish	-12655
▁scrutin	-12656
▁strikes	-12657
▁submers	-12658
▁supplic	-12659
▁talents	-12660
▁upwards	-12661
▁Bohemian	-12662
▁Catholic	-12663
▁Parisian	-12664
▁Pluchart	-12665
▁alighted	-12666
▁beauties	-12667
▁brightly	-12668
▁condesce	-12669
▁delirium	-12670
▁designed	-12671
▁distract	-12672
▁firearms	-12673
▁flashing	-12674
▁hollowed	-12675
▁included	-12676
▁narwhale	-12677
▁opinions	-12678
▁quivered	-12679
▁raconter	-12680
▁romantic	-12681
▁screamed	-12682
▁snatched	-12683
▁stamping	-12684
▁standard	-12685
▁sticking	-12686
▁telegrap	-12687
▁tendency	-12688
▁villages	-12689
▁wrinkled	-12690
▁Christmas	-12691
▁Gradually	-12692
▁accidents	-12693
▁administr	-12694
▁chocolate	-12695
▁collision	-12696
▁connaître	-12697
▁contraire	-12698
▁diversion	-12699
▁eloquence	-12700
▁essential	-12701
▁faculties	-12702
▁grotesque	-12703
▁interromp	-12704
▁northwest	-12705
▁perplexed	-12706
▁producing	-12707
▁refreshed	-12708
▁shrugging	-12709
▁southwest	-12710
▁telescope	-12711
▁thrusting	-12712
▁Dessessart	-12713
▁Maintenant	-12714
▁Portuguese	-12715
▁capricious	-12716
▁conjecture	-12717
▁disturbing	-12718
▁dreadfully	-12719
▁expressing	-12720
▁honourable	-12721
▁indulgence	-12722
▁inevitable	-12723
▁obligation	-12724
▁opposition	-12725
▁ornamented	-12726
▁passageway	-12727
▁prosperity	-12728
▁speechless	-12729
▁évidemment	-12730
▁affectation	-12731
▁connections	-12732
▁distributed	-12733
▁proposition	-12734
▁précisément	-12735
▁reconnaître	-12736
▁thereabouts	-12737
▁uncertainty	-12738
.;	-12739
AV	-12740
cot	-12741
hog	-12742
sia	-12743
îné	-12744
▁rê	-12745
Dear	-12746
bors	-12747
came	-12748
deck	-12749
enis	-12750
even	-12751
hang	-12752
inks	-12753
made	-12754
mare	-12755
ntil	-12756
onné	-12757
orde	-12758
orns	-12759
pher	-12760
umer	-12761
vres	-12762
écut	-12763
▁Die	-12764
▁Pas	-12765
▁Pic	-12766
▁Ret	-12767
▁Suz	-12768
▁Tha	-12769
▁Wal	-12770
▁jar	-12771
▁lob	-12772
▁lug	-12773
▁rug	-12774
atern	-12775
idity	-12776
iency	-12777
inous	-12778
llais	-12779
maker	-12780
norme	-12781
onner	-12782
ophie	-12783
osait	-12784
rient	-12785
rière	-12786
▁Arch	-12787
▁Bath	-12788
▁Bern	-12789
▁Bois	-12790
▁Quoi	-12791
▁Vinc	-12792
▁acce	-12793
▁afin	-12794
▁aime	-12795
▁cane	-12796
▁ceas	-12797
▁dint	-12798
▁etes	-12799
▁flex	-12800
▁gnaw	-12801
▁grad	-12802
▁juge	-12803
▁kilo	-12804
▁loos	-12805
▁melo	-12806
▁meur	-12807
▁mien	-12808
▁phot	-12809
▁prat	-12810
▁rebu	-12811
▁souv	-12812
▁témo	-12813
▁wolf	-12814
Thanks	-12815
arrêta	-12816
atcher	-12817
ausire	-12818
course	-12819
estone	-12820
ieties	-12821
jected	-12822
letons	-12823
pheres	-12824
should	-12825
stones	-12826
urable	-12827
▁Shall	-12828
▁adore	-12829
▁amant	-12830
▁amend	-12831
▁apost	-12832
▁apron	-12833
▁bough	-12834
▁cakes	-12835
▁coals	-12836
▁crabs	-12837
▁cripp	-12838
▁dealt	-12839
▁dimly	-12840
▁fling	-12841
▁jouer	-12842
▁juges	-12843
▁knave	-12844
▁lique	-12845
▁mares	-12846
▁nests	-12847
▁pulse	-12848
▁resté	-12849
▁robes	-12850
▁sabre	-12851
▁simpl	-12852
▁sixth	-12853
▁sorce	-12854
▁sunny	-12855
▁swing	-12856
▁tacit	-12857
▁tourn	-12858
▁trist	-12859
▁whore	-12860
▁yacht	-12861
udently	-12862
umbered	-12863
▁Gossip	-12864
▁Harvey	-12865
▁Millie	-12866
▁Should	-12867
▁accout	-12868
▁apprit	-12869
▁avouer	-12870
▁baleen	-12871
▁bigger	-12872
▁bridle	-12873
▁cities	-12874
▁courir	-12875
▁courte	-12876
▁crimin	-12877
▁curate	-12878
▁curric	-12879
▁ending	-12880
▁fabric	-12881
▁glimps	-12882
▁harbor	-12883
▁heated	-12884
▁incons	-12885
▁inexha	-12886
▁infant	-12887
▁lastly	-12888
▁litter	-12889
▁notary	-12890
▁odious	-12891
▁orange	-12892
▁parson	-12893
▁ponder	-12894
▁radius	-12895
▁reared	-12896
▁sabots	-12897
▁seaman	-12898
▁shaped	-12899
▁simult	-12900
▁stalls	-12901
▁strait	-12902
▁throne	-12903
▁upward	-12904
▁worksh	-12905
▁énorme	-12906
aciously	-12907
assassin	-12908
atisfied	-12909
orescent	-12910
quarters	-12911
▁Ambrose	-12912
▁Barbone	-12913
▁Liberal	-12914
▁Suzanne	-12915
▁assault	-12916
▁austere	-12917
▁baskets	-12918
▁bedside	-12919
▁beggars	-12920
▁chemise	-12921
▁college	-12922
▁compare	-12923
▁corpses	-12924
▁deepest	-12925
▁digging	-12926
▁feature	-12927
▁funeral	-12928
▁horreur	-12929
▁monarch	-12930
▁mothers	-12931
▁musical	-12932
▁peuvent	-12933
▁pleaded	-12934
▁praying	-12935
▁realize	-12936
▁retrait	-12937
▁reverie	-12938
▁shepher	-12939
▁speaker	-12940
▁strings	-12941
▁vapours	-12942
▁whipped	-12943
fashioned	-12944
ouillefou	-12945
▁adresser	-12946
▁arrivant	-12947
▁attained	-12948
▁bataille	-12949
▁clothing	-12950
▁converse	-12951
▁dialogue	-12952
▁emerging	-12953
▁forwards	-12954
▁fragment	-12955
▁honoured	-12956
▁hussards	-12957
▁imbecile	-12958
▁intently	-12959
▁locality	-12960
▁mingling	-12961
▁nobleman	-12962
▁paraître	-12963
▁parfaite	-12964
▁paternal	-12965
▁provoked	-12966
▁removing	-12967
▁shocking	-12968
▁speedily	-12969
▁symptoms	-12970
▁teachers	-12971
▁transfer	-12972
▁unreason	-12973
▁unrolled	-12974
▁vexation	-12975
▁whispers	-12976
▁barbarous	-12977
▁barometer	-12978
▁conductor	-12979
▁deposited	-12980
▁devilfish	-12981
▁formation	-12982
▁miniature	-12983
▁nightmare	-12984
▁northeast	-12985
▁portraits	-12986
▁rebellion	-12987
▁toutefois	-12988
▁troisième	-12989
▁venerable	-12990
▁Rochellais	-12991
▁affections	-12992
▁attraction	-12993
▁cautiously	-12994
▁courtisans	-12995
▁implacable	-12996
▁meditating	-12997
▁naturalist	-12998
▁peacefully	-12999
▁pretending	-13000
▁simplement	-13001
▁spectacles	-13002
▁wickedness	-13003
▁Caterpillar	-13004
▁Trouillefou	-13005
▁discouraged	-13006
▁discoveries	-13007
▁domestiques	-13008
▁certainement	-13009
▁endeavouring	-13010
▁impenetrable	-13011
▁consternation	-13012
▁encouragement	-13013
▁handkerchiefs	-13014
▁inexhaustible	-13015
▁recommendation	-13016
8,	-13017
RI	-13018
ko	-13019
mi	-13020
BLE	-13021
HAT	-13022
OUR	-13023
acr	-13024
ala	-13025
aye	-13026
bas	-13027
cep	-13028
gie	-13029
jon	-13030
sey	-13031
uty	-13032
win	-13033
▁Bu	-13034
▁IS	-13035
▁WE	-13036
▁cé	-13037
▁vœ	-13038
▁él	-13039
----	-13040
Empe	-13041
abat	-13042
alle	-13043
amma	-13044
aque	-13045
bell	-13046
cinq	-13047
fere	-13048
ilot	-13049
irai	-13050
itan	-13051
lace	-13052
loir	-13053
love	-13054
mast	-13055
nous	-13056
stre	-13057
umée	-13058
wain	-13059
welt	-13060
ylum	-13061
▁500	-13062
▁CON	-13063
▁Emp	-13064
▁Hug	-13065
▁PRO	-13066
▁Rym	-13067
▁Sar	-13068
▁Ter	-13069
▁alp	-13070
▁cyl	-13071
▁enn	-13072
▁fag	-13073
▁hue	-13074
▁lég	-13075
▁pud	-13076
▁unw	-13077
cloth	-13078
dling	-13079
ensed	-13080
fléch	-13081
iasme	-13082
idays	-13083
oudre	-13084
ouvez	-13085
ureur	-13086
▁Leah	-13087
▁Norm	-13088
▁Warr	-13089
▁aimé	-13090
▁anew	-13091
▁avar	-13092
▁bait	-13093
▁beak	-13094
▁cafe	-13095
▁cape	-13096
▁drap	-13097
▁flan	-13098
▁foam	-13099
▁garr	-13100
▁jail	-13101
▁lain	-13102
▁limb	-13103
▁maig	-13104
▁mani	-13105
▁monk	-13106
▁null	-13107
▁sonn	-13108
▁tact	-13109
▁tipt	-13110
▁écus	-13111
▁état	-13112
ARDIEU	-13113
arches	-13114
assing	-13115
icians	-13116
ivable	-13117
orting	-13118
sement	-13119
▁China	-13120
▁Jesus	-13121
▁Stras	-13122
▁Swiss	-13123
▁Sérén	-13124
▁achie	-13125
▁cares	-13126
▁dwelt	-13127
▁edges	-13128
▁faced	-13129
▁fifth	-13130
▁finer	-13131
▁folks	-13132
▁gorge	-13133
▁hatch	-13134
▁heath	-13135
▁madly	-13136
▁parch	-13137
▁poles	-13138
▁rainy	-13139
▁scour	-13140
▁sheer	-13141
▁sighs	-13142
▁spire	-13143
▁spray	-13144
▁steer	-13145
▁tiger	-13146
▁tirer	-13147
▁tread	-13148
▁usage	-13149
alousie	-13150
atching	-13151
escorte	-13152
istinct	-13153
▁Beyond	-13154
▁Champs	-13155
▁Intern	-13156
▁Listen	-13157
▁United	-13158
▁ancest	-13159
▁angles	-13160
▁antiqu	-13161
▁ardour	-13162
▁arrêté	-13163
▁attire	-13164
▁bearer	-13165
▁brilli	-13166
▁calmed	-13167
▁caress	-13168
▁curved	-13169
▁detest	-13170
▁dissol	-13171
▁econom	-13172
▁effray	-13173
▁fasten	-13174
▁ferait	-13175
▁gaieté	-13176
▁gotten	-13177
▁grains	-13178
▁guerre	-13179
▁hamper	-13180
▁headed	-13181
▁hermet	-13182
▁horrid	-13183
▁laissé	-13184
▁livery	-13185
▁ninety	-13186
▁partit	-13187
▁racont	-13188
▁reckon	-13189
▁screen	-13190
▁sponge	-13191
▁squeez	-13192
▁unkind	-13193
▁venger	-13194
▁viewed	-13195
Empereur	-13196
approcha	-13197
iastical	-13198
issement	-13199
ousiasme	-13200
vidently	-13201
▁Germain	-13202
▁Prefect	-13203
▁Sundays	-13204
▁arrêter	-13205
▁bizarre	-13206
▁circles	-13207
▁conseil	-13208
▁cordial	-13209
▁daresay	-13210
▁darling	-13211
▁dearest	-13212
▁disease	-13213
▁excused	-13214
▁execute	-13215
▁growled	-13216
▁helping	-13217
▁holiday	-13218
▁limited	-13219
▁marches	-13220
▁outrage	-13221
▁perfume	-13222
▁picking	-13223
▁refusal	-13224
▁sorrows	-13225
▁strides	-13226
▁suicide	-13227
▁suivant	-13228
▁terrace	-13229
▁travail	-13230
▁Beausire	-13231
▁Marechal	-13232
▁advances	-13233
▁applause	-13234
▁besieged	-13235
▁bohemian	-13236
▁borrowed	-13237
▁chapelle	-13238
▁critical	-13239
▁curricle	-13240
▁derrière	-13241
▁elevated	-13242
▁equipped	-13243
▁eternity	-13244
▁forsaken	-13245
▁frighted	-13246
▁imparted	-13247
▁impotent	-13248
▁mollusks	-13249
▁morality	-13250
▁parvenir	-13251
▁perspect	-13252
▁promises	-13253
▁released	-13254
▁retraite	-13255
▁revolver	-13256
▁secretly	-13257
▁shilling	-13258
▁shooting	-13259
▁shrieked	-13260
▁sounding	-13261
▁stooping	-13262
▁stumbled	-13263
▁traverse	-13264
▁trifling	-13265
▁umbrella	-13266
▁Something	-13267
▁adjoining	-13268
▁admirably	-13269
▁ambitious	-13270
▁applauded	-13271
▁calculate	-13272
▁customers	-13273
▁destitute	-13274
▁extending	-13275
▁extracted	-13276
▁fluttered	-13277
▁freshness	-13278
▁hereafter	-13279
▁imaginary	-13280
▁incessant	-13281
▁malicious	-13282
▁neighbors	-13283
▁perpetual	-13284
▁president	-13285
▁prospects	-13286
▁protector	-13287
▁sensitive	-13288
▁sideboard	-13289
▁strolling	-13290
▁uninhabit	-13291
▁zoophytes	-13292
▁Parliament	-13293
▁abundantly	-13294
▁affliction	-13295
▁compromise	-13296
▁conversing	-13297
▁discipline	-13298
▁displaying	-13299
▁handsomely	-13300
▁indistinct	-13301
▁invariably	-13302
▁meditation	-13303
▁multiplied	-13304
▁operations	-13305
▁promontory	-13306
▁providence	-13307
▁singulière	-13308
▁Sérénissime	-13309
▁appartement	-13310
▁ascertained	-13311
▁authorities	-13312
▁extravagant	-13313
▁fashionable	-13314
▁recollected	-13315
▁sentimental	-13316
▁submersible	-13317
▁temperament	-13318
▁imprisonment	-13319
▁unexpectedly	-13320
▁International	-13321
▁insupportable	-13322
▁protestations	-13323
▁unconsciously	-13324
!’	-13325
AP	-13326
Et	-13327
nn	-13328
;--	-13329
Any	-13330
ESS	-13331
adj	-13332
auc	-13333
fro	-13334
lee	-13335
ulp	-13336
▁26	-13337
▁MM	-13338
▁cy	-13339
Hush	-13340
None	-13341
bled	-13342
bted	-13343
dest	-13344
hate	-13345
hent	-13346
lect	-13347
mill	-13348
must	-13349
olas	-13350
ools	-13351
pera	-13352
rape	-13353
érêt	-13354
état	-13355
▁Jem	-13356
▁Mas	-13357
▁Pur	-13358
▁Ric	-13359
▁ank	-13360
▁ape	-13361
▁lum	-13362
▁rul	-13363
▁vil	-13364
▁wan	-13365
▁épr	-13366
▁évé	-13367
About	-13368
aland	-13369
allic	-13370
eties	-13371
fight	-13372
green	-13373
irond	-13374
isher	-13375
logne	-13376
olets	-13377
oored	-13378
ulier	-13379
éress	-13380
▁None	-13381
▁Scar	-13382
▁Trem	-13383
▁alco	-13384
▁avis	-13385
▁bolt	-13386
▁crag	-13387
▁célè	-13388
▁duck	-13389
▁glee	-13390
▁hail	-13391
▁heel	-13392
▁jagu	-13393
▁jeun	-13394
▁moan	-13395
▁pane	-13396
▁pebb	-13397
▁pell	-13398
▁pine	-13399
▁reli	-13400
▁rumm	-13401
▁saur	-13402
▁soap	-13403
▁sour	-13404
▁ting	-13405
▁vulg	-13406
▁wipe	-13407
▁worm	-13408
▁zone	-13409
Mother	-13410
amment	-13411
antime	-13412
cevoir	-13413
smouth	-13414
spread	-13415
vernoy	-13416
▁Abbot	-13417
▁Irish	-13418
▁Lille	-13419
▁Lucie	-13420
▁Reims	-13421
▁Think	-13422
▁Tours	-13423
▁abbey	-13424
▁aperç	-13425
▁arise	-13426
▁arrog	-13427
▁aupar	-13428
▁bolts	-13429
▁bonds	-13430
▁compt	-13431
▁croit	-13432
▁demol	-13433
▁digne	-13434
▁ditch	-13435
▁downs	-13436
▁drows	-13437
▁durst	-13438
▁décid	-13439
▁dévou	-13440
▁flags	-13441
▁grove	-13442
▁hears	-13443
▁horns	-13444
▁inert	-13445
▁lever	-13446
▁liver	-13447
▁mirth	-13448
▁paths	-13449
▁sends	-13450
▁sperm	-13451
▁spong	-13452
▁squat	-13453
▁stain	-13454
▁surly	-13455
▁surve	-13456
▁thumb	-13457
▁torch	-13458
aisance	-13459
artment	-13460
unsford	-13461
▁Berthe	-13462
▁Chante	-13463
▁Italie	-13464
▁Morton	-13465
▁Sophie	-13466
▁decked	-13467
▁emerge	-13468
▁engulf	-13469
▁facing	-13470
▁footpr	-13471
▁fureur	-13472
▁gagner	-13473
▁geomet	-13474
▁harmon	-13475
▁hunted	-13476
▁injure	-13477
▁layers	-13478
▁liking	-13479
▁liquor	-13480
▁malice	-13481
▁mendic	-13482
▁minuit	-13483
▁museum	-13484
▁namely	-13485
▁novels	-13486
▁owners	-13487
▁pagoda	-13488
▁pallor	-13489
▁permis	-13490
▁plague	-13491
▁preuve	-13492
▁projet	-13493
▁quaint	-13494
▁quiver	-13495
▁rejoin	-13496
▁reluct	-13497
▁rumour	-13498
▁sentit	-13499
▁shovel	-13500
▁spider	-13501
▁spoilt	-13502
▁stated	-13503
▁stupor	-13504
▁surviv	-13505
▁vastly	-13506
▁wilder	-13507
▁yelled	-13508
▁échapp	-13509
▁écrire	-13510
itations	-13511
tempered	-13512
▁Château	-13513
▁Zealand	-13514
▁battery	-13515
▁breasts	-13516
▁buzzing	-13517
▁cadavre	-13518
▁chapter	-13519
▁chercha	-13520
▁cigaret	-13521
▁cinders	-13522
▁citizen	-13523
▁combien	-13524
▁comprit	-13525
▁dealing	-13526
▁decline	-13527
▁demands	-13528
▁designs	-13529
▁devenir	-13530
▁enfants	-13531
▁failing	-13532
▁fathoms	-13533
▁forcing	-13534
▁geograp	-13535
▁gypsies	-13536
▁haggard	-13537
▁healthy	-13538
▁humming	-13539
▁labours	-13540
▁lecture	-13541
▁monkeys	-13542
▁oiseaux	-13543
▁parisis	-13544
▁prenait	-13545
▁rigging	-13546
▁shelves	-13547
▁summits	-13548
▁thicket	-13549
▁throats	-13550
▁totally	-13551
▁vaulted	-13552
▁verdure	-13553
▁écrivit	-13554
▁Duvernoy	-13555
▁Egyptian	-13556
▁bearings	-13557
▁beckoned	-13558
▁biscuits	-13559
▁certaine	-13560
▁conflict	-13561
▁connaiss	-13562
▁cracking	-13563
▁embarked	-13564
▁eminence	-13565
▁gleaming	-13566
▁heureuse	-13567
▁hopeless	-13568
▁horsemen	-13569
▁improved	-13570
▁indebted	-13571
▁infernal	-13572
▁inviting	-13573
▁jalousie	-13574
▁jeunesse	-13575
▁knitting	-13576
▁longboat	-13577
▁mattress	-13578
▁mistrust	-13579
▁mournful	-13580
▁negative	-13581
▁overflow	-13582
▁princess	-13583
▁publicly	-13584
▁pursuing	-13585
▁reddened	-13586
▁serenity	-13587
▁slippery	-13588
▁solution	-13589
▁specimen	-13590
▁teaching	-13591
▁vraiment	-13592
▁whirling	-13593
interested	-13594
▁Guardsmen	-13595
▁Peninsula	-13596
▁assistant	-13597
▁customary	-13598
▁depressed	-13599
▁engineers	-13600
▁gratified	-13601
▁harnessed	-13602
▁housemaid	-13603
▁innkeeper	-13604
▁inquiring	-13605
▁interfere	-13606
▁materials	-13607
▁nocturnal	-13608
▁passenger	-13609
▁peninsula	-13610
▁petticoat	-13611
▁streaming	-13612
▁strongest	-13613
▁traveling	-13614
▁unnatural	-13615
▁Portsmouth	-13616
▁Tremouille	-13617
▁attractive	-13618
▁auparavant	-13619
▁convulsive	-13620
▁occasioned	-13621
▁perfection	-13622
▁personnage	-13623
▁recreation	-13624
▁researches	-13625
▁tranquilly	-13626
▁Academician	-13627
▁confidences	-13628
▁convulsions	-13629
▁devotedness	-13630
▁hospitality	-13631
▁inscription	-13632
▁occupations	-13633
▁perspective	-13634
▁physiognomy	-13635
▁questioning	-13636
▁undoubtedly	-13637
▁disappearing	-13638
▁exclamations	-13639
▁outstretched	-13640
▁Unfortunately	-13641
▁indescribable	-13642
▁involuntarily	-13643
2,	-13644
5,	-13645
hm	-13646
ox	-13647
ws	-13648
▁*	-13649
,_"	-13650
Aye	-13651
Get	-13652
Mrs	-13653
exc	-13654
fif	-13655
lip	-13656
lli	-13657
oid	-13658
oil	-13659
ola	-13660
osé	-13661
oue	-13662
put	-13663
éro	-13664
▁27	-13665
▁Ag	-13666
▁rè	-13667
Down	-13668
arth	-13669
away	-13670
bred	-13671
eurs	-13672
exam	-13673
fire	-13674
gage	-13675
gger	-13676
hard	-13677
iffe	-13678
ifts	-13679
maha	-13680
orce	-13681
osph	-13682
rise	-13683
stru	-13684
▁Ben	-13685
▁Cas	-13686
▁Dev	-13687
▁Pol	-13688
▁VII	-13689
▁ait	-13690
▁ale	-13691
▁bud	-13692
▁cod	-13693
▁fug	-13694
▁hud	-13695
▁lut	-13696
▁naï	-13697
▁sag	-13698
▁sep	-13699
▁sow	-13700
▁vow	-13701
angar	-13702
ansen	-13703
creat	-13704
embar	-13705
erait	-13706
erbys	-13707
fleur	-13708
imate	-13709
ipher	-13710
issez	-13711
liant	-13712
nelle	-13713
ordin	-13714
orité	-13715
ostes	-13716
ptile	-13717
quiet	-13718
riere	-13719
ruped	-13720
taine	-13721
▁Bald	-13722
▁Dire	-13723
▁Gond	-13724
▁Hamb	-13725
▁Lade	-13726
▁Life	-13727
▁Pers	-13728
▁Prov	-13729
▁accl	-13730
▁aggr	-13731
▁baff	-13732
▁blot	-13733
▁boss	-13734
▁cris	-13735
▁cuir	-13736
▁curé	-13737
▁diet	-13738
▁drum	-13739
▁déje	-13740
▁evap	-13741
▁feeb	-13742
▁furt	-13743
▁hack	-13744
▁hing	-13745
▁honn	-13746
▁jars	-13747
▁latt	-13748
▁lids	-13749
▁mire	-13750
▁outf	-13751
▁pigs	-13752
▁pope	-13753
▁préd	-13754
▁scri	-13755
▁shan	-13756
▁stim	-13757
▁tank	-13758
▁whim	-13759
arctic	-13760
atches	-13761
eneath	-13762
hement	-13763
keness	-13764
nisien	-13765
ouette	-13766
▁Havre	-13767
▁Marie	-13768
▁Omaha	-13769
▁advis	-13770
▁aided	-13771
▁antip	-13772
▁apert	-13773
▁argue	-13774
▁beads	-13775
▁camar	-13776
▁clasp	-13777
▁croix	-13778
▁cruis	-13779
▁crumb	-13780
▁debau	-13781
▁dishe	-13782
▁empha	-13783
▁everl	-13784
▁exile	-13785
▁ferai	-13786
▁flies	-13787
▁froid	-13788
▁giddy	-13789
▁guère	-13790
▁imped	-13791
▁juger	-13792
▁labyr	-13793
▁manoe	-13794
▁noses	-13795
▁quays	-13796
▁relic	-13797
▁suivi	-13798
▁vigil	-13799
▁witty	-13800
▁wreat	-13801
▁zones	-13802
General	-13803
Germain	-13804
angling	-13805
anterie	-13806
aperçut	-13807
ciation	-13808
clothes	-13809
powered	-13810
without	-13811
▁Derbys	-13812
▁Jansen	-13813
▁Others	-13814
▁Parvis	-13815
▁Prussi	-13816
▁Script	-13817
▁Thomas	-13818
▁Tostes	-13819
▁argued	-13820
▁asylum	-13821
▁belles	-13822
▁blades	-13823
▁blamed	-13824
▁blessé	-13825
▁chilly	-13826
▁covers	-13827
▁detain	-13828
▁envers	-13829
▁envied	-13830
▁jambes	-13831
▁legend	-13832
▁lodger	-13833
▁marche	-13834
▁montre	-13835
▁moored	-13836
▁patter	-13837
▁pierce	-13838
▁puisse	-13839
▁ragged	-13840
▁robust	-13841
▁rocher	-13842
▁sembla	-13843
▁sledge	-13844
▁sleepy	-13845
▁tempor	-13846
▁territ	-13847
▁triomp	-13848
iquement	-13849
regation	-13850
▁Despite	-13851
▁Grimpen	-13852
▁Hamburg	-13853
▁Mormons	-13854
▁Patrick	-13855
▁Russian	-13856
▁arrivée	-13857
▁benches	-13858
▁benevol	-13859
▁borders	-13860
▁cabaret	-13861
▁cavalry	-13862
▁climate	-13863
▁dashing	-13864
▁drifted	-13865
▁economy	-13866
▁extrême	-13867
▁ferment	-13868
▁hissing	-13869
▁hussard	-13870
▁located	-13871
▁longues	-13872
▁muffled	-13873
▁parcels	-13874
▁players	-13875
▁portant	-13876
▁réfléch	-13877
▁scenery	-13878
▁scolded	-13879
▁sensual	-13880
▁shallow	-13881
▁tonight	-13882
▁trumpet	-13883
▁valleys	-13884
▁virtues	-13885
▁visibly	-13886
▁volière	-13887
▁whoever	-13888
▁woollen	-13889
▁Beauvois	-13890
▁Boulogne	-13891
▁Burgundy	-13892
▁Meantime	-13893
▁Minister	-13894
▁Southern	-13895
▁chanoine	-13896
▁clutched	-13897
▁conduite	-13898
▁consoled	-13899
▁consumed	-13900
▁diamants	-13901
▁division	-13902
▁dripping	-13903
▁estimate	-13904
▁galloped	-13905
▁greenish	-13906
▁greeting	-13907
▁guardian	-13908
▁généraux	-13909
▁intermin	-13910
▁lifeless	-13911
▁likeness	-13912
▁openings	-13913
▁pavilion	-13914
▁recevoir	-13915
▁recoiled	-13916
▁reported	-13917
▁repulsed	-13918
▁rumbling	-13919
▁répétait	-13920
▁selected	-13921
▁shifting	-13922
▁stealing	-13923
▁strikers	-13924
▁torrents	-13925
▁trailing	-13926
▁villains	-13927
▁vivement	-13928
▁whistled	-13929
expression	-13930
▁Henrietta	-13931
▁arranging	-13932
▁awakening	-13933
▁cavaliers	-13934
▁challenge	-13935
▁entangled	-13936
▁entreated	-13937
▁faisaient	-13938
▁glittered	-13939
▁ordinaire	-13940
▁photograp	-13941
▁powerless	-13942
▁restraint	-13943
▁strangled	-13944
▁struggles	-13945
▁submitted	-13946
▁swiftness	-13947
▁twinkling	-13948
▁uncovered	-13949
▁undertook	-13950
▁utterance	-13951
▁witnesses	-13952
▁Bournisien	-13953
▁Derbyshire	-13954
▁Strasbourg	-13955
▁charitable	-13956
▁comprendre	-13957
▁contradict	-13958
▁diminished	-13959
▁excursions	-13960
▁explaining	-13961
▁insensible	-13962
▁mentioning	-13963
▁navigating	-13964
▁respecting	-13965
▁sacrificed	-13966
▁succeeding	-13967
▁tambourine	-13968
▁development	-13969
▁excessively	-13970
▁practicable	-13971
▁remembering	-13972
▁announcement	-13973
▁connaissance	-13974
▁countenances	-13975
▁intoxication	-13976
▁presentiment	-13977
▁relationship	-13978
▁circumference	-13979
▁comparatively	-13980
▁entertainment	-13981
▁imperceptible	-13982
▁inconvenience	-13983
▁insignificant	-13984
▁reconnaissance	-13985
'.	-13986
):	-13987
-"	-13988
CH	-13989
lk	-13990
▁`	-13991
"--	-13992
ERS	-13993
Per	-13994
Pre	-13995
aie	-13996
cia	-13997
hol	-13998
hon	-13999
igs	-14000
thm	-14001
udi	-14002
xte	-14003
▁GE	-14004
▁PH	-14005
▁én	-14006
True	-14007
atig	-14008
bara	-14009
dies	-14010
extr	-14011
fing	-14012
gers	-14013
gies	-14014
isms	-14015
itch	-14016
ivet	-14017
loat	-14018
mont	-14019
omie	-14020
oved	-14021
shed	-14022
ylon	-14023
▁000	-14024
▁150	-14025
▁Cle	-14026
▁Cre	-14027
▁Dub	-14028
▁Fah	-14029
▁Joe	-14030
▁Sol	-14031
▁Wor	-14032
▁ath	-14033
▁bub	-14034
▁ded	-14035
▁jal	-14036
▁ket	-14037
▁ost	-14038
▁pon	-14039
▁tir	-14040
▁typ	-14041
▁vom	-14042
▁vœu	-14043
▁woe	-14044
▁âge	-14045
Athos	-14046
Three	-14047
avanç	-14048
avons	-14049
boats	-14050
books	-14051
chest	-14052
comed	-14053
froid	-14054
gered	-14055
holes	-14056
ibles	-14057
isons	-14058
ocate	-14059
orney	-14060
ouise	-14061
riani	-14062
érité	-14063
étend	-14064
▁Gree	-14065
▁Hill	-14066
▁Hugo	-14067
▁Kent	-14068
▁Lors	-14069
▁aide	-14070
▁arts	-14071
▁asks	-14072
▁clef	-14073
▁hook	-14074
▁huts	-14075
▁ital	-14076
▁joys	-14077
▁lied	-14078
▁midi	-14079
▁mule	-14080
▁parv	-14081
▁pony	-14082
▁rats	-14083
▁rout	-14084
▁régn	-14085
▁réun	-14086
▁sham	-14087
▁stur	-14088
▁sœur	-14089
▁tray	-14090
▁vein	-14091
Hirond	-14092
Pierre	-14093
aurier	-14094
castle	-14095
esteem	-14096
olence	-14097
opened	-14098
ristol	-14099
temper	-14100
ternal	-14101
thened	-14102
écrire	-14103
▁Opera	-14104
▁Quant	-14105
▁Toute	-14106
▁Uncle	-14107
▁Usher	-14108
▁assid	-14109
▁atmos	-14110
▁aught	-14111
▁bloom	-14112
▁chuck	-14113
▁coadj	-14114
▁comic	-14115
▁coméd	-14116
▁diffé	-14117
▁dirai	-14118
▁disad	-14119
▁expli	-14120
▁facil	-14121
▁fowls	-14122
▁fract	-14123
▁glist	-14124
▁grind	-14125
▁histo	-14126
▁ivory	-14127
▁lords	-14128
▁loyal	-14129
▁léger	-14130
▁opera	-14131
▁orang	-14132
▁paste	-14133
▁patch	-14134
▁poche	-14135
▁polar	-14136
▁salle	-14137
▁salut	-14138
▁scarf	-14139
▁shelf	-14140
▁spade	-14141
▁theat	-14142
▁tires	-14143
▁tromp	-14144
▁weren	-14145
▁wrest	-14146
arrêter	-14147
idelity	-14148
iennent	-14149
inarily	-14150
isation	-14151
istence	-14152
possess	-14153
respect	-14154
whether	-14155
▁Amiens	-14156
▁Around	-14157
▁Jeanne	-14158
▁Lastly	-14159
▁alphab	-14160
▁angels	-14161
▁blinds	-14162
▁busied	-14163
▁casket	-14164
▁chorus	-14165
▁craint	-14166
▁defeat	-14167
▁déjeun	-14168
▁extric	-14169
▁famine	-14170
▁frenzy	-14171
▁gestic	-14172
▁indust	-14173
▁insane	-14174
▁invite	-14175
▁keenly	-14176
▁kettle	-14177
▁moitié	-14178
▁monkey	-14179
▁moyens	-14180
▁pallid	-14181
▁paraît	-14182
▁partis	-14183
▁phosph	-14184
▁pierre	-14185
▁plaint	-14186
▁rabble	-14187
▁rained	-14188
▁recher	-14189
▁rotten	-14190
▁réflex	-14191
▁sights	-14192
▁sortit	-14193
▁stifle	-14194
▁supped	-14195
▁taille	-14196
▁taller	-14197
▁tapped	-14198
▁termes	-14199
▁tiptoe	-14200
▁turret	-14201
▁vivand	-14202
▁wisely	-14203
aggering	-14204
foreseen	-14205
▁Beneath	-14206
▁Bientôt	-14207
▁Bristol	-14208
▁Canivet	-14209
▁Proctor	-14210
▁Whether	-14211
▁asunder	-14212
▁bravely	-14213
▁brushed	-14214
▁chatter	-14215
▁clamour	-14216
▁contend	-14217
▁crosses	-14218
▁darting	-14219
▁density	-14220
▁doctors	-14221
▁excuses	-14222
▁fanatic	-14223
▁fathers	-14224
▁foaming	-14225
▁gliding	-14226
▁guillot	-14227
▁insects	-14228
▁interse	-14229
▁maniere	-14230
▁negroes	-14231
▁onagers	-14232
▁overall	-14233
▁passive	-14234
▁payment	-14235
▁paysans	-14236
▁pitched	-14237
▁pitiful	-14238
▁railing	-14239
▁section	-14240
▁skilful	-14241
▁sloping	-14242
▁suivait	-14243
▁trifles	-14244
▁tubbing	-14245
▁unequal	-14246
▁vicious	-14247
▁Hunsford	-14248
▁Waterloo	-14249
▁ajoutait	-14250
▁aristocr	-14251
▁befallen	-14252
▁caressed	-14253
▁citizens	-14254
▁decisive	-14255
▁dictated	-14256
▁entitled	-14257
▁examples	-14258
▁exertion	-14259
▁festival	-14260
▁grumbled	-14261
▁holidays	-14262
▁libéraux	-14263
▁lingered	-14264
▁loosened	-14265
▁national	-14266
▁overcame	-14267
▁persecut	-14268
▁plunging	-14269
▁quarante	-14270
▁rejected	-14271
▁rejoiced	-14272
▁remettre	-14273
▁renounce	-14274
▁response	-14275
▁régiment	-14276
▁scruples	-14277
▁solemnly	-14278
▁speeches	-14279
▁thickets	-14280
▁treating	-14281
▁vehement	-14282
▁venaient	-14283
Hirondelle	-14284
▁Landriani	-14285
▁allowance	-14286
▁apparence	-14287
▁commotion	-14288
▁conscient	-14289
▁dispersed	-14290
▁démission	-14291
▁exceeding	-14292
▁explorers	-14293
▁ferocious	-14294
▁flattened	-14295
▁imagining	-14296
▁interpret	-14297
▁isolation	-14298
▁labyrinth	-14299
▁mysteries	-14300
▁naissance	-14301
▁northward	-14302
▁positions	-14303
▁pronounce	-14304
▁withdrawn	-14305
▁concealing	-14306
▁manifested	-14307
▁miraculous	-14308
▁monsignore	-14309
▁overlooked	-14310
▁atmospheres	-14311
▁countryside	-14312
▁fascination	-14313
▁inheritance	-14314
▁plantations	-14315
▁recognizing	-14316
▁compromising	-14317
▁interminable	-14318
▁magnificence	-14319
▁stupefaction	-14320
▁thankfulness	-14321
▁disinterested	-14322
▁simultaneously	-14323
4,	-14324
En	-14325
NE	-14326
Ne	-14327
UT	-14328
Ur	-14329
."'	-14330
Ang	-14331
Hum	-14332
ILE	-14333
OUT	-14334
RET	-14335
imo	-14336
iét	-14337
ths	-14338
uir	-14339
▁HE	-14340
▁Ox	-14341
...,	-14342
Char	-14343
IGHT	-14344
anes	-14345
atan	-14346
does	-14347
girl	-14348
good	-14349
ipel	-14350
isme	-14351
lips	-14352
obli	-14353
oirs	-14354
sees	-14355
them	-14356
ubri	-14357
uyer	-14358
▁179	-14359
▁182	-14360
▁Bal	-14361
▁Bos	-14362
▁Din	-14363
▁Dès	-14364
▁Gir	-14365
▁Hor	-14366
▁Luz	-14367
▁Off	-14368
▁Oly	-14369
▁Row	-14370
▁aer	-14371
▁ali	-14372
▁cub	-14373
▁hyd	-14374
▁inm	-14375
▁jac	-14376
▁jeu	-14377
▁laz	-14378
▁nic	-14379
▁rat	-14380
▁roi	-14381
▁ski	-14382
▁sly	-14383
▁tes	-14384
Madam	-14385
Right	-14386
adier	-14387
ardly	-14388
bbers	-14389
could	-14390
entre	-14391
franc	-14392
glise	-14393
hemat	-14394
ioned	-14395
ircle	-14396
lanco	-14397
otest	-14398
ouill	-14399
raved	-14400
still	-14401
those	-14402
udule	-14403
umbed	-14404
umeur	-14405
unity	-14406
urrah	-14407
venth	-14408
▁Beth	-14409
▁Chas	-14410
▁Font	-14411
▁Inst	-14412
▁Rang	-14413
▁Turk	-14414
▁acts	-14415
▁adul	-14416
▁amph	-14417
▁anne	-14418
▁belf	-14419
▁ceci	-14420
▁depl	-14421
▁dirt	-14422
▁doig	-14423
▁fres	-14424
▁fret	-14425
▁glut	-14426
▁gods	-14427
▁inac	-14428
▁lass	-14429
▁meek	-14430
▁odor	-14431
▁préf	-14432
▁ranc	-14433
▁rede	-14434
▁révé	-14435
▁silh	-14436
▁site	-14437
▁sols	-14438
▁spat	-14439
▁stru	-14440
▁unce	-14441
▁vaut	-14442
▁wont	-14443
adress	-14444
aminet	-14445
ançois	-14446
avance	-14447
boards	-14448
igrade	-14449
issors	-14450
lesome	-14451
ousing	-14452
owness	-14453
piring	-14454
ricult	-14455
struck	-14456
termin	-14457
éloign	-14458
▁Petit	-14459
▁Pilot	-14460
▁Vieux	-14461
▁alder	-14462
▁année	-14463
▁arrow	-14464
▁bague	-14465
▁blanc	-14466
▁bruis	-14467
▁chaos	-14468
▁deign	-14469
▁faute	-14470
▁flick	-14471
▁gauge	-14472
▁insin	-14473
▁invin	-14474
▁joint	-14475
▁ligne	-14476
▁lions	-14477
▁mayor	-14478
▁nommé	-14479
▁opens	-14480
▁peaks	-14481
▁phleg	-14482
▁plump	-14483
▁procl	-14484
▁protr	-14485
▁repar	-14486
▁resul	-14487
▁rogue	-14488
▁satur	-14489
▁serez	-14490
▁shark	-14491
▁slice	-14492
▁soins	-14493
▁stray	-14494
▁viend	-14495
▁vouch	-14496
▁width	-14497
Urville	-14498
arewell	-14499
atcherd	-14500
extrême	-14501
fleurie	-14502
licting	-14503
omorrow	-14504
rending	-14505
▁Empire	-14506
▁Gondel	-14507
▁Thunes	-14508
▁adroit	-14509
▁barric	-14510
▁battre	-14511
▁brazen	-14512
▁butler	-14513
▁candid	-14514
▁cannib	-14515
▁copies	-14516
▁cordes	-14517
▁couver	-14518
▁devote	-14519
▁domain	-14520
▁dragon	-14521
▁ensued	-14522
▁entour	-14523
▁espoir	-14524
▁excite	-14525
▁exempl	-14526
▁exists	-14527
▁fameux	-14528
▁firent	-14529
▁frigid	-14530
▁girdle	-14531
▁heroes	-14532
▁hinder	-14533
▁infamy	-14534
▁kangar	-14535
▁keeper	-14536
▁machin	-14537
▁merits	-14538
▁metric	-14539
▁morsel	-14540
▁métier	-14541
▁penser	-14542
▁procéd	-14543
▁prosec	-14544
▁purely	-14545
▁répand	-14546
▁slaves	-14547
▁soleil	-14548
▁starve	-14549
▁suivit	-14550
▁writes	-14551
ablement	-14552
cessible	-14553
escalier	-14554
iliation	-14555
officier	-14556
▁Berwick	-14557
▁Messire	-14558
▁Rangoon	-14559
▁Reading	-14560
▁antagon	-14561
▁apology	-14562
▁archers	-14563
▁aujourd	-14564
▁biggest	-14565
▁blocked	-14566
▁boating	-14567
▁carries	-14568
▁carving	-14569
▁chatted	-14570
▁chilled	-14571
▁compose	-14572
▁cowards	-14573
▁erected	-14574
▁failure	-14575
▁fowling	-14576
▁glimmer	-14577
▁justify	-14578
▁largest	-14579
▁libéral	-14580
▁matches	-14581
▁mocking	-14582
▁montrer	-14583
▁mélanco	-14584
▁novelty	-14585
▁parapet	-14586
▁pebbles	-14587
▁peeping	-14588
▁phantom	-14589
▁pickaxe	-14590
▁pinched	-14591
▁proudly	-14592
▁remords	-14593
▁rentrer	-14594
▁reprodu	-14595
▁rescued	-14596
▁robbers	-14597
▁snoring	-14598
▁spurred	-14599
▁steered	-14600
▁thirsty	-14601
▁threads	-14602
▁tossing	-14603
▁traitor	-14604
▁trivial	-14605
▁winning	-14606
attention	-14607
important	-14608
▁Florence	-14609
▁Quelques	-14610
▁accusing	-14611
▁affirmed	-14612
▁agricult	-14613
▁aperture	-14614
▁chasseur	-14615
▁clapping	-14616
▁commença	-14617
▁conduire	-14618
▁coughing	-14619
▁councill	-14620
▁courtesy	-14621
▁creepers	-14622
▁crouched	-14623
▁darkened	-14624
▁detested	-14625
▁diameter	-14626
▁drifting	-14627
▁educated	-14628
▁expanded	-14629
▁extermin	-14630
▁fancying	-14631
▁hangings	-14632
▁humility	-14633
▁idleness	-14634
▁impelled	-14635
▁industri	-14636
▁inflamed	-14637
▁inwardly	-14638
▁mathemat	-14639
▁miseries	-14640
▁mouthful	-14641
▁prompted	-14642
▁propriet	-14643
▁punctual	-14644
▁rattling	-14645
▁reaction	-14646
▁shameful	-14647
▁stupidly	-14648
▁training	-14649
▁vivacity	-14650
▁weakened	-14651
▁welcomed	-14652
▁Antarctic	-14653
▁Australia	-14654
▁Cependant	-14655
▁Guardsman	-14656
▁Scatcherd	-14657
▁assassins	-14658
▁autrement	-14659
▁cetaceans	-14660
▁demandait	-14661
▁kilograms	-14662
▁marvelous	-14663
▁mendicant	-14664
▁muttering	-14665
▁possesses	-14666
▁professed	-14667
▁présenter	-14668
▁quadruped	-14669
▁slaughter	-14670
▁strangest	-14671
▁structure	-14672
▁abandoning	-14673
▁announcing	-14674
▁assurances	-14675
▁chancellor	-14676
▁chattering	-14677
▁cheerfully	-14678
▁courageous	-14679
▁cultivated	-14680
▁destroying	-14681
▁displeased	-14682
▁familiarly	-14683
▁hypothesis	-14684
▁irritating	-14685
▁paraissait	-14686
▁separating	-14687
▁stammering	-14688
▁submission	-14689
▁substances	-14690
▁superhuman	-14691
▁supporting	-14692
▁unforeseen	-14693
▁vivandière	-14694
▁wilderness	-14695
▁anticipated	-14696
▁conjectures	-14697
▁contributed	-14698
▁extremities	-14699
▁fascinating	-14700
▁humiliation	-14701
▁instinctive	-14702
▁personnages	-14703
▁pronouncing	-14704
▁sensibility	-14705
▁voluntarily	-14706
▁Gondelaurier	-14707
▁inaccessible	-14708
▁probablement	-14709
▁respectfully	-14710
▁Chantefleurie	-14711
▁extraordinaire	-14712
▁phosphorescent	-14713
#,	-14714
Gr	-14715
IM	-14716
_;	-14717
jk	-14718
té	-14719
AIN	-14720
EST	-14721
bet	-14722
iav	-14723
igz	-14724
kar	-14725
olk	-14726
rum	-14727
▁BE	-14728
▁Fe	-14729
▁RE	-14730
▁Ru	-14731
▁dû	-14732
▁lu	-14733
▁ça	-14734
acqu	-14735
cons	-14736
erve	-14737
igny	-14738
ilib	-14739
onça	-14740
rown	-14741
ruct	-14742
umph	-14743
wart	-14744
writ	-14745
zzle	-14746
âces	-14747
▁Bab	-14748
▁Bre	-14749
▁COM	-14750
▁Get	-14751
▁MON	-14752
▁Moi	-14753
▁Qui	-14754
▁Rom	-14755
▁War	-14756
▁ais	-14757
▁bât	-14758
▁dér	-14759
▁eag	-14760
▁gue	-14761
▁nig	-14762
▁oar	-14763
▁siè	-14764
▁soy	-14765
▁sut	-14766
▁ugl	-14767
Antin	-14768
Marie	-14769
ancée	-14770
azine	-14771
comer	-14772
enant	-14773
ennui	-14774
ignit	-14775
ingle	-14776
istre	-14777
itory	-14778
obser	-14779
plain	-14780
rance	-14781
shore	-14782
texte	-14783
tures	-14784
▁Asia	-14785
▁Aunt	-14786
▁Boul	-14787
▁Cher	-14788
▁Crus	-14789
▁Nort	-14790
▁Pall	-14791
▁Park	-14792
▁Piol	-14793
▁Rejk	-14794
▁agré	-14795
▁amus	-14796
▁bowl	-14797
▁bred	-14798
▁capy	-14799
▁carc	-14800
▁clin	-14801
▁dice	-14802
▁faim	-14803
▁forb	-14804
▁hâta	-14805
▁joli	-14806
▁laud	-14807
▁myri	-14808
▁penn	-14809
▁poit	-14810
▁romp	-14811
▁sarc	-14812
▁sinc	-14813
▁sown	-14814
▁ster	-14815
▁sulp	-14816
▁sung	-14817
▁turf	-14818
▁vont	-14819
bridge	-14820
celain	-14821
cribed	-14822
entrée	-14823
handed	-14824
illery	-14825
ioness	-14826
ithing	-14827
locked	-14828
pieces	-14829
things	-14830
urance	-14831
vingts	-14832
▁2,000	-14833
▁Aussi	-14834
▁Baker	-14835
▁Fools	-14836
▁Koras	-14837
▁Until	-14838
▁bayon	-14839
▁bloss	-14840
▁booty	-14841
▁canon	-14842
▁chees	-14843
▁cling	-14844
▁connu	-14845
▁costs	-14846
▁deleg	-14847
▁entry	-14848
▁evils	-14849
▁excav	-14850
▁fluid	-14851
▁foule	-14852
▁gipsy	-14853
▁guilt	-14854
▁gusts	-14855
▁humor	-14856
▁immov	-14857
▁indec	-14858
▁inund	-14859
▁jelly	-14860
▁jeter	-14861
▁labou	-14862
▁lapse	-14863
▁lieue	-14864
▁mustn	-14865
▁paced	-14866
▁plong	-14867
▁poets	-14868
▁rains	-14869
▁rente	-14870
▁ruddy	-14871
▁réfug	-14872
▁sangu	-14873
▁sneer	-14874
▁sting	-14875
[...]
